{
  "version": "1.0",
  "truncation": null,
  "padding": null,
  "added_tokens": [
    {
      "id": 0,
      "content": "[PAD]",
      "single_word": false,
      "lstrip": false,
      "rstrip": false,
      "normalized": false,
      "special": true
    },
    {
      "id": 1,
      "content": "[BOS]",
      "single_word": false,
      "lstrip": false,
      "rstrip": false,
      "normalized": false,
      "special": true
    },
    {
      "id": 2,
      "content": "[EOS]",
      "single_word": false,
      "lstrip": false,
      "rstrip": false,
      "normalized": false,
      "special": true
    },
    {
      "id": 3,
      "content": "[UNK]",
      "single_word": false,
      "lstrip": false,
      "rstrip": false,
      "normalized": false,
      "special": true
    }
  ],
  "normalizer": null,
  "pre_tokenizer": null,
  "post_processor": null,
  "decoder": null,
  "model": {
    "type": "BPE",
    "dropout": null,
    "unk_token": "[UNK]",
    "continuing_subword_prefix": null,
    "end_of_word_suffix": null,
    "fuse_unk": false,
    "byte_fallback": false,
    "ignore_merges": false,
    "vocab": {
      "[PAD]": 0,
      "[BOS]": 1,
      "[EOS]": 2,
      "[UNK]": 3,
      "\n": 4,
      "\r": 5,
      " ": 6,
      "!": 7,
      "$": 8,
      "&": 9,
      "'": 10,
      ",": 11,
      "-": 12,
      ".": 13,
      "3": 14,
      ":": 15,
      ";": 16,
      "?": 17,
      "A": 18,
      "B": 19,
      "C": 20,
      "D": 21,
      "E": 22,
      "F": 23,
      "G": 24,
      "H": 25,
      "I": 26,
      "J": 27,
      "K": 28,
      "L": 29,
      "M": 30,
      "N": 31,
      "O": 32,
      "P": 33,
      "Q": 34,
      "R": 35,
      "S": 36,
      "T": 37,
      "U": 38,
      "V": 39,
      "W": 40,
      "X": 41,
      "Y": 42,
      "Z": 43,
      "a": 44,
      "b": 45,
      "c": 46,
      "d": 47,
      "e": 48,
      "f": 49,
      "g": 50,
      "h": 51,
      "i": 52,
      "j": 53,
      "k": 54,
      "l": 55,
      "m": 56,
      "n": 57,
      "o": 58,
      "p": 59,
      "q": 60,
      "r": 61,
      "s": 62,
      "t": 63,
      "u": 64,
      "v": 65,
      "w": 66,
      "x": 67,
      "y": 68,
      "z": 69,
      "e ": 70,
      "th": 71,
      ", ": 72,
      "t ": 73,
      "s ": 74,
      "d ": 75,
      "ou": 76,
      "er": 77,
      "y ": 78,
      "in": 79,
      "an": 80,
      ": ": 81,
      "or": 82,
      "o ": 83,
      "en": 84,
      "\r\n": 85,
      "ar": 86,
      " th": 87,
      "on": 88,
      "ll": 89,
      "ha": 90,
      "is ": 91,
      "es": 92,
      "you": 93,
      "I ": 94,
      "to ": 95,
      "and ": 96,
      "ow": 97,
      "ea": 98,
      "f ": 99,
      "ll ": 100,
      "e, ": 101,
      "ing": 102,
      "r ": 103,
      "wi": 104,
      "om": 105,
      "; ": 106,
      "st": 107,
      "er ": 108,
      "the ": 109,
      "hi": 110,
      "th ": 111,
      "ve ": 112,
      "no": 113,
      "ch": 114,
      "my ": 115,
      "for": 116,
      "a ": 117,
      "of ": 118,
      "se": 119,
      "he ": 120,
      " the ": 121,
      "? ": 122,
      "li": 123,
      "at ": 124,
      "re": 125,
      "st ": 126,
      "ing ": 127,
      "An": 128,
      "ear": 129,
      "ti": 130,
      "! ": 131,
      "oo": 132,
      "you ": 133,
      "d, ": 134,
      "gh": 135,
      "ri": 136,
      "in ": 137,
      "ma": 138,
      "ed ": 139,
      "s, ": 140,
      "en ": 141,
      "ra": 142,
      "not ": 143,
      "And ": 144,
      "'s ": 145,
      "t, ": 146,
      "me ": 147,
      "m ": 148,
      "es ": 149,
      "y, ": 150,
      "ld ": 151,
      "as ": 152,
      "his ": 153,
      "la": 154,
      "ut ": 155,
      "ir": 156,
      "hat ": 157,
      "ou ": 158,
      "le": 159,
      "ur": 160,
      "sh": 161,
      "be ": 162,
      "be": 163,
      "your ": 164,
      "it ": 165,
      "ro": 166,
      "di": 167,
      "O: ": 168,
      "ow ": 169,
      "ere ": 170,
      "ke ": 171,
      "on ": 172,
      "ee": 173,
      "un": 174,
      "an ": 175,
      "ch ": 176,
      "EN": 177,
      "k ": 178,
      "se ": 179,
      "IN": 180,
      "fa": 181,
      "have ": 182,
      "or ": 183,
      "with ": 184,
      "that ": 185,
      "ce ": 186,
      "the": 187,
      "it": 188,
      "e\r\n": 189,
      "Th": 190,
      "l ": 191,
      "sa": 192,
      "S: ": 193,
      "com": 194,
      "our ": 195,
      "at": 196,
      "'d ": 197,
      "AR": 198,
      "le ": 199,
      "of": 200,
      "lo": 201,
      "wh": 202,
      "for ": 203,
      "ta": 204,
      "sha": 205,
      "ther": 206,
      "sp": 207,
      "ould ": 208,
      "IO: ": 209,
      "ly ": 210,
      "rea": 211,
      "n ": 212,
      "su": 213,
      "ent": 214,
      "Wh": 215,
      "but ": 216,
      "will ": 217,
      "me": 218,
      "The ": 219,
      "US: ": 220,
      "con": 221,
      "ca": 222,
      "are ": 223,
      " the": 224,
      "ru": 225,
      "si": 226,
      "To ": 227,
      "wor": 228,
      "ne": 229,
      "de": 230,
      "ood ": 231,
      "we": 232,
      "ir ": 233,
      "wa": 234,
      "thou ": 235,
      "da": 236,
      "by ": 237,
      "mor": 238,
      "ver": 239,
      "ce": 240,
      "ol": 241,
      "mi": 242,
      "man": 243,
      "ther ": 244,
      "ter": 245,
      "so ": 246,
      "UC": 247,
      "ck": 248,
      "ING": 249,
      "up": 250,
      "d\r\n": 251,
      "s\r\n": 252,
      "shall ": 253,
      "rom": 254,
      "oun": 255,
      "mu": 256,
      "ds ": 257,
      "we ": 258,
      "lor": 259,
      "AN": 260,
      "res": 261,
      "him": 262,
      "mo": 263,
      "him ": 264,
      "ER": 265,
      "hear": 266,
      "OR": 267,
      "sel": 268,
      "ght ": 269,
      "et ": 270,
      "do ": 271,
      "ET": 272,
      "That ": 273,
      "po": 274,
      "qu": 275,
      "o, ": 276,
      "thy ": 277,
      "kn": 278,
      "vi": 279,
      "our": 280,
      "bl": 281,
      "te": 282,
      "her ": 283,
      "no ": 284,
      "pa": 285,
      "this ": 286,
      "'ll ": 287,
      "what ": 288,
      "ga": 289,
      "est ": 290,
      "KING": 291,
      " that ": 292,
      "one ": 293,
      " this ": 294,
      "to": 295,
      "A: ": 296,
      "her": 297,
      "ess ": 298,
      "do": 299,
      "ci": 300,
      "But ": 301,
      "el": 302,
      "from": 303,
      "bo": 304,
      "ent ": 305,
      "ong": 306,
      "y\r\n": 307,
      "fi": 308,
      "us ": 309,
      "al": 310,
      "t\r\n": 311,
      "hich ": 312,
      "war": 313,
      "es, ": 314,
      "IC": 315,
      "all ": 316,
      "dea": 317,
      "good ": 318,
      "sir": 319,
      "was ": 320,
      "hea": 321,
      "with": 322,
      "fe": 323,
      "OL": 324,
      "lea": 325,
      "EL": 326,
      "fu": 327,
      "ARD": 328,
      "KING ": 329,
      "ome ": 330,
      "would ": 331,
      "p ": 332,
      "all": 333,
      "min": 334,
      "--": 335,
      "IUS: ": 336,
      "row": 337,
      "ous ": 338,
      "par": 339,
      "My ": 340,
      "ce, ": 341,
      "ear ": 342,
      ": I ": 343,
      "ST": 344,
      "tt": 345,
      "Wi": 346,
      "ve": 347,
      ", and ": 348,
      "ough": 349,
      "ran": 350,
      "' ": 351,
      "I'll ": 352,
      "pro": 353,
      "der": 354,
      "ho": 355,
      "gi": 356,
      "ver ": 357,
      "de ": 358,
      " thy ": 359,
      "ge ": 360,
      "to the ": 361,
      "am ": 362,
      "more ": 363,
      "is": 364,
      "per": 365,
      "ble ": 366,
      "me, ": 367,
      "us": 368,
      "ts ": 369,
      "tru": 370,
      "E: ": 371,
      "ON": 372,
      "What ": 373,
      "gra": 374,
      "if ": 375,
      "As ": 376,
      "bro": 377,
      "sw": 378,
      "she ": 379,
      "ere": 380,
      "d; ": 381,
      "were ": 382,
      " I": 383,
      "from ": 384,
      "For ": 385,
      "son": 386,
      "king": 387,
      "out ": 388,
      "en, ": 389,
      "he": 390,
      "so": 391,
      "ck ": 392,
      "like ": 393,
      "hath ": 394,
      "make ": 395,
      "Ha": 396,
      "ba": 397,
      "A ": 398,
      "d: ": 399,
      "ge": 400,
      "pe": 401,
      "'t": 402,
      "ARD I": 403,
      "in the ": 404,
      "du": 405,
      "go": 406,
      "you, ": 407,
      "may ": 408,
      "na": 409,
      "ni": 410,
      "RO": 411,
      "TIO: ": 412,
      "must ": 413,
      "I: ": 414,
      "let ": 415,
      "AU": 416,
      "Y ": 417,
      "come ": 418,
      "E ": 419,
      "ght": 420,
      "end ": 421,
      "gain": 422,
      "tion": 423,
      "th, ": 424,
      "ow, ": 425,
      "irst ": 426,
      "ET: ": 427,
      "You ": 428,
      "should ": 429,
      "fri": 430,
      "fore ": 431,
      "spea": 432,
      "mb": 433,
      "I have ": 434,
      "can": 435,
      "mp": 436,
      "pp": 437,
      "they ": 438,
      "id ": 439,
      " thou ": 440,
      "; And ": 441,
      "of the ": 442,
      "ICH": 443,
      "RICH": 444,
      "lan": 445,
      "ence ": 446,
      "des": 447,
      "han": 448,
      "had ": 449,
      "ll, ": 450,
      "I am ": 451,
      "mar": 452,
      "CA": 453,
      "DU": 454,
      "s: ": 455,
      "DUK": 456,
      "ese ": 457,
      "DUKE ": 458,
      "hon": 459,
      "sta": 460,
      "ac": 461,
      "ry ": 462,
      "w ": 463,
      "gu": 464,
      "thee ": 465,
      "Go": 466,
      "K: ": 467,
      "ey": 468,
      "which ": 469,
      "own ": 470,
      "ose ": 471,
      "ven ": 472,
      "now ": 473,
      "ous": 474,
      "ENTIO: ": 475,
      "pla": 476,
      "O, ": 477,
      "some ": 478,
      "own": 479,
      "lif": 480,
      "ig": 481,
      "ome": 482,
      "self": 483,
      "ure ": 484,
      "very ": 485,
      "He ": 486,
      "pr": 487,
      "my lor": 488,
      "loo": 489,
      "ted ": 490,
      "INC": 491,
      "ty ": 492,
      "did ": 493,
      "il": 494,
      "end": 495,
      "how ": 496,
      "ster": 497,
      "here ": 498,
      "say ": 499,
      "ex": 500,
      "op": 501,
      "ER: ": 502,
      "dy ": 503,
      "gent": 504,
      "t's ": 505,
      "; and ": 506,
      "tion ": 507,
      "ful ": 508,
      "sti": 509,
      "sir, ": 510,
      "take ": 511,
      "ves ": 512,
      "O ": 513,
      "Y: ": 514,
      "such ": 515,
      "AB": 516,
      "ven": 517,
      "ve, ": 518,
      "again": 519,
      "cu": 520,
      "al ": 521,
      "most ": 522,
      "ther, ": 523,
      "thin": 524,
      "love ": 525,
      "give ": 526,
      "man ": 527,
      "t: ": 528,
      "yet ": 529,
      "char": 530,
      "KING RICH": 531,
      "-- ": 532,
      "KING RICHARD I": 533,
      "LO": 534,
      "coun": 535,
      "sc": 536,
      "First ": 537,
      "pri": 538,
      "self ": 539,
      "Which ": 540,
      "see ": 541,
      "pra": 542,
      "EST": 543,
      "If ": 544,
      "whi": 545,
      "k, ": 546,
      "chi": 547,
      "king ": 548,
      "This ": 549,
      "UCH": 550,
      "EEN": 551,
      "GLO": 552,
      "ser": 553,
      "sed ": 554,
      "eet ": 555,
      "UCEST": 556,
      "GLOUCEST": 557,
      "Lor": 558,
      "vo": 559,
      "I will ": 560,
      " their ": 561,
      "Ma": 562,
      "oul": 563,
      "their ": 564,
      "know ": 565,
      "bu": 566,
      "s; ": 567,
      "sh ": 568,
      "LI": 569,
      ", And ": 570,
      "ough ": 571,
      "QU": 572,
      "s of ": 573,
      "well ": 574,
      "QUEEN": 575,
      "F ": 576,
      "OF ": 577,
      "Mar": 578,
      "ds, ": 579,
      "VINC": 580,
      "d? ": 581,
      "m, ": 582,
      "GLOUCESTER: ": 583,
      "VINCENTIO: ": 584,
      "when ": 585,
      "can ": 586,
      "brea": 587,
      "y: ": 588,
      "With ": 589,
      "d's ": 590,
      "HEN": 591,
      "te ": 592,
      "any ": 593,
      "to be ": 594,
      "ome, ": 595,
      "tu": 596,
      "How ": 597,
      "Se": 598,
      "af": 599,
      "go ": 600,
      "lt ": 601,
      "time ": 602,
      "ind ": 603,
      "grea": 604,
      "om ": 605,
      "upon ": 606,
      "RY ": 607,
      "So ": 608,
      "Thou ": 609,
      "well": 610,
      "HENRY ": 611,
      "ban": 612,
      "fo": 613,
      "'tis ": 614,
      "mine ": 615,
      "ES": 616,
      "ad": 617,
      "ved ": 618,
      "ng": 619,
      "made ": 620,
      "thing ": 621,
      "see": 622,
      "them ": 623,
      "jo": 624,
      "pre": 625,
      "QUEEN ": 626,
      "Is ": 627,
      "ap": 628,
      "DUKE VINCENTIO: ": 629,
      "br": 630,
      "lie": 631,
      "ORI": 632,
      "too ": 633,
      "Your ": 634,
      "YOR": 635,
      "pres": 636,
      "never ": 637,
      "We ": 638,
      "ab": 639,
      "don": 640,
      "s! ": 641,
      "tter": 642,
      "rie": 643,
      "Wha": 644,
      "d! ": 645,
      "Of ": 646,
      "ce\r\n": 647,
      "mer": 648,
      "art ": 649,
      "In ": 650,
      "old ": 651,
      "y; ": 652,
      "men": 653,
      "thou": 654,
      "ing, ": 655,
      "know": 656,
      "ju": 657,
      "use ": 658,
      "less ": 659,
      "then ": 660,
      "s and ": 661,
      "er: ": 662,
      "lu": 663,
      "DW": 664,
      "EDW": 665,
      "'st ": 666,
      "It ": 667,
      "tra": 668,
      "Why, ": 669,
      "way ": 670,
      "Ri": 671,
      "dee": 672,
      "o'": 673,
      "ke": 674,
      "INIUS: ": 675,
      "ES: ": 676,
      "der ": 677,
      "far": 678,
      "sen": 679,
      "st, ": 680,
      "there": 681,
      "'T": 682,
      "GR": 683,
      "PET": 684,
      "plea": 685,
      "my": 686,
      "ong ": 687,
      "me\r\n": 688,
      "s? ": 689,
      "MI": 690,
      "TH": 691,
      "es\r\n": 692,
      "ate ": 693,
      "much ": 694,
      "YORK: ": 695,
      "mon": 696,
      "noble ": 697,
      "LE": 698,
      "se, ": 699,
      "son ": 700,
      "que": 701,
      "cannot ": 702,
      "Be": 703,
      "MEN": 704,
      "UM": 705,
      "ter ": 706,
      "cond ": 707,
      "tw": 708,
      "Ed": 709,
      "LUC": 710,
      "is the ": 711,
      "IS": 712,
      "ME": 713,
      "ks ": 714,
      "ELL": 715,
      "No": 716,
      "iti": 717,
      "stan": 718,
      "it\r\n": 719,
      "up ": 720,
      "Edwar": 721,
      "By ": 722,
      "van": 723,
      " thin": 724,
      "off": 725,
      "where ": 726,
      "ROME": 727,
      "ROMEO: ": 728,
      "ct ": 729,
      "ince ": 730,
      "bea": 731,
      "tr": 732,
      "tur": 733,
      "wom": 734,
      "new": 735,
      "ound ": 736,
      "ay, ": 737,
      "it, ": 738,
      "tor": 739,
      "ang": 740,
      "'d, ": 741,
      "as": 742,
      "fl": 743,
      "le, ": 744,
      "other ": 745,
      "pea": 746,
      "doth ": 747,
      "God ": 748,
      "For": 749,
      "Or ": 750,
      "if": 751,
      "ENIUS: ": 752,
      "MENENIUS: ": 753,
      "OM": 754,
      "sor": 755,
      "than ": 756,
      "been ": 757,
      "father": 758,
      " thee ": 759,
      "tell ": 760,
      "We": 761,
      "sea": 762,
      "shi": 763,
      "tri": 764,
      "er, ": 765,
      "on the ": 766,
      "Ay, ": 767,
      "Cl": 768,
      "RUCH": 769,
      "ness ": 770,
      "ers ": 771,
      "Where ": 772,
      "tter ": 773,
      "PETRUCH": 774,
      "PETRUCHIO: ": 775,
      "HA": 776,
      "in, ": 777,
      "your": 778,
      "him\r\n": 779,
      "death": 780,
      "MAR": 781,
      "dr": 782,
      "fear": 783,
      "re ": 784,
      "to my ": 785,
      "Second ": 786,
      "crow": 787,
      "har": 788,
      "Rome": 789,
      "e; ": 790,
      "ish": 791,
      "nor ": 792,
      "ten": 793,
      "too": 794,
      "y! ": 795,
      "hear ": 796,
      "CORI": 797,
      "foo": 798,
      "now": 799,
      "y? ": 800,
      "there ": 801,
      "fair ": 802,
      "with the ": 803,
      "OLAN": 804,
      "speak ": 805,
      "CORIOLAN": 806,
      "ces": 807,
      "zen": 808,
      "llow": 809,
      "ity ": 810,
      "dau": 811,
      "ONT": 812,
      "CORIOLANUS: ": 813,
      "BA": 814,
      "on, ": 815,
      "red ": 816,
      "man: ": 817,
      "bloo": 818,
      "gar": 819,
      "you\r\n": 820,
      "co": 821,
      "e: ": 822,
      "e? ": 823,
      "ever ": 824,
      "not, ": 825,
      "by the ": 826,
      "gentle": 827,
      "KING RICHARD II": 828,
      "Lord ": 829,
      "bes": 830,
      "ment": 831,
      "tun": 832,
      "of my ": 833,
      "great ": 834,
      "Come, ": 835,
      "ving ": 836,
      "ys ": 837,
      "wif": 838,
      "st thou ": 839,
      "him, ": 840,
      "cur": 841,
      "us, ": 842,
      "War": 843,
      "bra": 844,
      "ge, ": 845,
      "row ": 846,
      "ence": 847,
      "it is ": 848,
      "INA: ": 849,
      "When ": 850,
      " they ": 851,
      "men ": 852,
      "being ": 853,
      "'t ": 854,
      "t; ": 855,
      "se\r\n": 856,
      "who ": 857,
      "Warwi": 858,
      "D: ": 859,
      "t? ": 860,
      "ster ": 861,
      "sweet ": 862,
      "KING RICHARD III: ": 863,
      "ie": 864,
      "ene": 865,
      "beg": 866,
      "eep": 867,
      "His ": 868,
      "Un": 869,
      "sla": 870,
      "for the ": 871,
      "before ": 872,
      "dis": 873,
      "thee, ": 874,
      "mean": 875,
      "id": 876,
      "swor": 877,
      "ence, ": 878,
      "ck, ": 879,
      "poor ": 880,
      "ongu": 881,
      "AD": 882,
      "car": 883,
      "e's ": 884,
      "l, ": 885,
      "tch": 886,
      "many ": 887,
      "cor": 888,
      "pow": 889,
      "with a ": 890,
      "comes ": 891,
      "Who ": 892,
      "RAN": 893,
      "tongu": 894,
      "s, and ": 895,
      "shall be ": 896,
      "cha": 897,
      "ought ": 898,
      " these ": 899,
      "And, ": 900,
      "hou": 901,
      "pur": 902,
      "se: ": 903,
      "ears ": 904,
      "day ": 905,
      "all the ": 906,
      "ABELL": 907,
      "ABELLA: ": 908,
      "JU": 909,
      "JULI": 910,
      "ISABELLA: ": 911,
      "Let ": 912,
      "e! ": 913,
      "ill": 914,
      "I do ": 915,
      "I would ": 916,
      "lee": 917,
      "'Tis ": 918,
      "LAD": 919,
      "cour": 920,
      "goo": 921,
      "kes ": 922,
      "ing\r\n": 923,
      "of his ": 924,
      "ENC": 925,
      "heart ": 926,
      "chil": 927,
      "LADY ": 928,
      "Bu": 929,
      "im": 930,
      "y's ": 931,
      "ings ": 932,
      "you have ": 933,
      "father ": 934,
      " OF ": 935,
      "In": 936,
      "Ser": 937,
      "wr": 938,
      "pas": 939,
      "leave ": 940,
      "Citi": 941,
      "dly ": 942,
      "hor": 943,
      "ine ": 944,
      "in this ": 945,
      " than ": 946,
      "litt": 947,
      "in my ": 948,
      "The": 949,
      "against ": 950,
      "What, ": 951,
      "Citizen": 952,
      "is, ": 953,
      "ign": 954,
      "prin": 955,
      "LEONT": 956,
      "LEONTES: ": 957,
      "VOL": 958,
      "cl": 959,
      "ul": 960,
      "er\r\n": 961,
      "ance ": 962,
      "hast ": 963,
      "ree ": 964,
      "d, and ": 965,
      "Than ": 966,
      "Nay, ": 967,
      "Pro": 968,
      "Sha": 969,
      "now, ": 970,
      "these ": 971,
      "cious ": 972,
      "ENCE: ": 973,
      "BR": 974,
      "grie": 975,
      "ment ": 976,
      "ant ": 977,
      "one, ": 978,
      "young": 979,
      "urder": 980,
      "Then ": 981,
      "honour": 982,
      "hel": 983,
      "kin": 984,
      "t! ": 985,
      "ree": 986,
      "spi": 987,
      "oul ": 988,
      "str": 989,
      "of your ": 990,
      "ghter": 991,
      "ir, ": 992,
      "cause ": 993,
      "JULIET: ": 994,
      "Be ": 995,
      "No, ": 996,
      "SIC": 997,
      "fir": 998,
      "va": 999,
      "stand ": 1000,
      "high": 1001,
      "sub": 1002,
      "blood ": 1003,
      "KING EDW": 1004,
      "ARD IV": 1005,
      "Richar": 1006,
      "SICINIUS: ": 1007,
      "KING EDWARD IV": 1008,
      "Whi": 1009,
      "ke, ": 1010,
      "ts, ": 1011,
      "set ": 1012,
      "hop": 1013,
      "Not ": 1014,
      "RI": 1015,
      "will": 1016,
      "ght, ": 1017,
      "to-": 1018,
      "brother": 1019,
      "KING EDWARD IV: ": 1020,
      "TI": 1021,
      "Yor": 1022,
      "ting ": 1023,
      "arm": 1024,
      "in a ": 1025,
      "eep ": 1026,
      "Have ": 1027,
      "soul": 1028,
      "le\r\n": 1029,
      "friend": 1030,
      "LO: ": 1031,
      "so, ": 1032,
      "rep": 1033,
      "Thy ": 1034,
      "cont": 1035,
      " them ": 1036,
      "Ca": 1037,
      "IZ": 1038,
      "bear": 1039,
      "bur": 1040,
      "ive ": 1041,
      "m\r\n": 1042,
      "nes": 1043,
      "ETH": 1044,
      "both ": 1045,
      "ELIZ": 1046,
      "ABETH": 1047,
      "QUEEN ELIZ": 1048,
      "LUCIO: ": 1049,
      "QUEEN ELIZABETH": 1050,
      "hus": 1051,
      "ry, ": 1052,
      "ve\r\n": 1053,
      "true ": 1054,
      "look ": 1055,
      "Hen": 1056,
      "ly, ": 1057,
      "wo": 1058,
      "wha": 1059,
      "he is ": 1060,
      "come, ": 1061,
      "call": 1062,
      "lord, ": 1063,
      "peop": 1064,
      "GRE": 1065,
      "dd": 1066,
      "k\r\n": 1067,
      "roy": 1068,
      "comp": 1069,
      "name ": 1070,
      "little ": 1071,
      "QUEEN ELIZABETH: ": 1072,
      ",-- ": 1073,
      "happ": 1074,
      "ARD: ": 1075,
      "'er ": 1076,
      "MER": 1077,
      "Now, ": 1078,
      "Sa": 1079,
      "WAR": 1080,
      "WIC": 1081,
      "dou": 1082,
      "life ": 1083,
      "WARWIC": 1084,
      "CL": 1085,
      "ch, ": 1086,
      "KING HENRY ": 1087,
      "brother ": 1088,
      "KING HENRY V": 1089,
      "awa": 1090,
      "drea": 1091,
      "my lord, ": 1092,
      "put ": 1093,
      "win": 1094,
      "tal": 1095,
      "WARWICK: ": 1096,
      "Good ": 1097,
      "I, ": 1098,
      "Nur": 1099,
      "Now ": 1100,
      "bor": 1101,
      "could ": 1102,
      "h, ": 1103,
      "s to ": 1104,
      "to your ": 1105,
      "tell": 1106,
      "DUKE OF ": 1107,
      "KING RICHARD II: ": 1108,
      "PU": 1109,
      "PER": 1110,
      "ces ": 1111,
      "nat": 1112,
      "llow ": 1113,
      "fortun": 1114,
      "love": 1115,
      "CAPU": 1116,
      "two ": 1117,
      "crown": 1118,
      "Citizen: ": 1119,
      "CAPUL": 1120,
      "than": 1121,
      " than": 1122,
      "death ": 1123,
      "frien": 1124,
      "HAM": 1125,
      "CAPULET: ": 1126,
      "No ": 1127,
      "On": 1128,
      "dst ": 1129,
      "every ": 1130,
      "ff": 1131,
      "ill ": 1132,
      "int ": 1133,
      "st: ": 1134,
      "of a ": 1135,
      "in his ": 1136,
      "IAN": 1137,
      "Ou": 1138,
      "UT": 1139,
      "ding ": 1140,
      "ded ": 1141,
      "down": 1142,
      "sun": 1143,
      "wat": 1144,
      "from the ": 1145,
      "hold ": 1146,
      "BUC": 1147,
      "From": 1148,
      "TRAN": 1149,
      "bid ": 1150,
      "dra": 1151,
      "th\r\n": 1152,
      "I sa": 1153,
      "worl": 1154,
      "KINGHAM": 1155,
      "heav": 1156,
      "Shall ": 1157,
      "BUCKINGHAM": 1158,
      "TRANIO: ": 1159,
      "ft ": 1160,
      "hu": 1161,
      "sol": 1162,
      "sure ": 1163,
      "ore ": 1164,
      "is a ": 1165,
      "comm": 1166,
      "whose ": 1167,
      "wel": 1168,
      "might ": 1169,
      "BOL": 1170,
      "BRO": 1171,
      "am": 1172,
      "cen": 1173,
      "ced ": 1174,
      "clo": 1175,
      "den": 1176,
      "je": 1177,
      "; For ": 1178,
      "INGBRO": 1179,
      "HENRY BOL": 1180,
      "INGBROK": 1181,
      "HENRY BOLINGBROK": 1182,
      "bear ": 1183,
      "answ": 1184,
      "stra": 1185,
      "stru": 1186,
      "nothing ": 1187,
      "till ": 1188,
      "me to ": 1189,
      "spo": 1190,
      "qui": 1191,
      "look": 1192,
      "; th": 1193,
      "est": 1194,
      "upon": 1195,
      "if you ": 1196,
      "ESS": 1197,
      "o' the ": 1198,
      "' the ": 1199,
      "GAR": 1200,
      "King ": 1201,
      "Pe": 1202,
      "find ": 1203,
      "wea": 1204,
      "ard ": 1205,
      "stres": 1206,
      "ke of ": 1207,
      "grace ": 1208,
      "son, ": 1209,
      "pray ": 1210,
      "QUEEN MAR": 1211,
      "Well, ": 1212,
      "They ": 1213,
      "QUEEN MARGAR": 1214,
      "long ": 1215,
      "sur": 1216,
      "vir": 1217,
      "and, ": 1218,
      "Why ": 1219,
      "call ": 1220,
      "mis": 1221,
      "man, ": 1222,
      "Will ": 1223,
      "eyes ": 1224,
      "gentle ": 1225,
      "Clar": 1226,
      "daughter": 1227,
      "BRUT": 1228,
      "doub": 1229,
      "Our ": 1230,
      "BUCKINGHAM: ": 1231,
      "HENRY BOLINGBROKE: ": 1232,
      "BRUTUS: ": 1233,
      "done ": 1234,
      "ither ": 1235,
      "pu": 1236,
      "thee": 1237,
      "stri": 1238,
      "you are ": 1239,
      "ght\r\n": 1240,
      "master": 1241,
      "law": 1242,
      "fal": 1243,
      "There": 1244,
      "comfor": 1245,
      "young ": 1246,
      "Du": 1247,
      "GEL": 1248,
      "Yet ": 1249,
      "cous": 1250,
      "s' ": 1251,
      "reme": 1252,
      "ANGEL": 1253,
      "like a ": 1254,
      "myself": 1255,
      "MIL": 1256,
      "Nurse: ": 1257,
      "ANGELO: ": 1258,
      "ATH": 1259,
      "Ta": 1260,
      "cra": 1261,
      "cla": 1262,
      "get ": 1263,
      "pi": 1264,
      "slee": 1265,
      "thus ": 1266,
      "though ": 1267,
      "es; ": 1268,
      "to his ": 1269,
      "e, and ": 1270,
      "live ": 1271,
      "better ": 1272,
      "for a ": 1273,
      "think ": 1274,
      "Marci": 1275,
      "banish": 1276,
      "QUEEN MARGARET: ": 1277,
      "Bo": 1278,
      "CU": 1279,
      "Eng": 1280,
      "HOR": 1281,
      "hand ": 1282,
      "ses ": 1283,
      "honour ": 1284,
      "Thi": 1285,
      "at, ": 1286,
      "app": 1287,
      "pit": 1288,
      "ving": 1289,
      ": And ": 1290,
      "chan": 1291,
      "There ": 1292,
      "me; ": 1293,
      "else ": 1294,
      "dar": 1295,
      "ried ": 1296,
      "ARINA: ": 1297,
      "love, ": 1298,
      "heard ": 1299,
      "pos": 1300,
      "gracious ": 1301,
      "king, ": 1302,
      "such a ": 1303,
      "Do ": 1304,
      "KATH": 1305,
      "bri": 1306,
      "bla": 1307,
      "best ": 1308,
      "hol": 1309,
      "tre": 1310,
      "then": 1311,
      " thee": 1312,
      "and the ": 1313,
      "at the ": 1314,
      "eech ": 1315,
      "of this ": 1316,
      "conf": 1317,
      " thee, ": 1318,
      "still ": 1319,
      "KATHARINA: ": 1320,
      "Here ": 1321,
      "bus": 1322,
      "don ": 1323,
      "hour": 1324,
      "keep ": 1325,
      "long": 1326,
      "some": 1327,
      "ar ": 1328,
      "es: ": 1329,
      "att": 1330,
      "me? ": 1331,
      "well, ": 1332,
      "fec": 1333,
      "part ": 1334,
      ",--": 1335,
      "DUCH": 1336,
      "Li": 1337,
      "LUS: ": 1338,
      "pt ": 1339,
      "trea": 1340,
      "tim": 1341,
      "lad": 1342,
      "new ": 1343,
      "vill": 1344,
      "full ": 1345,
      "CALUS: ": 1346,
      "ESCALUS: ": 1347,
      "queen": 1348,
      "Ju": 1349,
      "Nor ": 1350,
      "dear ": 1351,
      "since ": 1352,
      "won": 1353,
      "makes ": 1354,
      "that I ": 1355,
      "tain": 1356,
      "heaven ": 1357,
      "stay ": 1358,
      "turn": 1359,
      "Duke of ": 1360,
      "Sir, ": 1361,
      "bal": 1362,
      "c ": 1363,
      "d-": 1364,
      "dow": 1365,
      "first ": 1366,
      "il ": 1367,
      "oa": 1368,
      "deli": 1369,
      "vere": 1370,
      "AND: ": 1371,
      "Hath ": 1372,
      "night ": 1373,
      "let me ": 1374,
      "voi": 1375,
      "If": 1376,
      "I thin": 1377,
      "Nor": 1378,
      "Up": 1379,
      "g ": 1380,
      "gen": 1381,
      "ged ": 1382,
      "once ": 1383,
      "I must ": 1384,
      "under": 1385,
      "sion ": 1386,
      "world ": 1387,
      "temp": 1388,
      "come to ": 1389,
      "trait": 1390,
      "From ": 1391,
      "Go ": 1392,
      "Pa": 1393,
      "gon": 1394,
      "sin": 1395,
      "ten ": 1396,
      "ort ": 1397,
      "show": 1398,
      "came ": 1399,
      "pati": 1400,
      "heaven": 1401,
      "rant ": 1402,
      "ousand ": 1403,
      "bring ": 1404,
      "Edward ": 1405,
      "royal ": 1406,
      "ESS OF ": 1407,
      "DUCHESS OF ": 1408,
      "Of": 1409,
      "fur": 1410,
      "ty, ": 1411,
      "as I ": 1412,
      "lau": 1413,
      "will be ": 1414,
      "myself ": 1415,
      "Provo": 1416,
      "FRI": 1417,
      "Re": 1418,
      "ds\r\n": 1419,
      "les ": 1420,
      "us\r\n": 1421,
      "e, And ": 1422,
      "lay ": 1423,
      "unc": 1424,
      "father, ": 1425,
      "ator": 1426,
      "AR ": 1427,
      "where": 1428,
      "death, ": 1429,
      "ROS": 1430,
      "CAMIL": 1431,
      "FRIAR ": 1432,
      "CAMILLO: ": 1433,
      "Are ": 1434,
      "Ty": 1435,
      "bit": 1436,
      "fla": 1437,
      "men, ": 1438,
      "ps ": 1439,
      "pher": 1440,
      "sent ": 1441,
      "thing": 1442,
      "has ": 1443,
      "est, ": 1444,
      "I know ": 1445,
      "to a ": 1446,
      "wilt ": 1447,
      "st\r\n": 1448,
      "s, And ": 1449,
      "fair": 1450,
      "offi": 1451,
      "devi": 1452,
      "sovere": 1453,
      "mber": 1454,
      "wrong": 1455,
      "KING HENRY VI: ": 1456,
      "virtu": 1457,
      "IA: ": 1458,
      "PTI": 1459,
      "She ": 1460,
      "TEN": 1461,
      "Would ": 1462,
      "cre": 1463,
      "ise ": 1464,
      "though": 1465,
      "reven": 1466,
      "spe": 1467,
      "me: ": 1468,
      "ce: ": 1469,
      "EL: ": 1470,
      "STA: ": 1471,
      "tion, ": 1472,
      "tion\r\n": 1473,
      "far ": 1474,
      "BAPTI": 1475,
      "But, ": 1476,
      "HORTEN": 1477,
      "busin": 1478,
      "BAPTISTA: ": 1479,
      "HORTENS": 1480,
      ".' ": 1481,
      "Come ": 1482,
      "Murder": 1483,
      "Sh": 1484,
      "xt ": 1485,
      "in your ": 1486,
      "ate, ": 1487,
      "mother": 1488,
      "own: ": 1489,
      "house ": 1490,
      "Thir": 1491,
      "HORTENSIO: ": 1492,
      "CUS: ": 1493,
      "Even ": 1494,
      "Gent": 1495,
      "More ": 1496,
      "TOL": 1497,
      "YCUS: ": 1498,
      "bi": 1499,
      "down ": 1500,
      "lou": 1501,
      "ning ": 1502,
      "other": 1503,
      "p, ": 1504,
      " then ": 1505,
      "hast": 1506,
      "star": 1507,
      "stran": 1508,
      "ook ": 1509,
      "you shall ": 1510,
      "ire ": 1511,
      "shalt ": 1512,
      "dam, ": 1513,
      "head ": 1514,
      "AUTOL": 1515,
      "speak": 1516,
      "deser": 1517,
      "about ": 1518,
      "woman": 1519,
      "father's ": 1520,
      "CLAR": 1521,
      "Third ": 1522,
      "AUTOLYCUS: ": 1523,
      "COM": 1524,
      "Le": 1525,
      "au": 1526,
      "gre": 1527,
      "prom": 1528,
      "tear": 1529,
      "ye": 1530,
      "that": 1531,
      "then, ": 1532,
      "eng": 1533,
      "che": 1534,
      "of thy ": 1535,
      "will not ": 1536,
      "word ": 1537,
      "dam": 1538,
      "With": 1539,
      "ghter ": 1540,
      "prou": 1541,
      "husban": 1542,
      "happy ": 1543,
      "villa": 1544,
      "COMINIUS: ": 1545,
      "'d\r\n": 1546,
      "NOR": 1547,
      "fee": 1548,
      "land ": 1549,
      "meet ": 1550,
      "te, ": 1551,
      "int": 1552,
      "on\r\n": 1553,
      "to make ": 1554,
      "; but ": 1555,
      "d, And ": 1556,
      "when": 1557,
      "holy ": 1558,
      "lieve ": 1559,
      "tongue ": 1560,
      "hope ": 1561,
      "BEN": 1562,
      "Con": 1563,
      "nee": 1564,
      "none ": 1565,
      "sing ": 1566,
      "wan": 1567,
      " those ": 1568,
      "die ": 1569,
      "them": 1570,
      "for my ": 1571,
      " them": 1572,
      "prove ": 1573,
      "please ": 1574,
      "VOLIO: ": 1575,
      "DUCHESS OF YORK: ": 1576,
      "CLARENCE: ": 1577,
      "BENVOLIO: ": 1578,
      "age ": 1579,
      "ge\r\n": 1580,
      "igh": 1581,
      "i' the ": 1582,
      "kis": 1583,
      "sit ": 1584,
      "weep": 1585,
      "is not ": 1586,
      "fai": 1587,
      "cei": 1588,
      "he's ": 1589,
      "seem": 1590,
      "EDWARD: ": 1591,
      "vant: ": 1592,
      "spiri": 1593,
      "MERCU": 1594,
      "MERCUTIO: ": 1595,
      "EY: ": 1596,
      "Here": 1597,
      "POM": 1598,
      "Were ": 1599,
      "ian": 1600,
      "led ": 1601,
      "ly\r\n": 1602,
      "ori": 1603,
      "; for ": 1604,
      "say, ": 1605,
      "whom ": 1606,
      "mistres": 1607,
      "rest ": 1608,
      "night": 1609,
      "life, ": 1610,
      "servi": 1611,
      "GRUM": 1612,
      "beau": 1613,
      "turn ": 1614,
      "Clown: ": 1615,
      "POMP": 1616,
      "GRUMIO: ": 1617,
      "Au": 1618,
      "Lu": 1619,
      "ber": 1620,
      "dang": 1621,
      "fear ": 1622,
      "only ": 1623,
      "with his ": 1624,
      "no more ": 1625,
      "justi": 1626,
      "LUCENTIO: ": 1627,
      "subje": 1628,
      "Murderer: ": 1629,
      "At ": 1630,
      "Com": 1631,
      "LAND: ": 1632,
      "PROS": 1633,
      "Te": 1634,
      "a th": 1635,
      "even ": 1636,
      "h ": 1637,
      "imp": 1638,
      "over": 1639,
      "ying ": 1640,
      "essen": 1641,
      "each ": 1642,
      "forth ": 1643,
      "its ": 1644,
      "words ": 1645,
      "by my ": 1646,
      "gain ": 1647,
      "ward ": 1648,
      "gainst ": 1649,
      "follow": 1650,
      "PERO: ": 1651,
      "PROSPERO: ": 1652,
      "Do": 1653,
      "LINA: ": 1654,
      "Mu": 1655,
      "MIO: ": 1656,
      "PAU": 1657,
      "bar": 1658,
      "gr": 1659,
      "gro": 1660,
      "ight ": 1661,
      "t-": 1662,
      "in\r\n": 1663,
      "hal": 1664,
      "stu": 1665,
      "fore, ": 1666,
      "he hath ": 1667,
      "right ": 1668,
      "t, and ": 1669,
      "as the ": 1670,
      "himself": 1671,
      "her, ": 1672,
      "here, ": 1673,
      "daughter ": 1674,
      "power ": 1675,
      "Servant: ": 1676,
      "GREMIO: ": 1677,
      "soldi": 1678,
      "Take ": 1679,
      "gener": 1680,
      "PAULINA: ": 1681,
      "Give ": 1682,
      "ling ": 1683,
      "n'd ": 1684,
      "o's ": 1685,
      "soul ": 1686,
      "tly ": 1687,
      "ere, ": 1688,
      "; But ": 1689,
      "lies ": 1690,
      "maj": 1691,
      "disp": 1692,
      "on my ": 1693,
      "said ": 1694,
      "INGS: ": 1695,
      "sir\r\n": 1696,
      "fellow": 1697,
      "STINGS: ": 1698,
      "merc": 1699,
      "HASTINGS: ": 1700,
      "Serving": 1701,
      "centi": 1702,
      "'t\r\n": 1703,
      "BER": 1704,
      "Go, ": 1705,
      "LAU": 1706,
      "Was ": 1707,
      "fol": 1708,
      "grow": 1709,
      "hun": 1710,
      "ken ": 1711,
      "kind ": 1712,
      "ves, ": 1713,
      "thr": 1714,
      "ess, ": 1715,
      "I should ": 1716,
      "I had ": 1717,
      "y, and ": 1718,
      "mill": 1719,
      "ter, ": 1720,
      "himself ": 1721,
      "toge": 1722,
      "My lord, ": 1723,
      "countr": 1724,
      "well\r\n": 1725,
      "beseech ": 1726,
      "childr": 1727,
      "kind": 1728,
      "FRIAR LAU": 1729,
      "Tybal": 1730,
      "Gentle": 1731,
      "esseng": 1732,
      "FRIAR LAUR": 1733,
      ",' ": 1734,
      "GON": 1735,
      "away ": 1736,
      "plu": 1737,
      "tow": 1738,
      "ouch": 1739,
      "in thy ": 1740,
      "is my ": 1741,
      "ing the ": 1742,
      "of our ": 1743,
      "not a ": 1744,
      "off ": 1745,
      "los": 1746,
      "Where": 1747,
      "ck'd ": 1748,
      "wife ": 1749,
      "Servingman: ": 1750,
      "Bol": 1751,
      "CLI": 1752,
      "FF": 1753,
      "Mon": 1754,
      "NIA: ": 1755,
      "Par": 1756,
      "St": 1757,
      "Tha": 1758,
      "cer": 1759,
      "ke\r\n": 1760,
      "kill": 1761,
      "mea": 1762,
      "nur": 1763,
      "o\r\n": 1764,
      "run": 1765,
      "tch ": 1766,
      "wre": 1767,
      "wear": 1768,
      "; I ": 1769,
      "rather ": 1770,
      "show ": 1771,
      "why ": 1772,
      "thou art ": 1773,
      "my lord\r\n": 1774,
      "thou, ": 1775,
      "thought ": 1776,
      "UMNIA: ": 1777,
      "VOLUMNIA: ": 1778,
      "Richard ": 1779,
      "Provost: ": 1780,
      "CLIFF": 1781,
      "ID": 1782,
      "l\r\n": 1783,
      "send ": 1784,
      "form": 1785,
      "Ange": 1786,
      "not the ": 1787,
      "left ": 1788,
      "save ": 1789,
      "atch": 1790,
      "mean ": 1791,
      "day, ": 1792,
      "morrow": 1793,
      "we have ": 1794,
      "mother ": 1795,
      "so\r\n": 1796,
      "THUM": 1797,
      "purpo": 1798,
      "friends ": 1799,
      "NORTHUM": 1800,
      "POMPEY: ": 1801,
      "BERLAND: ": 1802,
      "FRIAR LAURENCE: ": 1803,
      "NORTHUMBERLAND: ": 1804,
      "BY: ": 1805,
      "Har": 1806,
      "Su": 1807,
      "be, ": 1808,
      "dom ": 1809,
      "foul ": 1810,
      "ze ": 1811,
      ": but ": 1812,
      ": The ": 1813,
      "you? ": 1814,
      "ed to ": 1815,
      "t, And ": 1816,
      "unto ": 1817,
      "ne'er ": 1818,
      "cian": 1819,
      "duke ": 1820,
      "ign ": 1821,
      "joy ": 1822,
      "therefore ": 1823,
      "bloody ": 1824,
      "DUKE OF YORK: ": 1825,
      "Angelo": 1826,
      "All ": 1827,
      "Ala": 1828,
      "Clif": 1829,
      "Fran": 1830,
      "Her ": 1831,
      "PR": 1832,
      "ctor": 1833,
      "mbl": 1834,
      "n, ": 1835,
      "those ": 1836,
      "not\r\n": 1837,
      "fall ": 1838,
      "faul": 1839,
      "for his ": 1840,
      "tain ": 1841,
      "sil": 1842,
      "worthy ": 1843,
      "d; And ": 1844,
      "must be ": 1845,
      "mber ": 1846,
      "queen ": 1847,
      "Henry ": 1848,
      "times ": 1849,
      "Cliffor": 1850,
      "PRINC": 1851,
      "Ah, ": 1852,
      "Fa": 1853,
      "Gre": 1854,
      "IX": 1855,
      "POL": 1856,
      "T: ": 1857,
      "able ": 1858,
      "crea": 1859,
      "ed, ": 1860,
      "fit ": 1861,
      "lear": 1862,
      "s'd ": 1863,
      "vent": 1864,
      "woun": 1865,
      "oura": 1866,
      "es? ": 1867,
      "es! ": 1868,
      "I cannot ": 1869,
      "ingbro": 1870,
      "An ": 1871,
      "it be ": 1872,
      "ENES: ": 1873,
      "comman": 1874,
      "sure": 1875,
      "ANN": 1876,
      "told ": 1877,
      "igni": 1878,
      "pray": 1879,
      "fare": 1880,
      "Warwick ": 1881,
      "LADY ANN": 1882,
      "Bolingbro": 1883,
      "IXENES: ": 1884,
      "POLIXENES: ": 1885,
      "Cori": 1886,
      "La": 1887,
      "Pra": 1888,
      "Signi": 1889,
      "a, ": 1890,
      "bon": 1891,
      "col": 1892,
      "din": 1893,
      "ks, ": 1894,
      "another ": 1895,
      "to our ": 1896,
      "stor": 1897,
      "sting": 1898,
      "requ": 1899,
      "not be ": 1900,
      "let's ": 1901,
      "she": 1902,
      "bet": 1903,
      "with my ": 1904,
      "tal ": 1905,
      "Whose ": 1906,
      "do not ": 1907,
      "quar": 1908,
      "without ": 1909,
      "mind ": 1910,
      "pardon ": 1911,
      "ONE: ": 1912,
      "back": 1913,
      "back ": 1914,
      "got ": 1915,
      "prison": 1916,
      "present ": 1917,
      "death\r\n": 1918,
      "sovereign": 1919,
      "Signior ": 1920,
      "Rom": 1921,
      "dear": 1922,
      "ef": 1923,
      "fea": 1924,
      "gla": 1925,
      "hence ": 1926,
      "murder": 1927,
      "s are ": 1928,
      "instru": 1929,
      "I was ": 1930,
      "to thy ": 1931,
      "and my ": 1932,
      "last ": 1933,
      "believe ": 1934,
      "face ": 1935,
      "tagu": 1936,
      "entrea": 1937,
      "cap": 1938,
      "body ": 1939,
      "all, ": 1940,
      "pardon": 1941,
      "may be ": 1942,
      "You are ": 1943,
      "give me ": 1944,
      "help ": 1945,
      "high ": 1946,
      "traitor": 1947,
      "Montagu": 1948,
      "All": 1949,
      "Di": 1950,
      "Did ": 1951,
      "Jo": 1952,
      "Po": 1953,
      "Some ": 1954,
      "To": 1955,
      "dan": 1956,
      "de, ": 1957,
      "ecu": 1958,
      "how": 1959,
      "soun": 1960,
      "ty": 1961,
      "tend": 1962,
      "year": 1963,
      "are": 1964,
      "one\r\n": 1965,
      "lly ": 1966,
      "ll\r\n": 1967,
      "I can ": 1968,
      "to do ": 1969,
      "state ": 1970,
      "lie ": 1971,
      "light ": 1972,
      "ther\r\n": 1973,
      "deed ": 1974,
      "more, ": 1975,
      "lord": 1976,
      "does ": 1977,
      "swee": 1978,
      "king\r\n": 1979,
      "You have ": 1980,
      "hands ": 1981,
      "sorrow": 1982,
      "Romeo ": 1983,
      "fortune ": 1984,
      "false ": 1985,
      "Englan": 1986,
      "Should ": 1987,
      "; the ": 1988,
      "FID": 1989,
      "Messeng": 1990,
      "Sen": 1991,
      "again ": 1992,
      "boo": 1993,
      "ble": 1994,
      "ct": 1995,
      "dge ": 1996,
      "gat": 1997,
      "id, ": 1998,
      "ob": 1999,
      "swa": 2000,
      "ers, ": 2001,
      "I shall ": 2002,
      "I pray ": 2003,
      "no, ": 2004,
      "dish": 2005,
      "disc": 2006,
      "of th": 2007,
      "for your ": 2008,
      "spee": 2009,
      "def": 2010,
      "we'll ": 2011,
      "ORD: ": 2012,
      "swear ": 2013,
      "AUFID": 2014,
      "o'er": 2015,
      "Edward's ": 2016,
      "news ": 2017,
      "peace ": 2018,
      "ship ": 2019,
      "prince": 2020,
      "Like ": 2021,
      "Messenger: ": 2022,
      "AUFIDIUS: ": 2023,
      "Cap": 2024,
      "Clau": 2025,
      "She": 2026,
      "VER": 2027,
      "bir": 2028,
      "f, ": 2029,
      "is\r\n": 2030,
      "obe": 2031,
      "sk": 2032,
      "wri": 2033,
      "that, ": 2034,
      "ery ": 2035,
      "ins ": 2036,
      "sto": 2037,
      "choo": 2038,
      "lish ": 2039,
      "not to ": 2040,
      "that the ": 2041,
      "These ": 2042,
      "me! ": 2043,
      "cking": 2044,
      "him: ": 2045,
      "if I ": 2046,
      "brother, ": 2047,
      "guil": 2048,
      "God, ": 2049,
      "execu": 2050,
      "while ": 2051,
      "after ": 2052,
      "deed, ": 2053,
      "twent": 2054,
      "Warwick, ": 2055,
      "LADY CAPULET: ": 2056,
      "One ": 2057,
      "heavy ": 2058,
      "comfort ": 2059,
      "LADY ANNE: ": 2060,
      "Senator": 2061,
      "Claudi": 2062,
      "FL": 2063,
      "den ": 2064,
      "gg": 2065,
      "lar": 2066,
      "pen": 2067,
      "sent": 2068,
      "ini": 2069,
      "ink ": 2070,
      "ench": 2071,
      "is it ": 2072,
      "and his ": 2073,
      "cho": 2074,
      "for this ": 2075,
      "life": 2076,
      "lives ": 2077,
      "matter": 2078,
      "shor": 2079,
      "that you ": 2080,
      "consu": 2081,
      "cau": 2082,
      "lord ": 2083,
      "dead ": 2084,
      "prop": 2085,
      "issu": 2086,
      "Had ": 2087,
      "again\r\n": 2088,
      "Lord: ": 2089,
      "brought ": 2090,
      "ORIZ": 2091,
      "flow": 2092,
      "if thou ": 2093,
      "answer ": 2094,
      "FLORIZ": 2095,
      "Against ": 2096,
      "Glou": 2097,
      "ION": 2098,
      "I than": 2099,
      "TON": 2100,
      "cri": 2101,
      "ding": 2102,
      "fan": 2103,
      "ses": 2104,
      "tes": 2105,
      "woo": 2106,
      "tit": 2107,
      "master ": 2108,
      "sh'd ": 2109,
      "ity, ": 2110,
      "Though ": 2111,
      "ARI": 2112,
      "read": 2113,
      "man\r\n": 2114,
      "we are ": 2115,
      "qua": 2116,
      "bos": 2117,
      "sir; ": 2118,
      "let him ": 2119,
      "hang": 2120,
      "marri": 2121,
      "God's ": 2122,
      "ster, ": 2123,
      "May ": 2124,
      "streng": 2125,
      "what's ": 2126,
      "talk ": 2127,
      "Tell ": 2128,
      "Glouces": 2129,
      "!' ": 2130,
      "OW": 2131,
      "SE": 2132,
      "You": 2133,
      "ath": 2134,
      "dg": 2135,
      "frow": 2136,
      "he, ": 2137,
      "kne": 2138,
      "this": 2139,
      "ess\r\n": 2140,
      "you: ": 2141,
      "to have ": 2142,
      "to this ": 2143,
      "and a ": 2144,
      "will, ": 2145,
      "se; ": 2146,
      "better": 2147,
      "but a ": 2148,
      "sig": 2149,
      "way, ": 2150,
      "resol": 2151,
      "her\r\n": 2152,
      "play ": 2153,
      "thinks ": 2154,
      "First Citizen: ": 2155,
      "What's ": 2156,
      "ship": 2157,
      "Let me ": 2158,
      "Camill": 2159,
      "compan": 2160,
      "dream": 2161,
      "sleep": 2162,
      "that's ": 2163,
      "Shepher": 2164,
      "LE: ": 2165,
      "Mo": 2166,
      "b ": 2167,
      "bun": 2168,
      "ds: ": 2169,
      "ever": 2170,
      "gran": 2171,
      "hour ": 2172,
      "hous": 2173,
      "ken": 2174,
      "keep": 2175,
      "ut": 2176,
      "y'd ": 2177,
      "th the ": 2178,
      "inted ": 2179,
      "in their ": 2180,
      "ent, ": 2181,
      "ond ": 2182,
      "I did ": 2183,
      "I see ": 2184,
      "ste": 2185,
      "of her ": 2186,
      "he shall ": 2187,
      "he was ": 2188,
      "time, ": 2189,
      "you to ": 2190,
      "shoul": 2191,
      "why, ": 2192,
      "suc": 2193,
      "enter": 2194,
      "need ": 2195,
      "thou hast ": 2196,
      "ce; ": 2197,
      "upon the ": 2198,
      "bles": 2199,
      "dost ": 2200,
      "STIAN": 2201,
      "gods ": 2202,
      "should be ": 2203,
      "seem ": 2204,
      "sorrow ": 2205,
      "MARC": 2206,
      "crown ": 2207,
      "BASTIAN": 2208,
      "Warwick": 2209,
      "Bucking": 2210,
      "people ": 2211,
      "natu": 2212,
      "common ": 2213,
      "change ": 2214,
      "full of ": 2215,
      "Gentleman: ": 2216,
      "SEBASTIAN": 2217,
      "Buckingha": 2218,
      "Si": 2219,
      "Vol": 2220,
      "band ": 2221,
      "batt": 2222,
      "fin": 2223,
      "gol": 2224,
      "k'd ": 2225,
      "mou": 2226,
      "pity ": 2227,
      "pie": 2228,
      "tears ": 2229,
      "woul": 2230,
      "s the ": 2231,
      "erous ": 2232,
      " there": 2233,
      "hate ": 2234,
      "esty ": 2235,
      "in our ": 2236,
      "may": 2237,
      "ed with ": 2238,
      "ros": 2239,
      "it? ": 2240,
      "Then, ": 2241,
      "same ": 2242,
      "says ": 2243,
      "read ": 2244,
      "might": 2245,
      "up, ": 2246,
      "musi": 2247,
      "der, ": 2248,
      "duke": 2249,
      "RICHARD: ": 2250,
      "prince ": 2251,
      "content": 2252,
      "ffer": 2253,
      "draw": 2254,
      "I think ": 2255,
      "Norfol": 2256,
      "Senator: ": 2257,
      "MARCIUS: ": 2258,
      "Bes": 2259,
      "BION": 2260,
      "DELL": 2261,
      "Lan": 2262,
      "Tow": 2263,
      "bow": 2264,
      "ed\r\n": 2265,
      "fra": 2266,
      "free ": 2267,
      "x ": 2268,
      "is no ": 2269,
      "to see ": 2270,
      "wixt ": 2271,
      "live, ": 2272,
      "earth ": 2273,
      "es and ": 2274,
      "as you ": 2275,
      "have you ": 2276,
      "oft ": 2277,
      "ce? ": 2278,
      "ceive ": 2279,
      "lords, ": 2280,
      "ORD": 2281,
      "do you ": 2282,
      ": I am ": 2283,
      "more than ": 2284,
      "AUMER": 2285,
      "accu": 2286,
      "thine ": 2287,
      "blood, ": 2288,
      "husband ": 2289,
      "DUKE OF AUMER": 2290,
      "Lucenti": 2291,
      "twenty ": 2292,
      "SEBASTIAN: ": 2293,
      "BIONDELL": 2294,
      "BIONDELLO: ": 2295,
      "Bian": 2296,
      "On ": 2297,
      "bed ": 2298,
      "gone ": 2299,
      "mble ": 2300,
      "o! ": 2301,
      "sle": 2302,
      "ty\r\n": 2303,
      "tness ": 2304,
      "yself ": 2305,
      "three ": 2306,
      "s that ": 2307,
      "I may ": 2308,
      "wife": 2309,
      "om, ": 2310,
      "es of ": 2311,
      "late ": 2312,
      "fall": 2313,
      "Than": 2314,
      "Thus ": 2315,
      "sati": 2316,
      "lose ": 2317,
      "ready ": 2318,
      "will I ": 2319,
      "ce! ": 2320,
      "know, ": 2321,
      "bod": 2322,
      "fidi": 2323,
      "warrant ": 2324,
      "all\r\n": 2325,
      "from my ": 2326,
      "out of ": 2327,
      "let us ": 2328,
      "eye ": 2329,
      "place ": 2330,
      "scar": 2331,
      "after": 2332,
      "follow ": 2333,
      "beat ": 2334,
      "ield ": 2335,
      "enemi": 2336,
      "clou": 2337,
      "sun ": 2338,
      "Julie": 2339,
      "proud ": 2340,
      "Give me ": 2341,
      "tender ": 2342,
      "Lanca": 2343,
      "ALO: ": 2344,
      "HER": 2345,
      "OP": 2346,
      "ZALO: ": 2347,
      "emp": 2348,
      "glor": 2349,
      "ked ": 2350,
      "l: ": 2351,
      "o? ": 2352,
      "pe ": 2353,
      "ren": 2354,
      "sca": 2355,
      "val": 2356,
      "y-": 2357,
      "out": 2358,
      "inter": 2359,
      " there ": 2360,
      "stee": 2361,
      "sed, ": 2362,
      "he would ": 2363,
      "lic": 2364,
      "light": 2365,
      "as a ": 2366,
      "ite ": 2367,
      "it: ": 2368,
      "l of ": 2369,
      "loving ": 2370,
      "dem": 2371,
      "we will ": 2372,
      "ANTON": 2373,
      "selves ": 2374,
      "all my ": 2375,
      "was a ": 2376,
      ": I have ": 2377,
      "tty ": 2378,
      "name, ": 2379,
      "night, ": 2380,
      "advi": 2381,
      "ment, ": 2382,
      "queen, ": 2383,
      "friends, ": 2384,
      "heaven, ": 2385,
      "half ": 2386,
      "GONZALO: ": 2387,
      "Shepherd: ": 2388,
      "Most ": 2389,
      "ANTONIO: ": 2390,
      "'t, ": 2391,
      "Fare": 2392,
      "Rome ": 2393,
      "Tran": 2394,
      "abo": 2395,
      "brow": 2396,
      "cut ": 2397,
      "cru": 2398,
      "do, ": 2399,
      "e-": 2400,
      "e'er ": 2401,
      "hur": 2402,
      "ls ": 2403,
      "low": 2404,
      "roo": 2405,
      "years ": 2406,
      "thi": 2407,
      "in'd ": 2408,
      "ence\r\n": 2409,
      "to her ": 2410,
      "wish ": 2411,
      "chee": 2412,
      "he that ": 2413,
      "live": 2414,
      "on his ": 2415,
      "have I ": 2416,
      "say": 2417,
      "loved ": 2418,
      "pois": 2419,
      "known ": 2420,
      "no mor": 2421,
      "es, and ": 2422,
      "d; and ": 2423,
      "friar": 2424,
      "speak\r\n": 2425,
      "desire ": 2426,
      "own, ": 2427,
      "self, ": 2428,
      "looks ": 2429,
      "Marry, ": 2430,
      "breath": 2431,
      "wife, ": 2432,
      "honour, ": 2433,
      "brother's ": 2434,
      "York ": 2435,
      "born": 2436,
      "born ": 2437,
      "Petru": 2438,
      "quarre": 2439,
      "FLORIZEL: ": 2440,
      "DUKE OF AUMERLE: ": 2441,
      "HERMI": 2442,
      "Can ": 2443,
      "Ga": 2444,
      "JO": 2445,
      "LORD": 2446,
      "Per": 2447,
      "Pom": 2448,
      "Sir ": 2449,
      "Wel": 2450,
      "cry ": 2451,
      "dro": 2452,
      "go, ": 2453,
      "hence": 2454,
      "ious ": 2455,
      "ised ": 2456,
      "ish ": 2457,
      "ns ": 2458,
      "over ": 2459,
      "sing": 2460,
      "sci": 2461,
      "try ": 2462,
      "yield ": 2463,
      "you; ": 2464,
      "stat": 2465,
      "ch\r\n": 2466,
      "se! ": 2467,
      "lady ": 2468,
      "le: ": 2469,
      "letter": 2470,
      "she's ": 2471,
      "under ": 2472,
      "fav": 2473,
      "of their ": 2474,
      "lost ": 2475,
      "love\r\n": 2476,
      "mil": 2477,
      "mann": 2478,
      "mother, ": 2479,
      "usur": 2480,
      "grave ": 2481,
      "soon ": 2482,
      "hand, ": 2483,
      "charge ": 2484,
      "Make ": 2485,
      "break ": 2486,
      "deep ": 2487,
      "Romeo, ": 2488,
      "gentleman ": 2489,
      "grief ": 2490,
      "Say ": 2491,
      "something ": 2492,
      "Aufidi": 2493,
      "wretch": 2494,
      "Petruchi": 2495,
      "HERMIONE: ": 2496,
      "DIO: ": 2497,
      "DA: ": 2498,
      "HN": 2499,
      "I th": 2500,
      "Tu": 2501,
      "cold ": 2502,
      "city ": 2503,
      "dare ": 2504,
      "dness ": 2505,
      "found ": 2506,
      "gone, ": 2507,
      "home ": 2508,
      "kno": 2509,
      "mour": 2510,
      "tro": 2511,
      "ump": 2512,
      "enough": 2513,
      " thr": 2514,
      "; The ": 2515,
      "stea": 2516,
      "he had ": 2517,
      "liber": 2518,
      "rema": 2519,
      "not so ": 2520,
      "safe": 2521,
      "shall": 2522,
      "reason": 2523,
      "reason ": 2524,
      "sigh": 2525,
      "To the ": 2526,
      "day": 2527,
      "day\r\n": 2528,
      "him; ": 2529,
      "heart, ": 2530,
      "fight ": 2531,
      "fect ": 2532,
      "'twere ": 2533,
      "AUDIO: ": 2534,
      "serve ": 2535,
      "affec": 2536,
      "present": 2537,
      "done, ": 2538,
      "knows ": 2539,
      "Rich": 2540,
      "MIRAN": 2541,
      "brave ": 2542,
      "sworn ": 2543,
      "report ": 2544,
      "CLAUDIO: ": 2545,
      "quick": 2546,
      "Clarence ": 2547,
      "business ": 2548,
      "Herefor": 2549,
      "PRINCE ": 2550,
      "Pray ": 2551,
      "satis": 2552,
      "JOHN": 2553,
      "MIRANDA: ": 2554,
      "Me": 2555,
      "Sta": 2556,
      "Since ": 2557,
      "by, ": 2558,
      "brie": 2559,
      "kill ": 2560,
      "lin": 2561,
      "s; And ": 2562,
      "tin": 2563,
      "umber": 2564,
      "or, ": 2565,
      "ards ": 2566,
      " that": 2567,
      "hither ": 2568,
      "my good ": 2569,
      "lip": 2570,
      "sh, ": 2571,
      "come\r\n": 2572,
      "often ": 2573,
      "thou shalt ": 2574,
      "morrow ": 2575,
      "olan": 2576,
      "cks ": 2577,
      "him that ": 2578,
      "kna": 2579,
      "ble, ": 2580,
      "gave ": 2581,
      "here? ": 2582,
      "dost thou ": 2583,
      "al\r\n": 2584,
      "sir? ": 2585,
      "truth ": 2586,
      "king's ": 2587,
      "baw": 2588,
      "night\r\n": 2589,
      "friend ": 2590,
      " thou hast ": 2591,
      "First Murderer: ": 2592,
      "If you ": 2593,
      "Madam, ": 2594,
      "but, ": 2595,
      "Thou art ": 2596,
      "It is ": 2597,
      "Being ": 2598,
      "vanta": 2599,
      "trou": 2600,
      "tribun": 2601,
      "fearful ": 2602,
      "nature ": 2603,
      "world, ": 2604,
      "look'd ": 2605,
      "thee\r\n": 2606,
      "Therefore ": 2607,
      "deliver": 2608,
      "flatter": 2609,
      "CLIFFORD: ": 2610,
      "betwe": 2611,
      "Trani": 2612,
      "Richmon": 2613,
      "AG": 2614,
      "BU": 2615,
      "How": 2616,
      "Lon": 2617,
      "SON": 2618,
      "Till ": 2619,
      "de\r\n": 2620,
      "dst thou ": 2621,
      "fres": 2622,
      "iel": 2623,
      "k the ": 2624,
      "knew ": 2625,
      "ned ": 2626,
      "ture ": 2627,
      "d of ": 2628,
      "y and ": 2629,
      "in! ": 2630,
      "ll'd ": 2631,
      "to me ": 2632,
      "ing: ": 2633,
      "chang": 2634,
      "see, ": 2635,
      "he did ": 2636,
      "res ": 2637,
      "mai": 2638,
      "become ": 2639,
      "have been ": 2640,
      "ity\r\n": 2641,
      "sion": 2642,
      "side ": 2643,
      "To make ": 2644,
      "by your ": 2645,
      "man's ": 2646,
      "respe": 2647,
      "blow": 2648,
      "past ": 2649,
      "what is ": 2650,
      "cient ": 2651,
      "es, And ": 2652,
      "swear": 2653,
      "from his ": 2654,
      "Hasting": 2655,
      "ge: ": 2656,
      "land, ": 2657,
      "married ": 2658,
      "First Senator: ": 2659,
      "servan": 2660,
      "I will not ": 2661,
      "Margar": 2662,
      "Before ": 2663,
      " thine ": 2664,
      "Henr": 2665,
      "welcome ": 2666,
      "Such ": 2667,
      "Coriolan": 2668,
      "I thank ": 2669,
      "LORD ": 2670,
      "Bap": 2671,
      "CA: ": 2672,
      "IR": 2673,
      "IT": 2674,
      "Loo": 2675,
      "Mi": 2676,
      "Or": 2677,
      "Rome, ": 2678,
      "Spea": 2679,
      "TES": 2680,
      "ag": 2681,
      "care ": 2682,
      "dest ": 2683,
      "evi": 2684,
      "hoo": 2685,
      "hence, ": 2686,
      "ion": 2687,
      "ight": 2688,
      "san": 2689,
      "sma": 2690,
      "wee": 2691,
      "thousand ": 2692,
      "in: ": 2693,
      "I be ": 2694,
      "fore": 2695,
      "seen ": 2696,
      "rever": 2697,
      "in her ": 2698,
      "as he ": 2699,
      "law ": 2700,
      "bell": 2701,
      "dire": 2702,
      "unto the ": 2703,
      "shame ": 2704,
      "sum": 2705,
      "sup": 2706,
      "supp": 2707,
      "ent\r\n": 2708,
      "miser": 2709,
      "ds and ": 2710,
      "knee": 2711,
      "victor": 2712,
      "al, ": 2713,
      "procla": 2714,
      "am I ": 2715,
      "person": 2716,
      "us: ": 2717,
      "if he ": 2718,
      "she is ": 2719,
      "speak, ": 2720,
      "CATES": 2721,
      "gue ": 2722,
      "self\r\n": 2723,
      "again, ": 2724,
      "scor": 2725,
      "mine own ": 2726,
      "liege, ": 2727,
      "Because ": 2728,
      "stands ": 2729,
      "too, ": 2730,
      "Their ": 2731,
      "grief": 2732,
      "help": 2733,
      "York": 2734,
      "Saint ": 2735,
      "; there": 2736,
      "Marcius ": 2737,
      " thee\r\n": 2738,
      "kiss ": 2739,
      "house, ": 2740,
      "PRINCE EDWARD: ": 2741,
      "Bapti": 2742,
      "CATESBY: ": 2743,
      "Ge": 2744,
      "Mer": 2745,
      "NT: ": 2746,
      "bol": 2747,
      "bour": 2748,
      "cted ": 2749,
      "ction ": 2750,
      "cros": 2751,
      "dow ": 2752,
      "el ": 2753,
      "home": 2754,
      "im ": 2755,
      "ies ": 2756,
      "les": 2757,
      "mee": 2758,
      "near": 2759,
      "test ": 2760,
      "touch": 2761,
      "ult ": 2762,
      "ves": 2763,
      "ves\r\n": 2764,
      "thor": 2765,
      "t to ": 2766,
      "t of ": 2767,
      "er than ": 2768,
      "y to ": 2769,
      "ina": 2770,
      "into ": 2771,
      "you'll ": 2772,
      "to re": 2773,
      "wise ": 2774,
      "forth": 2775,
      "for thy ": 2776,
      "secre": 2777,
      "till": 2778,
      "y, And ": 2779,
      "your gra": 2780,
      "your grace ": 2781,
      "div": 2782,
      "dies ": 2783,
      "face, ": 2784,
      "sudd": 2785,
      "To be ": 2786,
      "wal": 2787,
      "cep": 2788,
      "move ": 2789,
      "him to ": 2790,
      "what a ": 2791,
      "one that ": 2792,
      "with thy ": 2793,
      "What is ": 2794,
      "so? ": 2795,
      "'twas ": 2796,
      "gover": 2797,
      "they are ": 2798,
      "honest ": 2799,
      "upon my ": 2800,
      "art thou ": 2801,
      "women ": 2802,
      "yourself ": 2803,
      "drun": 2804,
      "BAL": 2805,
      "Unless ": 2806,
      "prince, ": 2807,
      "BRA": 2808,
      "vali": 2809,
      "RIVER": 2810,
      "to-morrow": 2811,
      "content ": 2812,
      "GREY: ": 2813,
      "draw ": 2814,
      "strange ": 2815,
      "Must ": 2816,
      "pluck ": 2817,
      "That's ": 2818,
      "Roman": 2819,
      "dishon": 2820,
      "princely ": 2821,
      "Geor": 2822,
      "RIVERS: ": 2823,
      "'ld ": 2824,
      "Al": 2825,
      "BIAN": 2826,
      "BOW": 2827,
      "Ch": 2828,
      "Ex": 2829,
      "Ere ": 2830,
      "GAU": 2831,
      "Her": 2832,
      "Look ": 2833,
      "bound ": 2834,
      "cow": 2835,
      "cti": 2836,
      "cee": 2837,
      "clu": 2838,
      "et, ": 2839,
      "either ": 2840,
      "ima": 2841,
      "lst ": 2842,
      "ph": 2843,
      "pat": 2844,
      "in that ": 2845,
      "indeed ": 2846,
      "sty ": 2847,
      "chance ": 2848,
      "for that ": 2849,
      "rew": 2850,
      "earth": 2851,
      "shed ": 2852,
      "it not ": 2853,
      "it was ": 2854,
      "die\r\n": 2855,
      "didst ": 2856,
      "eeper": 2857,
      "ce of ": 2858,
      "of that ": 2859,
      "neither ": 2860,
      "days ": 2861,
      "mortal ": 2862,
      "him? ": 2863,
      "pair ": 2864,
      "what you ": 2865,
      "fie": 2866,
      "ELBOW": 2867,
      "would not ": 2868,
      "mine, ": 2869,
      "given ": 2870,
      "trust ": 2871,
      "you, sir, ": 2872,
      "hand": 2873,
      "eyes, ": 2874,
      "counter": 2875,
      "This is ": 2876,
      "Master ": 2877,
      "LIA: ": 2878,
      "go with ": 2879,
      "seek ": 2880,
      "men\r\n": 2881,
      "know the ": 2882,
      "fles": 2883,
      "sea ": 2884,
      "triump": 2885,
      "beggar": 2886,
      " OF GAU": 2887,
      "ness, ": 2888,
      "Clarence, ": 2889,
      "doubt ": 2890,
      "North": 2891,
      "subjec": 2892,
      "groun": 2893,
      "majest": 2894,
      "JOHN OF GAU": 2895,
      "SON: ": 2896,
      "BIANCA: ": 2897,
      " KING HENRY V": 2898,
      "3 KING HENRY V": 2899,
      "AS": 2900,
      "En": 2901,
      "Hor": 2902,
      "He's ": 2903,
      "Kat": 2904,
      "Lest ": 2905,
      "MONT": 2906,
      "Ox": 2907,
      "Sir": 2908,
      "TY": 2909,
      "Yes, ": 2910,
      "age, ": 2911,
      "cea": 2912,
      "cess ": 2913,
      "ces, ": 2914,
      "fre": 2915,
      "home, ": 2916,
      "l'd ": 2917,
      "nor": 2918,
      "nar": 2919,
      "oc": 2920,
      "rt ": 2921,
      "sound ": 2922,
      "wer": 2923,
      "er? ": 2924,
      ": and ": 2925,
      "enough ": 2926,
      "ary ": 2927,
      " thus ": 2928,
      "have, ": 2929,
      "to be": 2930,
      "and to ": 2931,
      "and your ": 2932,
      "ea, ": 2933,
      "ste ": 2934,
      "the king ": 2935,
      "not": 2936,
      "my heart ": 2937,
      "force ": 2938,
      "se? ": 2939,
      "recei": 2940,
      "earth, ": 2941,
      "ties ": 2942,
      "you must ": 2943,
      "as we ": 2944,
      "befor": 2945,
      "saf": 2946,
      "saw ": 2947,
      "for our ": 2948,
      "ta'": 2949,
      "suit": 2950,
      "Whom ": 2951,
      "next ": 2952,
      "cked ": 2953,
      "shall not ": 2954,
      "him! ": 2955,
      "heart\r\n": 2956,
      "what I ": 2957,
      "here\r\n": 2958,
      "here's ": 2959,
      "war ": 2960,
      "mine\r\n": 2961,
      "provo": 2962,
      "held ": 2963,
      "peti": 2964,
      "canst ": 2965,
      "mark ": 2966,
      "marry ": 2967,
      "plain": 2968,
      "life\r\n": 2969,
      "il, ": 2970,
      "pray, ": 2971,
      "time to ": 2972,
      "woman ": 2973,
      "Second Murderer: ": 2974,
      "tensi": 2975,
      "took ": 2976,
      "ment\r\n": 2977,
      "slau": 2978,
      "kins": 2979,
      "strong ": 2980,
      "straight ": 2981,
      "strike ": 2982,
      "cousin, ": 2983,
      "posses": 2984,
      "beauty ": 2985,
      "general ": 2986,
      "title ": 2987,
      "mighty ": 2988,
      "AGU": 2989,
      "Chri": 2990,
      "3 KING HENRY VI ": 2991,
      "Hortensi": 2992,
      "MONTAGU": 2993,
      "Oxfor": 2994,
      "'e": 2995,
      "'d; ": 2996,
      "'d: ": 2997,
      "Kath": 2998,
      "Pea": 2999,
      "Tru": 3000,
      "dru": 3001,
      "grant ": 3002,
      "por": 3003,
      "ring ": 3004,
      "s; and ": 3005,
      "ts\r\n": 3006,
      "ue ": 3007,
      "ink": 3008,
      ": I'll ": 3009,
      "est\r\n": 3010,
      "to take ": 3011,
      "and un": 3012,
      "; And, ": 3013,
      "ston": 3014,
      "sting ": 3015,
      "stoo": 3016,
      "th and ": 3017,
      "chur": 3018,
      "a man ": 3019,
      "sel ": 3020,
      "sever": 3021,
      "at your ": 3022,
      "right": 3023,
      "mali": 3024,
      "matter ": 3025,
      "rah, ": 3026,
      "unti": 3027,
      "with your ": 3028,
      "with her ": 3029,
      "that he ": 3030,
      "'d the ": 3031,
      "spa": 3032,
      "ded, ": 3033,
      "wall": 3034,
      "by his ": 3035,
      "shall I ": 3036,
      "poin": 3037,
      "pose ": 3038,
      "ours ": 3039,
      "both": 3040,
      "fiel": 3041,
      "almost ": 3042,
      "sir! ": 3043,
      "fellow ": 3044,
      "tting ": 3045,
      "us? ": 3046,
      "goes ": 3047,
      "say '": 3048,
      "when I ": 3049,
      "well: ": 3050,
      "appro": 3051,
      "therefore, ": 3052,
      "news? ": 3053,
      "Lord of ": 3054,
      "horse ": 3055,
      "fire ": 3056,
      "Richard, ": 3057,
      "cousin ": 3058,
      "remember ": 3059,
      "Let's ": 3060,
      "majesty ": 3061,
      "shepher": 3062,
      "entreat ": 3063,
      "tyran": 3064,
      "natura": 3065,
      "Northumber": 3066,
      "JOHN OF GAUNT: ": 3067,
      "Kathar": 3068,
      "AM": 3069,
      "AT": 3070,
      "Isa": 3071,
      "Pr": 3072,
      "Ra": 3073,
      "Sw": 3074,
      "ad ": 3075,
      "ala": 3076,
      "bli": 3077,
      "dom": 3078,
      "drow": 3079,
      "emb": 3080,
      "gri": 3081,
      "med ": 3082,
      "plan": 3083,
      "sin ": 3084,
      "smi": 3085,
      "slan": 3086,
      "swif": 3087,
      "ute ": 3088,
      "vol": 3089,
      "yiel": 3090,
      "thri": 3091,
      "ous, ": 3092,
      "inno": 3093,
      "ancient ": 3094,
      "en\r\n": 3095,
      " things ": 3096,
      "wis": 3097,
      "widow": 3098,
      "; and, ": 3099,
      "st? ": 3100,
      "er of ": 3101,
      "th of ": 3102,
      "not: ": 3103,
      "nothing": 3104,
      "rich ": 3105,
      "maid ": 3106,
      "madam, ": 3107,
      "as thou ": 3108,
      "le! ": 3109,
      "be the ": 3110,
      "die": 3111,
      "dig": 3112,
      "sad ": 3113,
      "common": 3114,
      " them, ": 3115,
      "hearts ": 3116,
      "ted, ": 3117,
      "dead, ": 3118,
      "would have ": 3119,
      ": I will ": 3120,
      "hemi": 3121,
      "ge! ": 3122,
      "extre": 3123,
      "which": 3124,
      "pretty ": 3125,
      "appar": 3126,
      "We are ": 3127,
      "Edward, ": 3128,
      "fool": 3129,
      "foot ": 3130,
      "now! ": 3131,
      "good, ": 3132,
      "against the ": 3133,
      "soul, ": 3134,
      "call'd ": 3135,
      "crown, ": 3136,
      "myself, ": 3137,
      "Bohemi": 3138,
      "possi": 3139,
      "hours ": 3140,
      "traitor ": 3141,
      "dangerous ": 3142,
      "justice ": 3143,
      "Doth ": 3144,
      "children ": 3145,
      "Stan": 3146,
      "Alas, ": 3147,
      "ELBOW: ": 3148,
      "MONTAGUE: ": 3149,
      "'s, ": 3150,
      "AL": 3151,
      "Away ": 3152,
      "Call ": 3153,
      "DIT": 3154,
      "GI": 3155,
      "Lo": 3156,
      "VIR": 3157,
      "ach": 3158,
      "bb": 3159,
      "bour ": 3160,
      "fit": 3161,
      "fly ": 3162,
      "foun": 3163,
      "gel": 3164,
      "ms ": 3165,
      "mper": 3166,
      "mpe": 3167,
      "tou": 3168,
      "vy ": 3169,
      "want ": 3170,
      "ye ": 3171,
      "e the ": 3172,
      "out\r\n": 3173,
      "ers\r\n": 3174,
      "indeed, ": 3175,
      "arm ": 3176,
      " this": 3177,
      " this, ": 3178,
      "on thy ": 3179,
      "having ": 3180,
      "wil": 3181,
      "; For": 3182,
      "nobl": 3183,
      "not? ": 3184,
      "for, ": 3185,
      "forget ": 3186,
      "of you ": 3187,
      "re\r\n": 3188,
      "you will ": 3189,
      "madam": 3190,
      "be a ": 3191,
      "beh": 3192,
      "it were ": 3193,
      "unt ": 3194,
      "ates": 3195,
      "loy": 3196,
      " them\r\n": 3197,
      "ck\r\n": 3198,
      "up the ": 3199,
      "shall we ": 3200,
      "ds of ": 3201,
      "point ": 3202,
      "pale ": 3203,
      "bold ": 3204,
      "parti": 3205,
      "Will": 3206,
      "ough the ": 3207,
      "me, and ": 3208,
      "heir ": 3209,
      "base ": 3210,
      "duty ": 3211,
      "go\r\n": 3212,
      "let them ": 3213,
      "tions ": 3214,
      "own\r\n": 3215,
      "counsel": 3216,
      "child ": 3217,
      "when he ": 3218,
      "How now, ": 3219,
      "there's ": 3220,
      " think ": 3221,
      "Well ": 3222,
      "We'll ": 3223,
      "Where is ": 3224,
      "now\r\n": 3225,
      "cess": 3226,
      "curse ": 3227,
      "goodly ": 3228,
      "pass ": 3229,
      "Which, ": 3230,
      "contin": 3231,
      "people, ": 3232,
      "PERDIT": 3233,
      "sure, ": 3234,
      "lawful ": 3235,
      "There's ": 3236,
      "rememb": 3237,
      "attend ": 3238,
      "If thou ": 3239,
      "gone\r\n": 3240,
      "deserved ": 3241,
      "Here's ": 3242,
      "That, ": 3243,
      "purpose ": 3244,
      "England's ": 3245,
      "Pompe": 3246,
      "between ": 3247,
      "Henry's ": 3248,
      "GILIA: ": 3249,
      "VIRGILIA: ": 3250,
      "PERDITA: ": 3251,
      "'st, ": 3252,
      "Af": 3253,
      "Ear": 3254,
      "Hea": 3255,
      "K: I ": 3256,
      "PARI": 3257,
      "So, ": 3258,
      "SET: ": 3259,
      "Wor": 3260,
      "Watch": 3261,
      "boun": 3262,
      "ble\r\n": 3263,
      "cure ": 3264,
      "fing": 3265,
      "near ": 3266,
      "rough ": 3267,
      "sy ": 3268,
      "sli": 3269,
      "tar": 3270,
      ": But ": 3271,
      "I could ": 3272,
      "st! ": 3273,
      "like": 3274,
      "return": 3275,
      "return ": 3276,
      "tive ": 3277,
      "you not ": 3278,
      "you do ": 3279,
      "you were ": 3280,
      "s, That ": 3281,
      "as they ": 3282,
      "ure, ": 3283,
      "be not ": 3284,
      "because ": 3285,
      "on a ": 3286,
      "fault ": 3287,
      "or else ": 3288,
      "with our ": 3289,
      "that is ": 3290,
      "'d my ": 3291,
      "loves ": 3292,
      "there, ": 3293,
      "but the ": 3294,
      "condem": 3295,
      "consci": 3296,
      "are you ": 3297,
      "sister": 3298,
      "sister ": 3299,
      "word, ": 3300,
      "by this ": 3301,
      "rest, ": 3302,
      "blu": 3303,
      "do\r\n": 3304,
      "citi": 3305,
      "ful": 3306,
      "all this ": 3307,
      "I'll be ": 3308,
      "desper": 3309,
      "I am a ": 3310,
      "open ": 3311,
      "QUEEN: ": 3312,
      "joy": 3313,
      "tell me, ": 3314,
      "MARIAN": 3315,
      "Second Citizen: ": 3316,
      "too\r\n": 3317,
      "LADY GREY: ": 3318,
      "ignor": 3319,
      "While ": 3320,
      "York, ": 3321,
      "what, ": 3322,
      "away\r\n": 3323,
      "friend, ": 3324,
      "I say, ": 3325,
      "spoke ": 3326,
      "black ": 3327,
      "wonder": 3328,
      "oath": 3329,
      "oath ": 3330,
      "Padu": 3331,
      "wilt thou ": 3332,
      "revenge ": 3333,
      "house of ": 3334,
      "needs ": 3335,
      "want": 3336,
      "service ": 3337,
      "beseech you, ": 3338,
      "nurse, ": 3339,
      "Gremi": 3340,
      "this? ": 3341,
      "embra": 3342,
      "PARIS: ": 3343,
      "MARIANA: ": 3344,
      "! the ": 3345,
      "Ab": 3346,
      "Can": 3347,
      "Gru": 3348,
      "He": 3349,
      "Ne": 3350,
      "Plan": 3351,
      "SL": 3352,
      "Say, ": 3353,
      "Ver": 3354,
      "a\r\n": 3355,
      "ama": 3356,
      "air ": 3357,
      "dful ": 3358,
      "ed": 3359,
      "fru": 3360,
      "free": 3361,
      "gir": 3362,
      "ily ": 3363,
      "ping ": 3364,
      "twi": 3365,
      "tless ": 3366,
      "vow": 3367,
      "this, ": 3368,
      "er's ": 3369,
      "an, ": 3370,
      "eni": 3371,
      "en the ": 3372,
      "ard, ": 3373,
      "hate": 3374,
      "have": 3375,
      "I say ": 3376,
      "and thy ": 3377,
      "witness ": 3378,
      "st, and ": 3379,
      "state, ": 3380,
      "Angel": 3381,
      "ghts ": 3382,
      "And so ": 3383,
      "me and ": 3384,
      "sho": 3385,
      "die, ": 3386,
      "itself ": 3387,
      "whence ": 3388,
      "sician": 3389,
      "To see ": 3390,
      "old, ": 3391,
      "man! ": 3392,
      "so much ": 3393,
      "quo": 3394,
      "viol": 3395,
      "pay ": 3396,
      "was the ": 3397,
      "head, ": 3398,
      "prosp": 3399,
      "ho! ": 3400,
      "us! ": 3401,
      "like the ": 3402,
      "hath been ": 3403,
      "make a ": 3404,
      "nay, ": 3405,
      "pp'd ": 3406,
      "my lord ": 3407,
      "how to ": 3408,
      "exce": 3409,
      "buy ": 3410,
      "See ": 3411,
      "Thou hast ": 3412,
      "'tis a ": 3413,
      "too much ": 3414,
      "We have ": 3415,
      "merry ": 3416,
      "ask ": 3417,
      "if the ": 3418,
      "father\r\n": 3419,
      "tell me ": 3420,
      "ments ": 3421,
      "ence? ": 3422,
      "strong": 3423,
      "weal": 3424,
      "sleep ": 3425,
      "Marcius, ": 3426,
      "banish'd ": 3427,
      "then? ": 3428,
      "uncle ": 3429,
      "Third Citizen: ": 3430,
      "yet, ": 3431,
      "seems ": 3432,
      "a thousand ": 3433,
      "mercy ": 3434,
      "kind of ": 3435,
      "toward ": 3436,
      "run ": 3437,
      "glas": 3438,
      "Too ": 3439,
      "Gloucester": 3440,
      "golden ": 3441,
      "Bianca": 3442,
      "valiant ": 3443,
      "wert ": 3444,
      "slaughter": 3445,
      "Grumi": 3446,
      "Planta": 3447,
      "Angelo ": 3448,
      " X": 3449,
      ":' ": 3450,
      "; that ": 3451,
      "Bar": 3452,
      "Could ": 3453,
      "De": 3454,
      "DOR": 3455,
      "Fri": 3456,
      "Ro": 3457,
      "WIS": 3458,
      "big": 3459,
      "cy ": 3460,
      "cing ": 3461,
      "cat": 3462,
      "ether ": 3463,
      "ges ": 3464,
      "ly": 3465,
      "moun": 3466,
      "sit": 3467,
      "ts": 3468,
      "s in ": 3469,
      "out, ": 3470,
      "er'd ": 3471,
      "ins, ": 3472,
      "ance, ": 3473,
      ": the ": 3474,
      "ends ": 3475,
      "hast thou ": 3476,
      "you! ": 3477,
      "and that ": 3478,
      "ing-": 3479,
      "wish": 3480,
      "stom": 3481,
      "stir": 3482,
      "ches ": 3483,
      "my father ": 3484,
      "form ": 3485,
      "of all ": 3486,
      "he will ": 3487,
      "you a ": 3488,
      "mad ": 3489,
      "as it ": 3490,
      "le's ": 3491,
      "dispo": 3492,
      "Thou": 3493,
      "coming ": 3494,
      "come; ": 3495,
      "shap": 3496,
      "suffer": 3497,
      "conqu": 3498,
      "wast ": 3499,
      "ways ": 3500,
      "mista": 3501,
      "man that ": 3502,
      "shall have ": 3503,
      "we may ": 3504,
      "this is ": 3505,
      "dog": 3506,
      "heal": 3507,
      "fetch ": 3508,
      "KING LE": 3509,
      "p of ": 3510,
      "mini": 3511,
      ": I would ": 3512,
      "vel ": 3513,
      "is't ": 3514,
      "true, ": 3515,
      "son\r\n": 3516,
      "heir": 3517,
      "like an ": 3518,
      "mple ": 3519,
      "still": 3520,
      "take the ": 3521,
      "well-": 3522,
      "adver": 3523,
      "done\r\n": 3524,
      "knowle": 3525,
      "just ": 3526,
      "o'er ": 3527,
      "peace, ": 3528,
      "God save ": 3529,
      "now? ": 3530,
      "cursed ": 3531,
      "means ": 3532,
      "pursu": 3533,
      "Henry, ": 3534,
      "thank": 3535,
      "down\r\n": 3536,
      "; then ": 3537,
      "daughter, ": 3538,
      "appear": 3539,
      "confess ": 3540,
      "ground ": 3541,
      "hund": 3542,
      "country's ": 3543,
      "measure ": 3544,
      "To-": 3545,
      "Capu": 3546,
      "obedi": 3547,
      "issue ": 3548,
      "bosom": 3549,
      "music ": 3550,
      "Look, ": 3551,
      "Or, ": 3552,
      "Speak ": 3553,
      "innoc": 3554,
      "Earl of ": 3555,
      "Watchman: ": 3556,
      "citizen": 3557,
      " XI: ": 3558,
      "WIS XI: ": 3559,
      "KING LEWIS XI: ": 3560,
      "Bro": 3561,
      "Cates": 3562,
      "I\r\n": 3563,
      "Kate, ": 3564,
      "Keeper": 3565,
      "LAR": 3566,
      "Man": 3567,
      "Mow": 3568,
      "Pri": 3569,
      "Pla": 3570,
      "Tur": 3571,
      "TIUS: ": 3572,
      "a-": 3573,
      "abro": 3574,
      "awhi": 3575,
      "blo": 3576,
      "bene": 3577,
      "des ": 3578,
      "ffi": 3579,
      "ilor": 3580,
      "ith, ": 3581,
      "k! ": 3582,
      "nu": 3583,
      "n\r\n": 3584,
      "od": 3585,
      "other, ": 3586,
      "per ": 3587,
      "pun": 3588,
      "schoo": 3589,
      "t'st ": 3590,
      "ught ": 3591,
      "vest ": 3592,
      "vel": 3593,
      "wind ": 3594,
      "thy": 3595,
      "are, ": 3596,
      "on: ": 3597,
      "llow, ": 3598,
      "esti": 3599,
      "you the ": 3600,
      "I not ": 3601,
      "I never ": 3602,
      "I fear": 3603,
      "stre": 3604,
      "stood ": 3605,
      "a very ": 3606,
      "like, ": 3607,
      "light, ": 3608,
      "maid": 3609,
      "lamb": 3610,
      "le; ": 3611,
      "le? ": 3612,
      "your high": 3613,
      "with me ": 3614,
      "them, ": 3615,
      "tale ": 3616,
      "table ": 3617,
      "spr": 3618,
      "spur": 3619,
      "will you ": 3620,
      "met ": 3621,
      "consent ": 3622,
      "case ": 3623,
      "sight": 3624,
      "deter": 3625,
      "way": 3626,
      "thou wilt ": 3627,
      "ques": 3628,
      "no man ": 3629,
      "gall": 3630,
      "est thou ": 3631,
      "five ": 3632,
      "alread": 3633,
      "with that ": 3634,
      "with this ": 3635,
      "prof": 3636,
      "trumpe": 3637,
      "broke ": 3638,
      "like to ": 3639,
      "'t: ": 3640,
      "let the ": 3641,
      "honoura": 3642,
      "place, ": 3643,
      "ended ": 3644,
      "take my ": 3645,
      "cuti": 3646,
      "give him ": 3647,
      "prepar": 3648,
      "bring": 3649,
      "presence ": 3650,
      "judg": 3651,
      "cover": 3652,
      "enem": 3653,
      "course ": 3654,
      "will\r\n": 3655,
      "arms ": 3656,
      "repor": 3657,
      "myself\r\n": 3658,
      "Both ": 3659,
      "offic": 3660,
      "office ": 3661,
      "sovereign ": 3662,
      "bids ": 3663,
      "promise ": 3664,
      "faith, ": 3665,
      "Aumer": 3666,
      "himself, ": 3667,
      "Tybalt, ": 3668,
      "towards ": 3669,
      "Clifford, ": 3670,
      "Faith, ": 3671,
      "learn ": 3672,
      "Joh": 3673,
      "defend ": 3674,
      "guilty ": 3675,
      "Norfolk, ": 3676,
      "Welcome, ": 3677,
      "fresh ": 3678,
      "; therefore ": 3679,
      "Isabe": 3680,
      "Sweet ": 3681,
      "SLY: ": 3682,
      "LARTIUS: ": 3683,
      "Mowbra": 3684,
      "Apo": 3685,
      "Dea": 3686,
      "EX": 3687,
      "Fir": 3688,
      "Fear ": 3689,
      "Lea": 3690,
      "Plea": 3691,
      "RTI": 3692,
      "Vin": 3693,
      "ation ": 3694,
      "cir": 3695,
      "dri": 3696,
      "dres": 3697,
      "dent ": 3698,
      "dnes": 3699,
      "ff ": 3700,
      "four": 3701,
      "ger ": 3702,
      "hood ": 3703,
      "ls, ": 3704,
      "low ": 3705,
      "lun": 3706,
      "les, ": 3707,
      "moo": 3708,
      "mit": 3709,
      "mour ": 3710,
      "plo": 3711,
      "ply ": 3712,
      "pul": 3713,
      "soo": 3714,
      "tom": 3715,
      "w, ": 3716,
      "wing": 3717,
      "wra": 3718,
      "wear ": 3719,
      "weep ": 3720,
      "yond ": 3721,
      "zed ": 3722,
      "threa": 3723,
      "things ": 3724,
      "inf": 3725,
      ": My ": 3726,
      "arri": 3727,
      " thou": 3728,
      " thousand ": 3729,
      "youth ": 3730,
      "I love ": 3731,
      "I warrant ": 3732,
      "to hear ": 3733,
      "eat ": 3734,
      "omer": 3735,
      "; I'll ": 3736,
      "sts ": 3737,
      "stro": 3738,
      "hither": 3739,
      "hide ": 3740,
      "not; ": 3741,
      "sei": 3742,
      "living ": 3743,
      "st of ": 3744,
      "ing to ": 3745,
      "may, ": 3746,
      "match": 3747,
      "not my ": 3748,
      "es are ": 3749,
      "led, ": 3750,
      "an un": 3751,
      "with him ": 3752,
      "with her": 3753,
      "with such ": 3754,
      "sage ": 3755,
      "said, ": 3756,
      "'d and ": 3757,
      "'d with ": 3758,
      "who": 3759,
      "consi": 3760,
      "sick": 3761,
      "sight ": 3762,
      "worse ": 3763,
      "neigh": 3764,
      "depu": 3765,
      "decei": 3766,
      "morn": 3767,
      "more\r\n": 3768,
      "lord\r\n": 3769,
      "him, and ": 3770,
      "hear, ": 3771,
      "posed ": 3772,
      "vie": 3773,
      "visit ": 3774,
      "here": 3775,
      "boy, ": 3776,
      "dead\r\n": 3777,
      "deadly ": 3778,
      "feit ": 3779,
      "ful, ": 3780,
      "fully ": 3781,
      ": I do ": 3782,
      ": I know ": 3783,
      "tten ": 3784,
      "person ": 3785,
      "king? ": 3786,
      "bad ": 3787,
      "ge? ": 3788,
      "tion: ": 3789,
      "should have ": 3790,
      "hand\r\n": 3791,
      "accoun": 3792,
      "my lord; ": 3793,
      "expe": 3794,
      "excu": 3795,
      "First Servingman: ": 3796,
      "priv": 3797,
      "prithee, ": 3798,
      "This is the ": 3799,
      "butch": 3800,
      "precious ": 3801,
      "PETER: ": 3802,
      "pleasure ": 3803,
      "Or else ": 3804,
      "hard ": 3805,
      "hear me ": 3806,
      "enemy ": 3807,
      "sword ": 3808,
      "child, ": 3809,
      "wrong ": 3810,
      "down, ": 3811,
      "Pedan": 3812,
      "Will you ": 3813,
      "CURTI": 3814,
      "Paul": 3815,
      "heavens ": 3816,
      "laugh": 3817,
      "virtue ": 3818,
      "cheer": 3819,
      "when the ": 3820,
      "mistress ": 3821,
      "subject ": 3822,
      "grown ": 3823,
      "wounds ": 3824,
      "marriage ": 3825,
      "Camillo, ": 3826,
      "blessed ": 3827,
      "Lancaster": 3828,
      "Farewell, ": 3829,
      "above ": 3830,
      "quarrel ": 3831,
      "quickly ": 3832,
      "vantage ": 3833,
      "BUR": 3834,
      "Baptista": 3835,
      "Mercuti": 3836,
      "Sirrah, ": 3837,
      "Peace, ": 3838,
      "quoth ": 3839,
      "hundred ": 3840,
      "Capule": 3841,
      "Keeper: ": 3842,
      "First, ": 3843,
      "CURTIS: ": 3844,
      "I' the ": 3845,
      "Put ": 3846,
      "RAT": 3847,
      "SAM": 3848,
      "age\r\n": 3849,
      "book ": 3850,
      "fy ": 3851,
      "hee": 3852,
      "lous ": 3853,
      "mur": 3854,
      "o; ": 3855,
      "o' ": 3856,
      "pare ": 3857,
      "r'd ": 3858,
      "s-": 3859,
      "ss ": 3860,
      "soft ": 3861,
      "zen ": 3862,
      "th: ": 3863,
      "thir": 3864,
      ", To ": 3865,
      "s for ": 3866,
      "ine, ": 3867,
      "in? ": 3868,
      "ined ": 3869,
      "one; ": 3870,
      "is he ": 3871,
      "you that ": 3872,
      "I know": 3873,
      "I am": 3874,
      "forward ": 3875,
      "set, ": 3876,
      "second ": 3877,
      "he be ": 3878,
      "live\r\n": 3879,
      "time\r\n": 3880,
      "you know ": 3881,
      "in all ": 3882,
      "me the ": 3883,
      "me a ": 3884,
      "lack ": 3885,
      "laid ": 3886,
      "be it ": 3887,
      "be\r\n": 3888,
      "behol": 3889,
      "fast ": 3890,
      "that thou ": 3891,
      "them\r\n": 3892,
      "'d in ": 3893,
      "of these ": 3894,
      "whom": 3895,
      "but that ": 3896,
      "conve": 3897,
      "cal": 3898,
      "rup": 3899,
      "depar": 3900,
      "day! ": 3901,
      "ANTI": 3902,
      "selv": 3903,
      "bless ": 3904,
      "ted\r\n": 3905,
      "teous ": 3906,
      "pair": 3907,
      "along": 3908,
      "sir: ": 3909,
      "with thee ": 3910,
      "ally ": 3911,
      "ved, ": 3912,
      "provi": 3913,
      "hot ": 3914,
      "sole": 3915,
      "make me ": 3916,
      " thou art ": 3917,
      "hands, ": 3918,
      "eye, ": 3919,
      "ils ": 3920,
      "venge": 3921,
      "think": 3922,
      "white ": 3923,
      "Made ": 3924,
      "greater ": 3925,
      "YORK: I ": 3926,
      "'st thou ": 3927,
      "it, and ": 3928,
      "Come, come, ": 3929,
      "ence! ": 3930,
      " they are ": 3931,
      "means to ": 3932,
      "power": 3933,
      "comes the ": 3934,
      "I would not ": 3935,
      "Citizens: ": 3936,
      "honour\r\n": 3937,
      "Which": 3938,
      "hope, ": 3939,
      "to-morrow ": 3940,
      "York\r\n": 3941,
      "name of ": 3942,
      "watch": 3943,
      "world\r\n": 3944,
      "answer": 3945,
      "nothing but ": 3946,
      "King of ": 3947,
      "Therefore, ": 3948,
      "English ": 3949,
      "confes": 3950,
      "queen's ": 3951,
      "I think, ": 3952,
      "shows ": 3953,
      "uncle, ": 3954,
      "More than ": 3955,
      "haste ": 3956,
      "Third Servingman: ": 3957,
      "faith": 3958,
      "spirit ": 3959,
      "together ": 3960,
      "children": 3961,
      "GONUS: ": 3962,
      "Stand ": 3963,
      "prayers ": 3964,
      "Bolingbroke ": 3965,
      "Lady ": 3966,
      "glad ": 3967,
      "succes": 3968,
      "Volsc": 3969,
      "wouldst ": 3970,
      "I thought ": 3971,
      "knock ": 3972,
      "Tranio, ": 3973,
      "imag": 3974,
      "ta'en ": 3975,
      "Pedant: ": 3976,
      "RATCLIFF": 3977,
      "SAMP": 3978,
      "ANTIGONUS: ": 3979,
      "'? ": 3980,
      "'re ": 3981,
      "Ba": 3982,
      "Des": 3983,
      "Fi": 3984,
      "Kate ": 3985,
      "Lad": 3986,
      "Rut": 3987,
      "Yet, ": 3988,
      "Yea, ": 3989,
      "air": 3990,
      "ach ": 3991,
      "cun": 3992,
      "ctu": 3993,
      "ds! ": 3994,
      "ele": 3995,
      "ed: ": 3996,
      "gene": 3997,
      "gree": 3998,
      "hom": 3999,
      "ion ": 4000,
      "jest ": 4001,
      "mn": 4002,
      "mit ": 4003,
      "oli": 4004,
      "wis ": 4005,
      "e to ": 4006,
      "ouri": 4007,
      "int, ": 4008,
      "encoun": 4009,
      "arti": 4010,
      "hadst ": 4011,
      "is this ": 4012,
      "I were ": 4013,
      "to me, ": 4014,
      "to give ": 4015,
      "e, fi": 4016,
      "ing? ": 4017,
      "st; ": 4018,
      "sted ": 4019,
      "stly ": 4020,
      "hither, ": 4021,
      "cher": 4022,
      "chol": 4023,
      "forced ": 4024,
      "of it\r\n": 4025,
      "sely ": 4026,
      "early ": 4027,
      "oof": 4028,
      "ed and ": 4029,
      "as well ": 4030,
      "late": 4031,
      "le-": 4032,
      "leg": 4033,
      "leis": 4034,
      "shar": 4035,
      "behold ": 4036,
      "your good ": 4037,
      "un ": 4038,
      "it; ": 4039,
      "Thom": 4040,
      "Think ": 4041,
      "sac": 4042,
      "of, ": 4043,
      "who, ": 4044,
      "for her ": 4045,
      "tation ": 4046,
      "shake ": 4047,
      "shame, ": 4048,
      "suff": 4049,
      "but not ": 4050,
      "condi": 4051,
      "contra": 4052,
      "constan": 4053,
      "conclu": 4054,
      "cast": 4055,
      "are the ": 4056,
      "side, ": 4057,
      "To have ": 4058,
      "wedd": 4059,
      "weigh": 4060,
      "was, ": 4061,
      "morning ": 4062,
      "man; ": 4063,
      "man? ": 4064,
      "we shall ": 4065,
      "lord? ": 4066,
      "ANLE": 4067,
      "moved ": 4068,
      "selves, ": 4069,
      "teen ": 4070,
      "paw": 4071,
      "from this ": 4072,
      "war, ": 4073,
      "STANLE": 4074,
      "true\r\n": 4075,
      "grave": 4076,
      "As I ": 4077,
      "kingdom ": 4078,
      "so; ": 4079,
      "name? ": 4080,
      "must I ": 4081,
      "speaks ": 4082,
      "mbly ": 4083,
      "stay\r\n": 4084,
      "guard ": 4085,
      "plain ": 4086,
      "take it ": 4087,
      "counten": 4088,
      "counsel ": 4089,
      "First Lord: ": 4090,
      "see the ": 4091,
      "How now! ": 4092,
      "affor": 4093,
      "well; ": 4094,
      "men's ": 4095,
      "kept ": 4096,
      "pleasure": 4097,
      "off, ": 4098,
      "news, ": 4099,
      "if they ": 4100,
      "Second Servingman: ": 4101,
      "foolish ": 4102,
      "now the ": 4103,
      "gentlemen, ": 4104,
      "tune ": 4105,
      "wife\r\n": 4106,
      "ence; ": 4107,
      "begin ": 4108,
      "mean, ": 4109,
      "I do not ": 4110,
      "name is ": 4111,
      "nature, ": 4112,
      "than the ": 4113,
      "bid me ": 4114,
      "humble ": 4115,
      "close ": 4116,
      "weak ": 4117,
      "crave ": 4118,
      "queen\r\n": 4119,
      "tempt ": 4120,
      "bitter ": 4121,
      "virtuous ": 4122,
      "speed ": 4123,
      "author": 4124,
      "villain ": 4125,
      "together, ": 4126,
      "Tybalt ": 4127,
      "certain ": 4128,
      "mbling ": 4129,
      "PRINCE: ": 4130,
      "venture ": 4131,
      "Corioli": 4132,
      "sovereign, ": 4133,
      "Montague, ": 4134,
      "choose ": 4135,
      "ARIEL: ": 4136,
      "strength ": 4137,
      "play the ": 4138,
      "Besid": 4139,
      "friar, ": 4140,
      "Hastings, ": 4141,
      "small ": 4142,
      "secret ": 4143,
      "TYBAL": 4144,
      "occa": 4145,
      "extrem": 4146,
      "Plantagene": 4147,
      "Mantu": 4148,
      "Vincenti": 4149,
      "'er": 4150,
      "'gainst ": 4151,
      ";' ": 4152,
      "Awa": 4153,
      "BIS": 4154,
      "Fe": 4155,
      "Hel": 4156,
      "Hear ": 4157,
      "HOP": 4158,
      "KEN": 4159,
      "Mine ": 4160,
      "Out ": 4161,
      "Somer": 4162,
      "Tw": 4163,
      "amb": 4164,
      "bran": 4165,
      "cli": 4166,
      "ct, ": 4167,
      "cit": 4168,
      "ces\r\n": 4169,
      "cried ": 4170,
      "coura": 4171,
      "ds; ": 4172,
      "ely ": 4173,
      "eous ": 4174,
      "four ": 4175,
      "fran": 4176,
      "fine ": 4177,
      "fond ": 4178,
      "grow ": 4179,
      "lest ": 4180,
      "leng": 4181,
      "ming ": 4182,
      "mir": 4183,
      "mend ": 4184,
      "pin": 4185,
      "p\r\n": 4186,
      "piti": 4187,
      "s't ": 4188,
      "tes ": 4189,
      "tee": 4190,
      "te\r\n": 4191,
      "tent": 4192,
      "were, ": 4193,
      "wench": 4194,
      "throw": 4195,
      "indee": 4196,
      "in these ": 4197,
      "infec": 4198,
      ": 'Tis ": 4199,
      "or: ": 4200,
      "order": 4201,
      "order ": 4202,
      " though": 4203,
      " then, ": 4204,
      "I dare ": 4205,
      "to their ": 4206,
      "stop": 4207,
      "my hear": 4208,
      "my brother ": 4209,
      "my gracious ": 4210,
      "my master ": 4211,
      "a little ": 4212,
      "lity ": 4213,
      "at my ": 4214,
      "rew ": 4215,
      "reign": 4216,
      "Anti": 4217,
      "gho": 4218,
      "rich": 4219,
      "right, ": 4220,
      "in of ": 4221,
      "And yet ": 4222,
      "me of ": 4223,
      "me with ": 4224,
      "lamen": 4225,
      "lean": 4226,
      "shin": 4227,
      "your wor": 4228,
      "your honour ": 4229,
      "died ": 4230,
      "faced ": 4231,
      "with all ": 4232,
      "with you\r\n": 4233,
      "sake, ": 4234,
      "of those ": 4235,
      "ther than ": 4236,
      "medi": 4237,
      "condu": 4238,
      "contr": 4239,
      "cast ": 4240,
      "sick ": 4241,
      "worth ": 4242,
      "words, ": 4243,
      "much": 4244,
      "we were ": 4245,
      "hearing ": 4246,
      "do I ": 4247,
      "post ": 4248,
      "our'd ": 4249,
      "what thou ": 4250,
      "fill": 4251,
      "always ": 4252,
      "warran": 4253,
      "head\r\n": 4254,
      "fellow, ": 4255,
      "leave, ": 4256,
      "full": 4257,
      "would be ": 4258,
      "all that ": 4259,
      "My gracious ": 4260,
      "I'll not ": 4261,
      "prote": 4262,
      "procee": 4263,
      "use, ": 4264,
      "ts and ": 4265,
      "hath made ": 4266,
      "make the ": 4267,
      "'twixt ": 4268,
      "they have ": 4269,
      "land\r\n": 4270,
      "marrie": 4271,
      "marry, ": 4272,
      "He hath ": 4273,
      "how he ": 4274,
      "say you ": 4275,
      "give my ": 4276,
      "First Gentleman: ": 4277,
      "breathe ": 4278,
      "breath ": 4279,
      "affair": 4280,
      "preva": 4281,
      "'Twas ": 4282,
      "THOM": 4283,
      "angry ": 4284,
      "'d, and ": 4285,
      "gentleman, ": 4286,
      "power, ": 4287,
      "house": 4288,
      "willing": 4289,
      "Cai": 4290,
      "dream ": 4291,
      "could not ": 4292,
      "love's ": 4293,
      "Once ": 4294,
      "I saw ": 4295,
      "might have ": 4296,
      "deni": 4297,
      "deny ": 4298,
      "upon thy ": 4299,
      "master, ": 4300,
      "claim": 4301,
      "pier": 4302,
      "Do you ": 4303,
      " thee: ": 4304,
      "lady, ": 4305,
      "Juli": 4306,
      "wonder ": 4307,
      "Are you ": 4308,
      "I know not ": 4309,
      "Come on, ": 4310,
      "mother's ": 4311,
      "woman, ": 4312,
      "feel ": 4313,
      "prove a ": 4314,
      "impri": 4315,
      "groan": 4316,
      "kill'd ": 4317,
      "weary ": 4318,
      "mean to ": 4319,
      "France ": 4320,
      "Clifford ": 4321,
      "Poor ": 4322,
      "choi": 4323,
      "consul": 4324,
      "talk of ": 4325,
      "entertain": 4326,
      "battle ": 4327,
      "Petruchio, ": 4328,
      "Pray you, ": 4329,
      "Methinks ": 4330,
      "How! ": 4331,
      "London ": 4332,
      "Margare": 4333,
      "Mistres": 4334,
      "BRAKEN": 4335,
      "field ": 4336,
      "flesh ": 4337,
      "natural ": 4338,
      "Katharin": 4339,
      "dieu": 4340,
      "Stanle": 4341,
      "touch ": 4342,
      "conscience ": 4343,
      "Veron": 4344,
      "Please ": 4345,
      "vengeance ": 4346,
      "sacred ": 4347,
      "STANLEY: ": 4348,
      "TYBALT: ": 4349,
      "BISHOP": 4350,
      "BRAKENBUR": 4351,
      "BISHOP OF ": 4352,
      " M": 4353,
      " O": 4354,
      "?' ": 4355,
      "Art ": 4356,
      "Bon": 4357,
      "Bid ": 4358,
      "Cous": 4359,
      "DER": 4360,
      "GOR": 4361,
      "Hi": 4362,
      "Here, ": 4363,
      "I'ld ": 4364,
      "Men": 4365,
      "Na": 4366,
      "Pi": 4367,
      "Qu": 4368,
      "RESS": 4369,
      "Ti": 4370,
      "abu": 4371,
      "cup": 4372,
      "dry ": 4373,
      "fle": 4374,
      "jea": 4375,
      "jour": 4376,
      "l the ": 4377,
      "mer ": 4378,
      "rou": 4379,
      "ting": 4380,
      "used ": 4381,
      "utter": 4382,
      "yon": 4383,
      "thing, ": 4384,
      "in; ": 4385,
      "in's ": 4386,
      "incl": 4387,
      "ant, ": 4388,
      "orac": 4389,
      "envi": 4390,
      " that, ": 4391,
      "ons ": 4392,
      "onoun": 4393,
      "is your ": 4394,
      "I pray, ": 4395,
      "and not ": 4396,
      "eal ": 4397,
      "widow ": 4398,
      "stin": 4399,
      "note ": 4400,
      "noise ": 4401,
      "forgot ": 4402,
      "sed\r\n": 4403,
      "he were ": 4404,
      "lix": 4405,
      "! O ": 4406,
      "you may ": 4407,
      "rician": 4408,
      "in good ": 4409,
      "me to the ": 4410,
      "she, ": 4411,
      "your lord": 4412,
      "roar": 4413,
      "fatal ": 4414,
      "have the ": 4415,
      "that she ": 4416,
      "spar": 4417,
      "n of ": 4418,
      "sua": 4419,
      "enter ": 4420,
      "When": 4421,
      "but to ": 4422,
      "but my ": 4423,
      "mely ": 4424,
      "The king ": 4425,
      "sion, ": 4426,
      "word\r\n": 4427,
      "deb": 4428,
      "thou li": 4429,
      "ck-": 4430,
      "much\r\n": 4431,
      "him and ": 4432,
      "That thou ": 4433,
      "quit ": 4434,
      "quite ": 4435,
      "vile ": 4436,
      "pain": 4437,
      "what we ": 4438,
      "from thy ": 4439,
      "boy ": 4440,
      "both, ": 4441,
      "fight": 4442,
      "few ": 4443,
      "lead ": 4444,
      "least ": 4445,
      "leaves ": 4446,
      "STRESS": 4447,
      "hope": 4448,
      "gives ": 4449,
      "perform": 4450,
      "perceive ": 4451,
      "us; ": 4452,
      "ts are ": 4453,
      "truth, ": 4454,
      "What is the ": 4455,
      "son: ": 4456,
      "king: ": 4457,
      "king! ": 4458,
      "out the ": 4459,
      "he'll ": 4460,
      "bastar": 4461,
      "duke, ": 4462,
      "let it ": 4463,
      "tion; ": 4464,
      "I have heard ": 4465,
      "langu": 4466,
      "despit": 4467,
      "hand: ": 4468,
      "had been ": 4469,
      "march ": 4470,
      "some other ": 4471,
      "He that ": 4472,
      "open": 4473,
      "practi": 4474,
      "which, ": 4475,
      "Lord, ": 4476,
      "time of ": 4477,
      "join": 4478,
      "don, ": 4479,
      "jud": 4480,
      "It shall be ": 4481,
      "there? ": 4482,
      "MISTRESS": 4483,
      "new-": 4484,
      "assi": 4485,
      "tell you ": 4486,
      "tell him ": 4487,
      "Where is the ": 4488,
      "death? ": 4489,
      "harm": 4490,
      "slain ": 4491,
      "idle ": 4492,
      "house\r\n": 4493,
      "court ": 4494,
      "passing ": 4495,
      "leave to ": 4496,
      "woe ": 4497,
      "GREGOR": 4498,
      "ddle ": 4499,
      "royal": 4500,
      "winter": 4501,
      "thank ": 4502,
      " than the ": 4503,
      "water ": 4504,
      "watch ": 4505,
      "struck ": 4506,
      "quiet ": 4507,
      "upon this ": 4508,
      "daughter\r\n": 4509,
      "doubt, ": 4510,
      "thee? ": 4511,
      "appear ": 4512,
      "lady's ": 4513,
      "voices ": 4514,
      "Upon the ": 4515,
      "Of the ": 4516,
      "devil": 4517,
      "busines": 4518,
      "woman's ": 4519,
      "Lewis ": 4520,
      "promised ": 4521,
      "Without ": 4522,
      "justice, ": 4523,
      "Comini": 4524,
      "Musician": 4525,
      "dispatch": 4526,
      "Angelo, ": 4527,
      "farewell\r\n": 4528,
      "All: ": 4529,
      "Capit": 4530,
      "VERD": 4531,
      "Against the ": 4532,
      "You, ": 4533,
      "Buckingham, ": 4534,
      "Sici": 4535,
      "Vols": 4536,
      "slew ": 4537,
      "cruel ": 4538,
      "usurp": 4539,
      "Aufidius, ": 4540,
      "trouble ": 4541,
      "sudden ": 4542,
      "George ": 4543,
      "cowar": 4544,
      "Christi": 4545,
      "tyrann": 4546,
      "swift ": 4547,
      "Barnar": 4548,
      "school": 4549,
      "honourable ": 4550,
      "Apoll": 4551,
      "murder ": 4552,
      "SAMPSON: ": 4553,
      "encounter ": 4554,
      " OVERD": 4555,
      "MISTRESS OVERD": 4556,
      "'s\r\n": 4557,
      "'d? ": 4558,
      "Ac": 4559,
      "Away, ": 4560,
      "CH": 4561,
      "Car": 4562,
      "El": 4563,
      "Either ": 4564,
      "Gra": 4565,
      "Grea": 4566,
      "Ho": 4567,
      "Hun": 4568,
      "MON": 4569,
      "OX": 4570,
      "RR": 4571,
      "Res": 4572,
      "SOM": 4573,
      "Vi": 4574,
      "avo": 4575,
      "b, ": 4576,
      "bs ": 4577,
      "bly ": 4578,
      "bears ": 4579,
      "blee": 4580,
      "ca ": 4581,
      "dy, ": 4582,
      "dur": 4583,
      "equ": 4584,
      "fought ": 4585,
      "ger": 4586,
      "gli": 4587,
      "ither": 4588,
      "k? ": 4589,
      "kest ": 4590,
      "ner": 4591,
      "ola": 4592,
      "ron": 4593,
      "sof": 4594,
      "sbur": 4595,
      "sits ": 4596,
      "scep": 4597,
      "to, ": 4598,
      "tran": 4599,
      "vow ": 4600,
      "we, ": 4601,
      "wof": 4602,
      "e my ": 4603,
      "inher": 4604,
      "iness ": 4605,
      "into the ": 4606,
      "instan": 4607,
      "another": 4608,
      "end, ": 4609,
      "end\r\n": 4610,
      "ari": 4611,
      "art, ": 4612,
      "one: ": 4613,
      "I a": 4614,
      "I tell": 4615,
      "and I ": 4616,
      "and be ": 4617,
      "and so ": 4618,
      "wicked ": 4619,
      "; Or ": 4620,
      "stit": 4621,
      "my liege, ": 4622,
      "for their ": 4623,
      "a ta": 4624,
      "of such ": 4625,
      "he com": 4626,
      "he has ": 4627,
      "? DUKE VINCENTIO: ": 4628,
      "at thy ": 4629,
      "tic": 4630,
      "tire": 4631,
      "titu": 4632,
      "main": 4633,
      "rag": 4634,
      "rage ": 4635,
      "rasca": 4636,
      "not thy ": 4637,
      "not this ": 4638,
      "es to ": 4639,
      "ladi": 4640,
      "lace ": 4641,
      "last, ": 4642,
      "urs": 4643,
      "sheep": 4644,
      "be so ": 4645,
      "it is": 4646,
      "unt, ": 4647,
      "an a": 4648,
      "an old ": 4649,
      "face\r\n": 4650,
      "fashi": 4651,
      "have no ": 4652,
      "Thurs": 4653,
      "atter": 4654,
      "of them ": 4655,
      "loath": 4656,
      "whether ": 4657,
      "ther: ": 4658,
      "suit ": 4659,
      "but one ": 4660,
      "me; And ": 4661,
      "rust ": 4662,
      "sion\r\n": 4663,
      "sister, ": 4664,
      "six ": 4665,
      "simple ": 4666,
      "worst ": 4667,
      "work ": 4668,
      "depo": 4669,
      "dam ": 4670,
      "by a ": 4671,
      "cept ": 4672,
      "mili": 4673,
      "cking ": 4674,
      "ERSET: ": 4675,
      "ET: I ": 4676,
      "poster": 4677,
      "blow ": 4678,
      "tedi": 4679,
      "pal": 4680,
      "her: ": 4681,
      "doom": 4682,
      "ongst ": 4683,
      "fire": 4684,
      "fiery ": 4685,
      "all his ": 4686,
      "p to ": 4687,
      "allow": 4688,
      "ts of ": 4689,
      "grace, ": 4690,
      "if it ": 4691,
      "were a ": 4692,
      "sons ": 4693,
      "so: ": 4694,
      "soon": 4695,
      "Having ": 4696,
      "due ": 4697,
      "nam": 4698,
      "I have done ": 4699,
      "RICHMON": 4700,
      "desc": 4701,
      "desi": 4702,
      "design": 4703,
      "despair": 4704,
      "I am not ": 4705,
      "stay, ": 4706,
      "acqua": 4707,
      "which is ": 4708,
      "now I ": 4709,
      "place\r\n": 4710,
      "plague ": 4711,
      "my lords, ": 4712,
      "my lord? ": 4713,
      "il'd ": 4714,
      "ending ": 4715,
      "expres": 4716,
      "country ": 4717,
      "whilst ": 4718,
      "GLOUCESTER": 4719,
      "to be a ": 4720,
      "See, ": 4721,
      "upon your ": 4722,
      "So many ": 4723,
      "foll": 4724,
      "prepare ": 4725,
      "preser": 4726,
      "done! ": 4727,
      "It is a ": 4728,
      "Why, then ": 4729,
      "River": 4730,
      "deeds ": 4731,
      "mone": 4732,
      "standing ": 4733,
      "up your ": 4734,
      "troo": 4735,
      "aslee": 4736,
      "For this ": 4737,
      "death! ": 4738,
      "drin": 4739,
      "blood\r\n": 4740,
      "ments, ": 4741,
      "it is a ": 4742,
      "'t please ": 4743,
      "slave, ": 4744,
      "before the ": 4745,
      "sword, ": 4746,
      "tongue, ": 4747,
      "ill-": 4748,
      "courtes": 4749,
      "In the ": 4750,
      "Indeed, ": 4751,
      "grief, ": 4752,
      "spira": 4753,
      "spici": 4754,
      "cause to ": 4755,
      "first, ": 4756,
      "Whilst ": 4757,
      "arms\r\n": 4758,
      "souls ": 4759,
      "friends\r\n": 4760,
      "bear the ": 4761,
      "woo ": 4762,
      "company ": 4763,
      "crown\r\n": 4764,
      "commend ": 4765,
      "They are ": 4766,
      "call him ": 4767,
      "master's ": 4768,
      "dark ": 4769,
      "bride": 4770,
      "times, ": 4771,
      "that I may ": 4772,
      "deliver ": 4773,
      "Offi": 4774,
      "further ": 4775,
      "wherefore ": 4776,
      "aught ": 4777,
      "promi": 4778,
      "husband, ": 4779,
      "villain, ": 4780,
      " those that ": 4781,
      "weeping ": 4782,
      "over-": 4783,
      "soldiers ": 4784,
      "through the ": 4785,
      ",' quoth ": 4786,
      "former ": 4787,
      "told me ": 4788,
      "Signior Gremi": 4789,
      "I pray thee, ": 4790,
      "prophe": 4791,
      "company\r\n": 4792,
      "grand": 4793,
      "mouth": 4794,
      "Bianca ": 4795,
      "Juliet, ": 4796,
      "poison ": 4797,
      "Aufidius ": 4798,
      "wretched ": 4799,
      "presently ": 4800,
      "kneel ": 4801,
      "phy": 4802,
      "before\r\n": 4803,
      "Hortensio, ": 4804,
      "church": 4805,
      "slander": 4806,
      "Heaven ": 4807,
      "desperate ": 4808,
      "wanton ": 4809,
      "twice ": 4810,
      "excell": 4811,
      "disposi": 4812,
      "circu": 4813,
      "RATCLIFF: ": 4814,
      "leisure ": 4815,
      "Thomas ": 4816,
      "Caius ": 4817,
      "Meneni": 4818,
      "GREGORY: ": 4819,
      "Capitol": 4820,
      "MISTRESS OVERDONE: ": 4821,
      "OXF": 4822,
      "SOMERSET: ": 4823,
      "RICHMOND: ": 4824,
      "'d! ": 4825,
      "AE": 4826,
      "Am ": 4827,
      "AMIL": 4828,
      "Co": 4829,
      "LIUS: ": 4830,
      "Myself ": 4831,
      "MAMIL": 4832,
      "Never ": 4833,
      "VAL": 4834,
      "Y: I ": 4835,
      "adieu": 4836,
      "bre": 4837,
      "ball": 4838,
      "bend ": 4839,
      "bid": 4840,
      "d'": 4841,
      "d: I ": 4842,
      "d-- ": 4843,
      "even": 4844,
      "fli": 4845,
      "fro": 4846,
      "jur": 4847,
      "kes, ": 4848,
      "len": 4849,
      "ly; ": 4850,
      "ms, ": 4851,
      "nea": 4852,
      "ror ": 4853,
      "sou": 4854,
      "ses, ": 4855,
      "sant ": 4856,
      "ton": 4857,
      "tti": 4858,
      "tent ": 4859,
      "ts! ": 4860,
      "twel": 4861,
      "vent ": 4862,
      "wol": 4863,
      "y; and ": 4864,
      "thro": 4865,
      "th, and ": 4866,
      "thing\r\n": 4867,
      "eri": 4868,
      "ers: ": 4869,
      "y the ": 4870,
      "ance\r\n": 4871,
      "ench ": 4872,
      "are\r\n": 4873,
      "on this ": 4874,
      "on their ": 4875,
      "hate, ": 4876,
      "to him\r\n": 4877,
      "and her ": 4878,
      "eaf": 4879,
      "easy ": 4880,
      "ing; ": 4881,
      "; That ": 4882,
      "stone ": 4883,
      "stree": 4884,
      "the matter": 4885,
      "the gods ": 4886,
      "hit ": 4887,
      "my noble ": 4888,
      "my poor ": 4889,
      "of us ": 4890,
      "seven ": 4891,
      "he not ": 4892,
      "he should ": 4893,
      "? And ": 4894,
      "lived ": 4895,
      "lips ": 4896,
      "like\r\n": 4897,
      "at his ": 4898,
      "! What ": 4899,
      "ries ": 4900,
      "in mine ": 4901,
      "maid, ": 4902,
      "ed my ": 4903,
      "ed by ": 4904,
      "short ": 4905,
      "shrew": 4906,
      "bed, ": 4907,
      "your own ": 4908,
      "it to ": 4909,
      "it should ": 4910,
      "rotten ": 4911,
      "divi": 4912,
      "differ": 4913,
      "an in": 4914,
      "ce and ": 4915,
      "it! ": 4916,
      "Though": 4917,
      "compas": 4918,
      "atswa": 4919,
      "loa": 4920,
      "whol": 4921,
      "for some ": 4922,
      "shall, ": 4923,
      "spor": 4924,
      "suffi": 4925,
      "Who, ": 4926,
      "will have ": 4927,
      "work, ": 4928,
      "necess": 4929,
      "deman": 4930,
      "thou dost ": 4931,
      "mid": 4932,
      "ck the ": 4933,
      "ck? ": 4934,
      "shall you ": 4935,
      "much, ": 4936,
      "lords ": 4937,
      "AN: ": 4938,
      "mock ": 4939,
      "ERIA: ": 4940,
      "ETER: ": 4941,
      "temper": 4942,
      "no less ": 4943,
      "top": 4944,
      "cial ": 4945,
      "But what ": 4946,
      "eless ": 4947,
      "both\r\n": 4948,
      "us to ": 4949,
      "alter": 4950,
      "along ": 4951,
      "alone, ": 4952,
      "alone\r\n": 4953,
      "already ": 4954,
      "ward, ": 4955,
      "warm ": 4956,
      "heads ": 4957,
      "withal ": 4958,
      "fell ": 4959,
      "part, ": 4960,
      "give": 4961,
      "de the ": 4962,
      "peri": 4963,
      "grace": 4964,
      "if she ": 4965,
      "if it be ": 4966,
      "broken ": 4967,
      "from your ": 4968,
      "from her ": 4969,
      "son? ": 4970,
      "king; ": 4971,
      "kingly ": 4972,
      "hell": 4973,
      "hath a ": 4974,
      "Ha! ": 4975,
      "Happ": 4976,
      "ge; ": 4977,
      "petu": 4978,
      "duke\r\n": 4979,
      "nal ": 4980,
      "hang ": 4981,
      "had not ": 4982,
      "ously ": 4983,
      "He is ": 4984,
      "proof": 4985,
      "pronoun": 4986,
      "il\r\n": 4987,
      "exi": 4988,
      "opini": 4989,
      "such as ": 4990,
      "ABHOR": 4991,
      "give you ": 4992,
      "privi": 4993,
      "prison, ": 4994,
      "I will be ": 4995,
      "breath, ": 4996,
      "any thing ": 4997,
      "upon his ": 4998,
      "Is it ": 4999,
      "abi": 5000,
      "What! ": 5001,
      "thou the ": 5002,
      "fares ": 5003,
      "offer ": 5004,
      "where is ": 5005,
      "peace\r\n": 5006,
      "For, ": 5007,
      "sea, ": 5008,
      "yours, ": 5009,
      "Romeo! ": 5010,
      "tender": 5011,
      "fool ": 5012,
      "there is ": 5013,
      "besee": 5014,
      "ence: ": 5015,
      "men are ": 5016,
      "disda": 5017,
      "ides ": 5018,
      "carry ": 5019,
      "Let us ": 5020,
      "good\r\n": 5021,
      "In this ": 5022,
      "honours ": 5023,
      "ree-": 5024,
      "firm": 5025,
      "burn": 5026,
      "what? ": 5027,
      "away! ": 5028,
      "I, that ": 5029,
      "fortunes ": 5030,
      "Shall I ": 5031,
      "humbly ": 5032,
      "welcome, ": 5033,
      "weap": 5034,
      "law, ": 5035,
      "remember": 5036,
      "get thee ": 5037,
      "There is ": 5038,
      "bright ": 5039,
      "holds ": 5040,
      "Here comes ": 5041,
      "show'd ": 5042,
      "patience ": 5043,
      "tears, ": 5044,
      "damned ": 5045,
      "husband\r\n": 5046,
      "danger": 5047,
      "impor": 5048,
      "himself\r\n": 5049,
      "mercy, ": 5050,
      "kindness ": 5051,
      "Where's ": 5052,
      "morrow, ": 5053,
      "Alack, ": 5054,
      "France, ": 5055,
      "Bolingbroke": 5056,
      "Pray, ": 5057,
      "story ": 5058,
      "betwixt ": 5059,
      "Polix": 5060,
      "speech": 5061,
      "Claudio ": 5062,
      "penit": 5063,
      "sentence ": 5064,
      "Gloucester, ": 5065,
      "OWBRA": 5066,
      "piece of ": 5067,
      "scarce ": 5068,
      "clouds ": 5069,
      "Tut, ": 5070,
      "troubl": 5071,
      "Richmond ": 5072,
      "proclaim": 5073,
      "govern": 5074,
      "Hermi": 5075,
      "AS M": 5076,
      "Oxford, ": 5077,
      "several ": 5078,
      "wisdom ": 5079,
      "remembran": 5080,
      "punish": 5081,
      "determin": 5082,
      "EXETER: ": 5083,
      "whole ": 5084,
      "consider": 5085,
      "suffer ": 5086,
      "Besides, ": 5087,
      "THOMAS M": 5088,
      "imprison": 5089,
      "DERBY: ": 5090,
      "Musician: ": 5091,
      "wofu": 5092,
      "circum": 5093,
      "OXFORD: ": 5094,
      "MAMILLIUS: ": 5095,
      "VALERIA: ": 5096,
      "ABHORSON: ": 5097,
      "Polixen": 5098,
      "THOMAS MOWBRA": 5099,
      ":--": 5100,
      "Ad": 5101,
      "Bion": 5102,
      "Coun": 5103,
      "E: I ": 5104,
      "HY: ": 5105,
      "Hold, ": 5106,
      "Ja": 5107,
      "Lo, ": 5108,
      "Might ": 5109,
      "MOP": 5110,
      "Nap": 5111,
      "Rea": 5112,
      "SA: ": 5113,
      "She is ": 5114,
      "SHY: ": 5115,
      "ax": 5116,
      "bree": 5117,
      "coo": 5118,
      "coul": 5119,
      "cer: ": 5120,
      "cle, ": 5121,
      "catch": 5122,
      "d--": 5123,
      "d'st ": 5124,
      "eful ": 5125,
      "fer": 5126,
      "fon": 5127,
      "gor": 5128,
      "gle": 5129,
      "gru": 5130,
      "k: ": 5131,
      "k; ": 5132,
      "ling": 5133,
      "lend ": 5134,
      "less, ": 5135,
      "none, ": 5136,
      "pil": 5137,
      "ry\r\n": 5138,
      "sour ": 5139,
      "sme": 5140,
      "smoo": 5141,
      "tea": 5142,
      "ts: ": 5143,
      "t; and ": 5144,
      "ty; ": 5145,
      "teach ": 5146,
      "vour": 5147,
      "year ": 5148,
      "throw ": 5149,
      ", That ": 5150,
      "ous\r\n": 5151,
      "intell": 5152,
      "enjo": 5153,
      "ard\r\n": 5154,
      "ary\r\n": 5155,
      "argu": 5156,
      "had, ": 5157,
      "ester": 5158,
      "es' ": 5159,
      "est: ": 5160,
      "you th": 5161,
      "I can": 5162,
      "I hear ": 5163,
      "I might ": 5164,
      "I fear ": 5165,
      "I charge ": 5166,
      "I beseech you, ": 5167,
      "to wa": 5168,
      "to thee ": 5169,
      "to put ": 5170,
      "and as ": 5171,
      "wit ": 5172,
      "wild ": 5173,
      "wither": 5174,
      "stir ": 5175,
      "the world ": 5176,
      "the duke ": 5177,
      "th to ": 5178,
      "ve to ": 5179,
      "my sweet ": 5180,
      "a word ": 5181,
      "of mine ": 5182,
      "of you\r\n": 5183,
      "se-": 5184,
      "seen": 5185,
      "lia": 5186,
      "lion ": 5187,
      "at once ": 5188,
      "reh": 5189,
      "refu": 5190,
      "regi": 5191,
      "earth\r\n": 5192,
      "you and ": 5193,
      "you would ": 5194,
      "you can ": 5195,
      "d, but ": 5196,
      "right\r\n": 5197,
      "in and ": 5198,
      "in Padu": 5199,
      "mad": 5200,
      "mak": 5201,
      "mas": 5202,
      "making ": 5203,
      "And I ": 5204,
      "And make ": 5205,
      "me not, ": 5206,
      "es of the ": 5207,
      "as my ": 5208,
      "labour ": 5209,
      "lex": 5210,
      "lets ": 5211,
      "letter ": 5212,
      "been": 5213,
      "becomes ": 5214,
      "beyond ": 5215,
      "it is the ": 5216,
      "on your ": 5217,
      "fam": 5218,
      "fain ": 5219,
      "fair, ": 5220,
      "have we ": 5221,
      "with him\r\n": 5222,
      "that my ": 5223,
      "ited ": 5224,
      "say\r\n": 5225,
      "'d to ": 5226,
      "ARCH": 5227,
      "of\r\n": 5228,
      "lover": 5229,
      "shame": 5230,
      "there\r\n": 5231,
      "spend ": 5232,
      "real": 5233,
      "suspici": 5234,
      "methinks ": 5235,
      "consent": 5236,
      "cam": 5237,
      "are they ": 5238,
      "rude ": 5239,
      "word: ": 5240,
      "dell": 5241,
      "ded\r\n": 5242,
      "devo": 5243,
      "dagg": 5244,
      "by their ": 5245,
      "ceed ": 5246,
      "old\r\n": 5247,
      "ter\r\n": 5248,
      "mul": 5249,
      "hearted ": 5250,
      "quie": 5251,
      "our\r\n": 5252,
      "painted ": 5253,
      "what news? ": 5254,
      "toa": 5255,
      "here; ": 5256,
      "hereaf": 5257,
      "door": 5258,
      "do? ": 5259,
      "But that ": 5260,
      "fix": 5261,
      "wars ": 5262,
      "all your ": 5263,
      "head": 5264,
      "withal\r\n": 5265,
      "part": 5266,
      "party ": 5267,
      "vell": 5268,
      "ved\r\n": 5269,
      "persua": 5270,
      "perpetu": 5271,
      "if we ": 5272,
      "she was ": 5273,
      "hell ": 5274,
      "he? ": 5275,
      "ck of ": 5276,
      "make thee ": 5277,
      "bas": 5278,
      "dull ": 5279,
      "go: ": 5280,
      "going ": 5281,
      "gold ": 5282,
      "let her ": 5283,
      "hands\r\n": 5284,
      "act ": 5285,
      "action ": 5286,
      "which he ": 5287,
      "my lord: ": 5288,
      "endure ": 5289,
      "how now, ": 5290,
      "ope ": 5291,
      "charged ": 5292,
      "scen": 5293,
      "First Servant: ": 5294,
      "If she ": 5295,
      "May": 5296,
      "Marsha": 5297,
      "HENRY PER": 5298,
      "foe ": 5299,
      "fold ": 5300,
      "advan": 5301,
      "made a ": 5302,
      "Is this ": 5303,
      "men! ": 5304,
      "thou? ": 5305,
      "know'st ": 5306,
      "way to ": 5307,
      "o'clo": 5308,
      "sense ": 5309,
      "senator": 5310,
      "THAS": 5311,
      "cannot be ": 5312,
      "Believe ": 5313,
      "offen": 5314,
      "offence ": 5315,
      "ture, ": 5316,
      "assa": 5317,
      "assur": 5318,
      "God and ": 5319,
      "God for": 5320,
      "Ay, and ": 5321,
      "yours\r\n": 5322,
      "death: ": 5323,
      "drink ": 5324,
      "Second Gentleman: ": 5325,
      "Romeo's ": 5326,
      "beg ": 5327,
      "begin": 5328,
      "Unti": 5329,
      "Under ": 5330,
      "tongue\r\n": 5331,
      "chase ": 5332,
      "chamber": 5333,
      "Let him ": 5334,
      "Let them ": 5335,
      "Richard's ": 5336,
      "to-da": 5337,
      "to-night": 5338,
      "Have you ": 5339,
      "burn ": 5340,
      "woes ": 5341,
      "people\r\n": 5342,
      "double ": 5343,
      "away, ": 5344,
      "dreadful ": 5345,
      "welcom": 5346,
      "Tailor": 5347,
      "piteous ": 5348,
      "hour, ": 5349,
      "long\r\n": 5350,
      "longer ": 5351,
      "sometime ": 5352,
      "voices": 5353,
      "Upon my ": 5354,
      "Upon his ": 5355,
      "devil ": 5356,
      "thoughts, ": 5357,
      "intend ": 5358,
      "when they ": 5359,
      "spirit, ": 5360,
      "Dost thou ": 5361,
      "barr": 5362,
      "I had rather ": 5363,
      "country": 5364,
      "loss ": 5365,
      "Paris ": 5366,
      "Pardon ": 5367,
      "certain": 5368,
      "purpose\r\n": 5369,
      "faults ": 5370,
      "silver ": 5371,
      "creature ": 5372,
      "Bolingbroke, ": 5373,
      "request ": 5374,
      "how the ": 5375,
      "sound": 5376,
      "execution": 5377,
      "cause\r\n": 5378,
      "flowers ": 5379,
      "bosom ": 5380,
      "Tell me, ": 5381,
      "resolu": 5382,
      "shouldst ": 5383,
      "Warwick's ": 5384,
      " there's ": 5385,
      "Tower\r\n": 5386,
      "Lucentio ": 5387,
      "renown": 5388,
      "advise ": 5389,
      "poison": 5390,
      "no more\r\n": 5391,
      "born\r\n": 5392,
      "troth, ": 5393,
      "remain ": 5394,
      "Hereford, ": 5395,
      "BUSHY: ": 5396,
      "Coriolanus ": 5397,
      "summer ": 5398,
      "scorn ": 5399,
      "touch'd ": 5400,
      "BALTHAS": 5401,
      "pair of ": 5402,
      "Northumberland, ": 5403,
      "Prince ": 5404,
      "possible ": 5405,
      " this? ": 5406,
      "behind ": 5407,
      "particu": 5408,
      "continue ": 5409,
      "amaz": 5410,
      "fruit": 5411,
      "Friar ": 5412,
      "knowledge ": 5413,
      "Brother, ": 5414,
      "benefit ": 5415,
      "Leave ": 5416,
      "excuse ": 5417,
      "private ": 5418,
      "occasion ": 5419,
      "Plantagenet, ": 5420,
      "Juliet ": 5421,
      "yonder ": 5422,
      "envious ": 5423,
      "Christian ": 5424,
      "Great ": 5425,
      "durst ": 5426,
      "Officer: ": 5427,
      "wholes": 5428,
      "THOMAS MOWBRAY: ": 5429,
      "Biondell": 5430,
      "MOPSA: ": 5431,
      "HENRY PERC": 5432,
      "BALTHASAR": 5433,
      "!-- ": 5434,
      "'rt ": 5435,
      "; thou ": 5436,
      "Ar": 5437,
      "Cur": 5438,
      "Dor": 5439,
      "Dra": 5440,
      "Fro": 5441,
      "FOL": 5442,
      "Fren": 5443,
      "Hold ": 5444,
      "Is't ": 5445,
      "Sup": 5446,
      "Tar": 5447,
      "Youn": 5448,
      "bru": 5449,
      "cr": 5450,
      "cus": 5451,
      "ction": 5452,
      "cate ": 5453,
      "dying ": 5454,
      "dom, ": 5455,
      "em": 5456,
      "eth ": 5457,
      "eter": 5458,
      "e; And ": 5459,
      "g, ": 5460,
      "k-": 5461,
      "k, and ": 5462,
      "n the ": 5463,
      "none\r\n": 5464,
      "s: I ": 5465,
      "s'd, ": 5466,
      "sings ": 5467,
      "tear ": 5468,
      "ts; ": 5469,
      "um": 5470,
      "vouch": 5471,
      "won ": 5472,
      "wn ": 5473,
      "went ": 5474,
      "ths ": 5475,
      "thrust ": 5476,
      ", a ": 5477,
      "ere\r\n": 5478,
      "inju": 5479,
      "increa": 5480,
      "army ": 5481,
      " though ": 5482,
      " three ": 5483,
      "on; ": 5484,
      "once, ": 5485,
      "on't\r\n": 5486,
      "haz": 5487,
      "have\r\n": 5488,
      "is so ": 5489,
      "is too ": 5490,
      "you, and ": 5491,
      "you think ": 5492,
      "I come ": 5493,
      "I pra": 5494,
      "I heard ": 5495,
      "I know, ": 5496,
      "to that ": 5497,
      "to you, ": 5498,
      "to you\r\n": 5499,
      "to keep ": 5500,
      "and these ": 5501,
      "owe ": 5502,
      "; My ": 5503,
      "sta ": 5504,
      "stol": 5505,
      "st, And ": 5506,
      "stard ": 5507,
      "er and ": 5508,
      "his\r\n": 5509,
      "no\r\n": 5510,
      "my son ": 5511,
      "my brother": 5512,
      "my soul": 5513,
      "my son, ": 5514,
      "my father's ": 5515,
      "forge": 5516,
      "seth ": 5517,
      "he must ": 5518,
      "at our ": 5519,
      "rebe": 5520,
      "repea": 5521,
      "receive ": 5522,
      "revol": 5523,
      "ing and ": 5524,
      "tide ": 5525,
      "tic ": 5526,
      "tiding": 5527,
      "! GLOUCESTER: ": 5528,
      "! Thou ": 5529,
      "rise ": 5530,
      "rious ": 5531,
      "s, to ": 5532,
      "s, the ": 5533,
      "s, that ": 5534,
      "s, Which ": 5535,
      "raise ": 5536,
      "not your ": 5537,
      "not for ": 5538,
      "me to my ": 5539,
      "late, ": 5540,
      "labour": 5541,
      "shing ": 5542,
      "shri": 5543,
      "be my ": 5544,
      "being": 5545,
      "belie": 5546,
      "it in ": 5547,
      "it in the ": 5548,
      "it is, ": 5549,
      "disea": 5550,
      "unless ": 5551,
      "with some ": 5552,
      "with him! ": 5553,
      "Those ": 5554,
      "Three ": 5555,
      "comb": 5556,
      "whor": 5557,
      "taught ": 5558,
      "shadow ": 5559,
      "speech ": 5560,
      "sport ": 5561,
      "sured ": 5562,
      "suspe": 5563,
      "To do ": 5564,
      "words\r\n": 5565,
      "never": 5566,
      "thou didst ": 5567,
      "cke": 5568,
      "up\r\n": 5569,
      "ounds ": 5570,
      "mutin": 5571,
      "we must ": 5572,
      "lord; ": 5573,
      "rest\r\n": 5574,
      "restra": 5575,
      "moon ": 5576,
      "mock'd ": 5577,
      "him in the ": 5578,
      "knif": 5579,
      "vish ": 5580,
      "visit": 5581,
      "blest ": 5582,
      "what they ": 5583,
      " that I ": 5584,
      "civi": 5585,
      "el, ": 5586,
      "else, ": 5587,
      "from th": 5588,
      "bott": 5589,
      "leave\r\n": 5590,
      "My Lord of ": 5591,
      "ve's ": 5592,
      ", and the ": 5593,
      "ders ": 5594,
      "gif": 5595,
      "perfect ": 5596,
      "grace\r\n": 5597,
      "were I ": 5598,
      "out a ": 5599,
      "fright ": 5600,
      "friar ": 5601,
      "canst thou ": 5602,
      "I am too ": 5603,
      "marke": 5604,
      "CAS: ": 5605,
      "honesty ": 5606,
      "accor": 5607,
      "gui": 5608,
      "here I ": 5609,
      "here comes ": 5610,
      "say the ": 5611,
      "cust": 5612,
      "love and ": 5613,
      "First Watchman: ": 5614,
      "whither ": 5615,
      "whiles ": 5616,
      "king and ": 5617,
      "serves ": 5618,
      "Master, ": 5619,
      "when you ": 5620,
      "go to ": 5621,
      "banish ": 5622,
      "add ": 5623,
      "adventure ": 5624,
      "broo": 5625,
      "done: ": 5626,
      "monstr": 5627,
      "Nothing ": 5628,
      "up in ": 5629,
      "By the ": 5630,
      "By this ": 5631,
      "off the ": 5632,
      "fled ": 5633,
      "peace": 5634,
      "For that ": 5635,
      "yours ": 5636,
      "harm ": 5637,
      "fool, ": 5638,
      "speak of ": 5639,
      "curr": 5640,
      "braw": 5641,
      "men of ": 5642,
      "who is ": 5643,
      "who comes ": 5644,
      "power\r\n": 5645,
      "house: ": 5646,
      "arms, ": 5647,
      "repent ": 5648,
      "ness' ": 5649,
      "calls ": 5650,
      "called ": 5651,
      "dread ": 5652,
      "tells ": 5653,
      "tell the ": 5654,
      "tell thee ": 5655,
      "fortune's ": 5656,
      "commit": 5657,
      "ject ": 5658,
      "strai": 5659,
      "; there ": 5660,
      "pray you, ": 5661,
      "virg": 5662,
      "call me ": 5663,
      "daughter's ": 5664,
      "publi": 5665,
      "get you ": 5666,
      "Boatswa": 5667,
      "England ": 5668,
      "appreh": 5669,
      "There is no ": 5670,
      "Do not ": 5671,
      "blame ": 5672,
      "Duke of Norfolk, ": 5673,
      "voice ": 5674,
      "If that ": 5675,
      "once more ": 5676,
      "understand ": 5677,
      "Page: ": 5678,
      "ten times ": 5679,
      "patient ": 5680,
      "heavens! ": 5681,
      "furni": 5682,
      "ROSS: ": 5683,
      "bitter": 5684,
      "fairly ": 5685,
      "about the ": 5686,
      "greet ": 5687,
      "NORFOL": 5688,
      "hope to ": 5689,
      "need": 5690,
      "themselves ": 5691,
      "Luci": 5692,
      "subject": 5693,
      "half": 5694,
      "disper": 5695,
      "kindred ": 5696,
      "loss of ": 5697,
      "prayer": 5698,
      "dinn": 5699,
      "request, ": 5700,
      "back\r\n": 5701,
      "effect ": 5702,
      "traitor, ": 5703,
      "traitors ": 5704,
      "England, ": 5705,
      "I pray you, ": 5706,
      "of this": 5707,
      "life? ": 5708,
      "proper ": 5709,
      "You'll ": 5710,
      "frown": 5711,
      "knee ": 5712,
      "keeps ": 5713,
      "Buckingham ": 5714,
      "mayst ": 5715,
      "drawn ": 5716,
      "Beseech ": 5717,
      "accuse ": 5718,
      "Lancaster ": 5719,
      "glory ": 5720,
      "glorious ": 5721,
      "valour ": 5722,
      "outward ": 5723,
      "manner ": 5724,
      "safety ": 5725,
      " that's ": 5726,
      "blows ": 5727,
      "LORD ROSS: ": 5728,
      "reverend ": 5729,
      "walk ": 5730,
      "dishonour ": 5731,
      "triumph": 5732,
      "received ": 5733,
      "canst not ": 5734,
      "drum": 5735,
      "untimely ": 5736,
      "spake ": 5737,
      "Bohemia ": 5738,
      "behin": 5739,
      "After ": 5740,
      "joyful ": 5741,
      "Bianca, ": 5742,
      "DORCAS: ": 5743,
      "big ": 5744,
      "advers": 5745,
      "judgment ": 5746,
      "seize ": 5747,
      "neighbour": 5748,
      "laugh ": 5749,
      "Volsces ": 5750,
      "constant ": 5751,
      "Two ": 5752,
      "BRAKENBURY: ": 5753,
      "Art thou ": 5754,
      "despite ": 5755,
      "practise ": 5756,
      "spirator": 5757,
      "AEdi": 5758,
      "woful ": 5759,
      "intellig": 5760,
      "Mayor: ": 5761,
      "HENRY PERCY: ": 5762,
      "!--": 5763,
      "? the ": 5764,
      "Ber": 5765,
      "DIN": 5766,
      "Dear ": 5767,
      "Dis": 5768,
      "FER": 5769,
      "GH": 5770,
      "Gho": 5771,
      "Ire": 5772,
      "Pre": 5773,
      "Rat": 5774,
      "Still ": 5775,
      "Tit": 5776,
      "ai": 5777,
      "aid ": 5778,
      "ation\r\n": 5779,
      "aside ": 5780,
      "cou": 5781,
      "clif": 5782,
      "dy\r\n": 5783,
      "dow, ": 5784,
      "ds? ": 5785,
      "dine ": 5786,
      "eve ": 5787,
      "ed; ": 5788,
      "fel": 5789,
      "gn": 5790,
      "ker": 5791,
      "k that ": 5792,
      "l? ": 5793,
      "ly: ": 5794,
      "m! ": 5795,
      "messeng": 5796,
      "nine ": 5797,
      "opp": 5798,
      "ple": 5799,
      "pent ": 5800,
      "ring": 5801,
      "song": 5802,
      "scan": 5803,
      "sence ": 5804,
      "tres": 5805,
      "t; And ": 5806,
      "town ": 5807,
      "ty: ": 5808,
      "ting, ": 5809,
      "ting\r\n": 5810,
      "ty's ": 5811,
      "tly, ": 5812,
      "vous ": 5813,
      "ven, ": 5814,
      "wound ": 5815,
      "yo": 5816,
      "yed ": 5817,
      "y; And ": 5818,
      "yea, ": 5819,
      "zz": 5820,
      "thyself ": 5821,
      "s my ": 5822,
      "s with ": 5823,
      "s of the ": 5824,
      "into a ": 5825,
      "another, ": 5826,
      "ors ": 5827,
      "envy ": 5828,
      "ar, ": 5829,
      "arra": 5830,
      " thie": 5831,
      "on! ": 5832,
      "on that ": 5833,
      "hat": 5834,
      "hair ": 5835,
      "haps ": 5836,
      "haply ": 5837,
      "is as ": 5838,
      "ests ": 5839,
      "I give ": 5840,
      "I prithee, ": 5841,
      "to know ": 5842,
      "to thee, ": 5843,
      "and by ": 5844,
      "witch": 5845,
      "sts, ": 5846,
      "the time ": 5847,
      "hither\r\n": 5848,
      "chea": 5849,
      "ch'd ": 5850,
      "my most ": 5851,
      "my life ": 5852,
      "my master": 5853,
      "my tongue ": 5854,
      "my daughter ": 5855,
      "forth, ": 5856,
      "forswor": 5857,
      "for these ": 5858,
      "of it ": 5859,
      "sembl": 5860,
      "he ha": 5861,
      "? What ": 5862,
      "? JULIET: ": 5863,
      "lish": 5864,
      "limb": 5865,
      "at this ": 5866,
      "reck": 5867,
      "recor": 5868,
      "requi": 5869,
      "rebell": 5870,
      "tial ": 5871,
      "you to the ": 5872,
      "rid ": 5873,
      "ed the ": 5874,
      "s, S": 5875,
      "not to be ": 5876,
      "And that ": 5877,
      "And what ": 5878,
      "And then ": 5879,
      "me no ": 5880,
      "es the ": 5881,
      "his own ": 5882,
      "urg": 5883,
      "be thy ": 5884,
      "be gon": 5885,
      "it will ": 5886,
      "it shall be ": 5887,
      "did, ": 5888,
      "an hour ": 5889,
      "fast, ": 5890,
      "or a ": 5891,
      "their": 5892,
      "itself": 5893,
      "sad": 5894,
      "sake ": 5895,
      "commis": 5896,
      "ate\r\n": 5897,
      "for you ": 5898,
      "tap": 5899,
      "taken ": 5900,
      "taste ": 5901,
      "sper": 5902,
      "spare ": 5903,
      "spent ": 5904,
      "sul": 5905,
      "but this ": 5906,
      "The noble ": 5907,
      "The gods ": 5908,
      "conce": 5909,
      "cause, ": 5910,
      "rupt ": 5911,
      "worth": 5912,
      "de; ": 5913,
      "way\r\n": 5914,
      "dal ": 5915,
      "morous ": 5916,
      "mile ": 5917,
      "so far ": 5918,
      "shall not be ": 5919,
      "resi": 5920,
      "him, And ": 5921,
      "modes": 5922,
      "heart's ": 5923,
      "That you ": 5924,
      "That ever ": 5925,
      "poor": 5926,
      "posi": 5927,
      "kness ": 5928,
      "our, ": 5929,
      "blin": 5930,
      "blind ": 5931,
      "no other ": 5932,
      "paper ": 5933,
      " this be ": 5934,
      "her; ": 5935,
      "her? ": 5936,
      "boy\r\n": 5937,
      "fif": 5938,
      "fier": 5939,
      "fight\r\n": 5940,
      "warlike ": 5941,
      "all to ": 5942,
      "dead? ": 5943,
      "dead! ": 5944,
      "good my lord, ": 5945,
      "heavi": 5946,
      "head; ": 5947,
      "withal": 5948,
      "ful\r\n": 5949,
      "would you ": 5950,
      "p and ": 5951,
      "all things ": 5952,
      "mind\r\n": 5953,
      "parlia": 5954,
      "Wilt ": 5955,
      "ve-": 5956,
      "ve? ": 5957,
      "ve! ": 5958,
      ", and so ": 5959,
      "profan": 5960,
      "hollow ": 5961,
      "peril ": 5962,
      "truth": 5963,
      "graced ": 5964,
      "she will ": 5965,
      "sons, ": 5966,
      "king, And ": 5967,
      "ged, ": 5968,
      "dust ": 5969,
      "name": 5970,
      "name; ": 5971,
      "You must ": 5972,
      "I have a ": 5973,
      "I have no ": 5974,
      "desir": 5975,
      "marr": 5976,
      "honest": 5977,
      "stamp": 5978,
      "stain'd ": 5979,
      "achi": 5980,
      "acci": 5981,
      "access ": 5982,
      "now to ": 5983,
      "play'd ": 5984,
      "place; ": 5985,
      "self-": 5986,
      "He was ": 5987,
      "here in ": 5988,
      "exa": 5989,
      "again: ": 5990,
      "again; ": 5991,
      "most un": 5992,
      "thinks, ": 5993,
      "love I ": 5994,
      "love to ": 5995,
      "charac": 5996,
      "prize ": 5997,
      "chief": 5998,
      "This is a ": 5999,
      "buil": 6000,
      "buried ": 6001,
      "upon a ": 6002,
      "upon our ": 6003,
      "upon him\r\n": 6004,
      "well! ": 6005,
      "made me ": 6006,
      "brings ": 6007,
      "We will ": 6008,
      "absol": 6009,
      "absence ": 6010,
      "merri": 6011,
      "know\r\n": 6012,
      "'st thou, ": 6013,
      "sends ": 6014,
      "GREEN": 6015,
      "up and ": 6016,
      "up my ": 6017,
      "By heaven, ": 6018,
      "off\r\n": 6019,
      "womb ": 6020,
      "fly\r\n": 6021,
      "For the ": 6022,
      "sort ": 6023,
      "sea-": 6024,
      "seal ": 6025,
      "trial ": 6026,
      "yourself": 6027,
      "yourself\r\n": 6028,
      "death's ": 6029,
      "fear\r\n": 6030,
      "Second Servant: ": 6031,
      "hardly ": 6032,
      "Lord Marsha": 6033,
      "tune, ": 6034,
      " they have ": 6035,
      "Unto the ": 6036,
      "slain, ": 6037,
      "before I ": 6038,
      "discontent": 6039,
      "ided ": 6040,
      "cares ": 6041,
      "corn": 6042,
      "chamb": 6043,
      "day of ": 6044,
      "all the world ": 6045,
      "course, ": 6046,
      "good": 6047,
      "child\r\n": 6048,
      "wrought ": 6049,
      "pass'd ": 6050,
      "horse! ": 6051,
      "grievous ": 6052,
      "fire, ": 6053,
      "firm ": 6054,
      "highness ": 6055,
      "substan": 6056,
      "bearing ": 6057,
      "look on ": 6058,
      "people's ": 6059,
      "Save ": 6060,
      "window": 6061,
      "talk'd ": 6062,
      " thank": 6063,
      "No more ": 6064,
      "I say\r\n": 6065,
      "world's ": 6066,
      "humour ": 6067,
      "command ": 6068,
      "answer\r\n": 6069,
      "King Richard ": 6070,
      "doubt": 6071,
      "puts ": 6072,
      "thee! ": 6073,
      "false": 6074,
      "claim ": 6075,
      "sleep, ": 6076,
      "hold, ": 6077,
      "confer": 6078,
      "sometimes ": 6079,
      "treach": 6080,
      "Upon ": 6081,
      "Of this ": 6082,
      "wrong, ": 6083,
      "thoughts ": 6084,
      "business\r\n": 6085,
      "other's ": 6086,
      "speak: ": 6087,
      "that? ": 6088,
      "villain! ": 6089,
      "Conspirator": 6090,
      "service, ": 6091,
      "follows ": 6092,
      "stuff": 6093,
      "soldier": 6094,
      "fellow\r\n": 6095,
      "Was ever ": 6096,
      "through ": 6097,
      "children, ": 6098,
      "Gentlemen, ": 6099,
      "Harry ": 6100,
      "Hark, ": 6101,
      "Angelo\r\n": 6102,
      "those that ": 6103,
      "prayer ": 6104,
      "farewell ": 6105,
      "prisoner ": 6106,
      "Rome\r\n": 6107,
      "effec": 6108,
      "instruct ": 6109,
      "years, ": 6110,
      "discour": 6111,
      "of that": 6112,
      "write ": 6113,
      "stop ": 6114,
      "Claudio, ": 6115,
      "life; ": 6116,
      "I thank": 6117,
      "God's name, ": 6118,
      "Tell me ": 6119,
      "knees ": 6120,
      "better than ": 6121,
      "sign": 6122,
      "resolve ": 6123,
      "resolved ": 6124,
      "Camillo ": 6125,
      "granted ": 6126,
      "piece ": 6127,
      "Lucentio\r\n": 6128,
      "wife's ": 6129,
      "Thanks, ": 6130,
      "body's ": 6131,
      "afterno": 6132,
      "empty ": 6133,
      "hurt ": 6134,
      "borne ": 6135,
      "Pomfre": 6136,
      "drop": 6137,
      "letters ": 6138,
      "favour ": 6139,
      "enough\r\n": 6140,
      "satisfi": 6141,
      "Stay, ": 6142,
      "brief, ": 6143,
      "respected ": 6144,
      "servant ": 6145,
      "sanctu": 6146,
      "direc": 6147,
      "summer": 6148,
      "supper": 6149,
      "miserable ": 6150,
      "Baptista ": 6151,
      "sudden": 6152,
      "patrician": 6153,
      "Master Fro": 6154,
      "subjects ": 6155,
      "ground, ": 6156,
      "TYRR": 6157,
      "Katharina": 6158,
      "smile ": 6159,
      "Love ": 6160,
      "Worthy ": 6161,
      "ignorant ": 6162,
      "freely ": 6163,
      "hateful ": 6164,
      "violent ": 6165,
      "slaughter'd ": 6166,
      "Rosa": 6167,
      "Thou, ": 6168,
      "conquer": 6169,
      "minister": 6170,
      "innocent ": 6171,
      "numb": 6172,
      " thou, ": 6173,
      "Lady: ": 6174,
      "cunning ": 6175,
      "home\r\n": 6176,
      "Corioli ": 6177,
      "willingly ": 6178,
      "Mistress ": 6179,
      "journe": 6180,
      "Sicili": 6181,
      "Hunts": 6182,
      "I tell thee, ": 6183,
      "GLOUCESTER: I ": 6184,
      "privile": 6185,
      "circumstan": 6186,
      "Believe me, ": 6187,
      "DINAND: ": 6188,
      "FERDINAND: ": 6189,
      "Ratclif": 6190,
      "'n ": 6191,
      "-in": 6192,
      "-sh": 6193,
      "; this ": 6194,
      "Am": 6195,
      "Ano": 6196,
      "Ben": 6197,
      "Bri": 6198,
      "Bra": 6199,
      "Brea": 6200,
      "Bring ": 6201,
      "Der": 6202,
      "Flor": 6203,
      "Four": 6204,
      "Gi": 6205,
      "Hear": 6206,
      "Know": 6207,
      "O that ": 6208,
      "O thou ": 6209,
      "Sof": 6210,
      "Sol": 6211,
      "Some": 6212,
      "Show ": 6213,
      "Shor": 6214,
      "She's ": 6215,
      "Tro": 6216,
      "Till": 6217,
      "Very ": 6218,
      "Wo": 6219,
      "Wal": 6220,
      "Yea": 6221,
      "aw": 6222,
      "ast ": 6223,
      "a's ": 6224,
      "air, ": 6225,
      "bow ": 6226,
      "bare ": 6227,
      "bred ": 6228,
      "c, ": 6229,
      "cy, ": 6230,
      "cts ": 6231,
      "cere": 6232,
      "coff": 6233,
      "dit ": 6234,
      "dle ": 6235,
      "dence ": 6236,
      "dwell ": 6237,
      "dwell": 6238,
      "ef ": 6239,
      "een ": 6240,
      "ft, ": 6241,
      "foul": 6242,
      "kin ": 6243,
      "lter": 6244,
      "lent ": 6245,
      "ly? ": 6246,
      "mn ": 6247,
      "nought ": 6248,
      "pl": 6249,
      "pan": 6250,
      "ple ": 6251,
      "pup": 6252,
      "pure ": 6253,
      "ror": 6254,
      "rre": 6255,
      "ser ": 6256,
      "sly ": 6257,
      "scap": 6258,
      "s; the ": 6259,
      "tle ": 6260,
      "twa": 6261,
      "town": 6262,
      "uten": 6263,
      "vin": 6264,
      "ving, ": 6265,
      "w thy ": 6266,
      "yar": 6267,
      "th-": 6268,
      "thence ": 6269,
      "thither ": 6270,
      "s And ": 6271,
      "er! ": 6272,
      "erci": 6273,
      "in, And ": 6274,
      ": '": 6275,
      "ors, ": 6276,
      "arch": 6277,
      "arm, ": 6278,
      " there, ": 6279,
      " thyself ": 6280,
      "ons, ": 6281,
      "on's ": 6282,
      "on, and ": 6283,
      "hab": 6284,
      "havi": 6285,
      "hath the ": 6286,
      "is but ": 6287,
      "es; and ": 6288,
      "escap": 6289,
      "youth": 6290,
      "you this ": 6291,
      "youth, ": 6292,
      "I but ": 6293,
      "I speak ": 6294,
      "I hope ": 6295,
      "I beseech ": 6296,
      "I doubt ": 6297,
      "I hope, ": 6298,
      "to you ": 6299,
      "to him, ": 6300,
      "to bear ": 6301,
      "eag": 6302,
      "ing that ": 6303,
      "wish'd ": 6304,
      "strea": 6305,
      "stings ": 6306,
      "no; ": 6307,
      "my father": 6308,
      "my true ": 6309,
      "forma": 6310,
      "forbear": 6311,
      "a good ": 6312,
      "a poor ": 6313,
      "a gentleman ": 6314,
      "a baw": 6315,
      "of what ": 6316,
      "sell": 6317,
      "sett": 6318,
      "he doth ": 6319,
      "? PETRUCHIO: ": 6320,
      "? Nurse: ": 6321,
      "light\r\n": 6322,
      "lisbur": 6323,
      "re's ": 6324,
      "recon": 6325,
      "remor": 6326,
      "remo": 6327,
      "rega": 6328,
      "regar": 6329,
      "tir": 6330,
      "tire ": 6331,
      "! But ": 6332,
      "in some ": 6333,
      "in love ": 6334,
      "magi": 6335,
      "make, ": 6336,
      "s, I ": 6337,
      "raised ": 6338,
      "not you ": 6339,
      "not have ": 6340,
      "And the ": 6341,
      "me this ": 6342,
      "m of ": 6343,
      "as this ": 6344,
      "as she ": 6345,
      "as many ": 6346,
      "his son ": 6347,
      "ladies ": 6348,
      "shut ": 6349,
      "shun": 6350,
      "be? ": 6351,
      "been, ": 6352,
      "betra": 6353,
      "beheld ": 6354,
      "your father ": 6355,
      "your majesty ": 6356,
      "it with ": 6357,
      "rob": 6358,
      "room": 6359,
      "rogu": 6360,
      "die? ": 6361,
      "distres": 6362,
      "ere I ": 6363,
      "unto my ": 6364,
      "fast": 6365,
      "have a ": 6366,
      "or to ": 6367,
      "with me\r\n": 6368,
      "with him? ": 6369,
      "that thy ": 6370,
      "that was ": 6371,
      "that hath ": 6372,
      "ity: ": 6373,
      "They": 6374,
      "l and ": 6375,
      "saw": 6376,
      "sake": 6377,
      "saint, ": 6378,
      "compla": 6379,
      "our general ": 6380,
      "atch ": 6381,
      "ately ": 6382,
      "of thine ": 6383,
      "for I ": 6384,
      "for me ": 6385,
      "for an ": 6386,
      "shadow": 6387,
      "ther? ": 6388,
      "spit": 6389,
      "ly and ": 6390,
      "sull": 6391,
      "Who's ": 6392,
      "but by ": 6393,
      "melan": 6394,
      "The very ": 6395,
      "confi": 6396,
      "concea": 6397,
      "came to ": 6398,
      "To save ": 6399,
      "worn ": 6400,
      "words: ": 6401,
      "worthi": 6402,
      "nex": 6403,
      "neck": 6404,
      "neck ": 6405,
      "dep": 6406,
      "dela": 6407,
      "dece": 6408,
      "degre": 6409,
      "thou wert ": 6410,
      "day's ": 6411,
      "daily ": 6412,
      "by that ": 6413,
      "by thy ": 6414,
      "mira": 6415,
      "mistru": 6416,
      "term": 6417,
      "so un": 6418,
      "so long ": 6419,
      "ckle ": 6420,
      "up thy ": 6421,
      "upon, ": 6422,
      "muster ": 6423,
      "we do ": 6424,
      "ression ": 6425,
      "mock": 6426,
      "motion ": 6427,
      "him a ": 6428,
      "him to the ": 6429,
      "hear the ": 6430,
      "do it ": 6431,
      "do him ": 6432,
      "pointed ": 6433,
      "quench": 6434,
      "vice ": 6435,
      "ourselves ": 6436,
      "teth ": 6437,
      "ted: ": 6438,
      "one thing ": 6439,
      "herself ": 6440,
      "here: ": 6441,
      "here! ": 6442,
      "bodies ": 6443,
      "fight, ": 6444,
      "war\r\n": 6445,
      "ward\r\n": 6446,
      "all of ": 6447,
      "all un": 6448,
      "dead; ": 6449,
      "good to ": 6450,
      "good night": 6451,
      "sire ": 6452,
      "within ": 6453,
      "leads ": 6454,
      "ARDIN": 6455,
      "would I ": 6456,
      "alli": 6457,
      "all these ": 6458,
      "partly ": 6459,
      "tted ": 6460,
      "ttle ": 6461,
      "vex": 6462,
      "ve: ": 6463,
      "given": 6464,
      "giving ": 6465,
      "perish": 6466,
      "perfec": 6467,
      "us' ": 6468,
      "truly ": 6469,
      "true: ": 6470,
      "grave, ": 6471,
      "grave\r\n": 6472,
      "son! ": 6473,
      "king, and ": 6474,
      "out of the ": 6475,
      "hell\r\n": 6476,
      "make you ": 6477,
      "make him ": 6478,
      "Hastings ": 6479,
      "duty, ": 6480,
      "gos": 6481,
      "gods, ": 6482,
      "native ": 6483,
      "tion! ": 6484,
      "You may ": 6485,
      "I have not ": 6486,
      "they shall ": 6487,
      "they were ": 6488,
      " thou shalt ": 6489,
      "stabb": 6490,
      "accept ": 6491,
      "God! ": 6492,
      "eyes\r\n": 6493,
      "which you ": 6494,
      "now in ": 6495,
      "O, the ": 6496,
      "He has ": 6497,
      "ily, ": 6498,
      "how I ": 6499,
      "how it ": 6500,
      "exerci": 6501,
      "gently ": 6502,
      "tion of a ": 6503,
      "take him ": 6504,
      "take her ": 6505,
      "thine\r\n": 6506,
      "give us ": 6507,
      "give thee ": 6508,
      "t: But ": 6509,
      "count ": 6510,
      "counci": 6511,
      "scra": 6512,
      "score ": 6513,
      "First Musician: ": 6514,
      "priest ": 6515,
      "pride ": 6516,
      "praise ": 6517,
      "If not, ": 6518,
      "If it be ": 6519,
      "chide ": 6520,
      "served ": 6521,
      "Makes ": 6522,
      "know you ": 6523,
      "s of my ": 6524,
      "s of your ": 6525,
      "can you ": 6526,
      "greatest ": 6527,
      "'tis no ": 6528,
      "mine honour, ": 6529,
      "advantage ": 6530,
      "made the ": 6531,
      "joi": 6532,
      "joy, ": 6533,
      "pretti": 6534,
      "Is the ": 6535,
      "appeti": 6536,
      "We must ": 6537,
      "abhor": 6538,
      "Of my ": 6539,
      "men; ": 6540,
      "luck": 6541,
      "lusty ": 6542,
      "Why, how now, ": 6543,
      "therein ": 6544,
      "plead ": 6545,
      "pleasing ": 6546,
      "myster": 6547,
      "monu": 6548,
      "No; ": 6549,
      "stand, ": 6550,
      "trun": 6551,
      "newly ": 6552,
      "news\r\n": 6553,
      "anger ": 6554,
      "assure ": 6555,
      "flouri": 6556,
      "Well": 6557,
      "seat ": 6558,
      "ship, ": 6559,
      "death; ": 6560,
      "fear, ": 6561,
      "Romeo? ": 6562,
      "tent, ": 6563,
      "too: ": 6564,
      "gentleman": 6565,
      "Lord Hastings, ": 6566,
      "Lord Mayor: ": 6567,
      "ence' ": 6568,
      "before his ": 6569,
      "corre": 6570,
      "day is ": 6571,
      "all the rest ": 6572,
      "ISABELLA: O, ": 6573,
      "goodness ": 6574,
      "In that ": 6575,
      "wrink": 6576,
      "passage ": 6577,
      "honour'd ": 6578,
      "vain ": 6579,
      "substit": 6580,
      "blood of ": 6581,
      "ts, And ": 6582,
      "Have I ": 6583,
      "contro": 6584,
      "Caes": 6585,
      "bury ": 6586,
      "woe, ": 6587,
      "he is a ": 6588,
      "complex": 6589,
      "Salisbur": 6590,
      "away; ": 6591,
      "put to ": 6592,
      "love! ": 6593,
      "lovely ": 6594,
      "crown? ": 6595,
      "Only ": 6596,
      "water": 6597,
      "humour": 6598,
      "cloth": 6599,
      "Well, well, ": 6600,
      "Why should ": 6601,
      "banished": 6602,
      "appea": 6603,
      "There is a ": 6604,
      "bride ": 6605,
      "then the ": 6606,
      "tread ": 6607,
      "lady! ": 6608,
      "queen: ": 6609,
      "turns ": 6610,
      "Duke of York\r\n": 6611,
      "I think": 6612,
      "I must be ": 6613,
      "since, ": 6614,
      "came from ": 6615,
      "DUCHESS OF YORK: I ": 6616,
      "Of that ": 6617,
      "Reme": 6618,
      "wherein ": 6619,
      "Tyrre": 6620,
      "bite ": 6621,
      "revenged ": 6622,
      "special ": 6623,
      "business, ": 6624,
      "Show": 6625,
      "Gentle ": 6626,
      "other\r\n": 6627,
      "haste, ": 6628,
      "speak? ": 6629,
      "deserve ": 6630,
      "deserves ": 6631,
      "augh": 6632,
      "green ": 6633,
      "chequ": 6634,
      "will not be ": 6635,
      "husband's ": 6636,
      "feeling ": 6637,
      "needful ": 6638,
      "wander": 6639,
      "please you, ": 6640,
      "faith ": 6641,
      "seeming ": 6642,
      "services ": 6643,
      "Commend ": 6644,
      "a thing ": 6645,
      "groom ": 6646,
      "gross ": 6647,
      "general": 6648,
      "displea": 6649,
      "grows ": 6650,
      "Tybalt's ": 6651,
      "Paris": 6652,
      "nurse ": 6653,
      "Hark ": 6654,
      "able to ": 6655,
      "command, ": 6656,
      "commanded ": 6657,
      "Lay ": 6658,
      "colours ": 6659,
      "Signior Baptista": 6660,
      "Post: ": 6661,
      "state and ": 6662,
      "gates ": 6663,
      "o'er-": 6664,
      "birth, ": 6665,
      "large ": 6666,
      "matter, ": 6667,
      "caught ": 6668,
      "proph": 6669,
      "let him be ": 6670,
      "marria": 6671,
      "marriage, ": 6672,
      "God's sake, ": 6673,
      "!' '": 6674,
      "frown ": 6675,
      "better, ": 6676,
      "signi": 6677,
      "ship\r\n": 6678,
      "ever, ": 6679,
      "shoulder": 6680,
      "finds ": 6681,
      "musician": 6682,
      "duke's ": 6683,
      "Norfolk ": 6684,
      "Tower, ": 6685,
      "accusa": 6686,
      "enemies, ": 6687,
      "enemies\r\n": 6688,
      "clouds, ": 6689,
      "root ": 6690,
      "cheeks ": 6691,
      "Gaunt ": 6692,
      "cry '": 6693,
      "drop ": 6694,
      " through ": 6695,
      "knows not ": 6696,
      "satisfie": 6697,
      "Stay ": 6698,
      "brief": 6699,
      "brief ": 6700,
      "changed ": 6701,
      "maids ": 6702,
      "agree": 6703,
      "evil ": 6704,
      "hood, ": 6705,
      "weeds ": 6706,
      "proclaim ": 6707,
      "divin": 6708,
      "divine ": 6709,
      "majesty, ": 6710,
      "majesty\r\n": 6711,
      "occup": 6712,
      "safe ": 6713,
      "'em\r\n": 6714,
      "until ": 6715,
      "alas! ": 6716,
      "plant ": 6717,
      "slander ": 6718,
      "dign": 6719,
      "loyal ": 6720,
      "embrace ": 6721,
      "prosper": 6722,
      "toward the ": 6723,
      "Gloucester's ": 6724,
      "DORSET: ": 6725,
      "knowled": 6726,
      "Catesby, ": 6727,
      "Prithee, ": 6728,
      "abroa": 6729,
      "thyself": 6730,
      "estima": 6731,
      "I fear, ": 6732,
      "profes": 6733,
      "enemy, ": 6734,
      "Aumerle, ": 6735,
      "Isabel, ": 6736,
      "sickness ": 6737,
      "hear me speak\r\n": 6738,
      "Paulin": 6739,
      "faithful ": 6740,
      "Rutlan": 6741,
      "e, fie! ": 6742,
      "as well as ": 6743,
      "Away! ": 6744,
      "courage ": 6745,
      "lamenta": 6746,
      "Once more, ": 6747,
      "Pisa": 6748,
      "Barnardin": 6749,
      "Vien": 6750,
      "twelve ": 6751,
      "pilgri": 6752,
      "wither'd ": 6753,
      "assurance ": 6754,
      "Tailor: ": 6755,
      "Pardon me, ": 6756,
      "wholesome ": 6757,
      "French ": 6758,
      "civil ": 6759,
      "market-": 6760,
      "who comes here? ": 6761,
      "Boatswain: ": 6762,
      "NORFOLK: ": 6763,
      "Ghost of ": 6764,
      "Wilt thou ": 6765,
      "GREEN: ": 6766,
      "TYRREL: ": 6767,
      "Rosalin": 6768,
      "Soldi": 6769,
      "ceremon": 6770,
      "reconci": 6771,
      "'d": 6772,
      "As": 6773,
      "App": 6774,
      "A thousand ": 6775,
      "Bear ": 6776,
      "CLE": 6777,
      "Dar": 6778,
      "Did": 6779,
      "Each ": 6780,
      "Fu": 6781,
      "Get ": 6782,
      "IL": 6783,
      "I; ": 6784,
      "I the ": 6785,
      "I then ": 6786,
      "Jes": 6787,
      "Long ": 6788,
      "Larti": 6789,
      "Min": 6790,
      "Many ": 6791,
      "Now": 6792,
      "OMEN": 6793,
      "Stri": 6794,
      "Tri": 6795,
      "UGH": 6796,
      "Vill": 6797,
      "WIL": 6798,
      "Ye ": 6799,
      "ash": 6800,
      "asi": 6801,
      "cent": 6802,
      "city, ": 6803,
      "croo": 6804,
      "ding, ": 6805,
      "dlar": 6806,
      "eld ": 6807,
      "eter, ": 6808,
      "flo": 6809,
      "flies ": 6810,
      "glo": 6811,
      "hy": 6812,
      "ian ": 6813,
      "ill, ": 6814,
      "ja": 6815,
      "kit": 6816,
      "key": 6817,
      "ks of ": 6818,
      "k'st ": 6819,
      "keeper": 6820,
      "lur": 6821,
      "mes": 6822,
      "pee": 6823,
      "pound ": 6824,
      "pill": 6825,
      "round ": 6826,
      "sy": 6827,
      "som": 6828,
      "swell": 6829,
      "sing, ": 6830,
      "slu": 6831,
      "ses\r\n": 6832,
      "sing\r\n": 6833,
      "smil": 6834,
      "slow ": 6835,
      "test, ": 6836,
      "ught": 6837,
      "wed ": 6838,
      "yea": 6839,
      "yes, ": 6840,
      "y: I ": 6841,
      "this\r\n": 6842,
      "d and ": 6843,
      "out-": 6844,
      "ers of ": 6845,
      "ine": 6846,
      "incen": 6847,
      "inform": 6848,
      "ano": 6849,
      ": if ": 6850,
      "or the ": 6851,
      "order, ": 6852,
      "env": 6853,
      "arch ": 6854,
      "art\r\n": 6855,
      " thy": 6856,
      " thing ": 6857,
      " thri": 6858,
      " this\r\n": 6859,
      "hap": 6860,
      "hath": 6861,
      "hair": 6862,
      "is to ": 6863,
      "is that ": 6864,
      "is there ": 6865,
      "I pro": 6866,
      "I mean ": 6867,
      "I wish ": 6868,
      "to come ": 6869,
      "to save ": 6870,
      "to thee\r\n": 6871,
      "and what ": 6872,
      "easi": 6873,
      "ing th": 6874,
      "the bo": 6875,
      "the more ": 6876,
      "the Duke of ": 6877,
      "the first ": 6878,
      "the people ": 6879,
      "hie ": 6880,
      "nose ": 6881,
      "nobly ": 6882,
      "nothing\r\n": 6883,
      "my lie": 6884,
      "my old ": 6885,
      "my father, ": 6886,
      "my head ": 6887,
      "my soul ": 6888,
      "my mother, ": 6889,
      "for thee ": 6890,
      "forth\r\n": 6891,
      "a great ": 6892,
      "a bra": 6893,
      "of him ": 6894,
      "of him\r\n": 6895,
      "of death ": 6896,
      "of all\r\n": 6897,
      "sees ": 6898,
      "sequ": 6899,
      "seest ": 6900,
      "secu": 6901,
      "sepul": 6902,
      "? O, ": 6903,
      "? ROMEO: ": 6904,
      "red, ": 6905,
      "repair ": 6906,
      "ing his ": 6907,
      "Ann": 6908,
      "ear, ": 6909,
      "earnes": 6910,
      "tis, ": 6911,
      "time": 6912,
      "time; ": 6913,
      "! and ": 6914,
      "you as ": 6915,
      "you all ": 6916,
      "you to your ": 6917,
      "d, That ": 6918,
      "rise, ": 6919,
      "in me ": 6920,
      "in with ": 6921,
      "in what ": 6922,
      "in any ": 6923,
      "in heaven ": 6924,
      "not that ": 6925,
      "t, but ": 6926,
      "t, To ": 6927,
      "me from the ": 6928,
      "es me ": 6929,
      "es that ": 6930,
      "as your ": 6931,
      "as much ": 6932,
      "as these ": 6933,
      "lam": 6934,
      "lasting ": 6935,
      "late\r\n": 6936,
      "le: I ": 6937,
      "urge ": 6938,
      "shy, ": 6939,
      "shrou": 6940,
      "bethink ": 6941,
      "it would ": 6942,
      "it hath ": 6943,
      "it may ": 6944,
      "it so\r\n": 6945,
      "dish ": 6946,
      "didst thou ": 6947,
      "on our ": 6948,
      "uncl": 6949,
      "unto your ": 6950,
      "an e": 6951,
      "k of ": 6952,
      "fall, ": 6953,
      "face? ": 6954,
      "or of ": 6955,
      "or tw": 6956,
      "with you ": 6957,
      "with you, ": 6958,
      "with him, ": 6959,
      "that you have ": 6960,
      "that makes ": 6961,
      "that he hath ": 6962,
      "thecar": 6963,
      "sain": 6964,
      "complain": 6965,
      "our brother ": 6966,
      "'d in the ": 6967,
      "of them": 6968,
      "lodg": 6969,
      "whee": 6970,
      "takes ": 6971,
      "shall\r\n": 6972,
      "sple": 6973,
      "spit ": 6974,
      "super": 6975,
      "ents ": 6976,
      "mel": 6977,
      "met, ": 6978,
      "memor": 6979,
      "me; and ": 6980,
      "methinks, ": 6981,
      "The queen ": 6982,
      "conj": 6983,
      "concer": 6984,
      "capa": 6985,
      "are we ": 6986,
      "are thy ": 6987,
      "ruth": 6988,
      "rule ": 6989,
      "sible ": 6990,
      "sight, ": 6991,
      "To this ": 6992,
      "To hear ": 6993,
      "To whom ": 6994,
      "worship ": 6995,
      "negle": 6996,
      "dew": 6997,
      "de? ": 6998,
      "decl": 6999,
      "depart ": 7000,
      "wept ": 7001,
      "wash": 7002,
      "wail": 7003,
      "wash ": 7004,
      "wash'd ": 7005,
      "dain": 7006,
      "dam\r\n": 7007,
      "by Saint ": 7008,
      "cement ": 7009,
      "manif": 7010,
      "terri": 7011,
      "so I ": 7012,
      "lord! ": 7013,
      "moon, ": 7014,
      "him from ": 7015,
      "hearti": 7016,
      "That I ": 7017,
      "polic": 7018,
      "thy father ": 7019,
      "ours\r\n": 7020,
      "no fur": 7021,
      "no more, ": 7022,
      "path": 7023,
      "pala": 7024,
      "gaol": 7025,
      "est thou, ": 7026,
      "to\r\n": 7027,
      "to't\r\n": 7028,
      "her! ": 7029,
      "doing ": 7030,
      "dog ": 7031,
      "else? ": 7032,
      "boy! ": 7033,
      "fig": 7034,
      "although ": 7035,
      "warm": 7036,
      "warri": 7037,
      "all in ": 7038,
      "all our ": 7039,
      "deal ": 7040,
      "good sir, ": 7041,
      "with their ": 7042,
      "within, ": 7043,
      "within this ": 7044,
      "all: ": 7045,
      "all; ": 7046,
      "all thy ": 7047,
      "mine": 7048,
      "mind, ": 7049,
      "ous and ": 7050,
      "parts ": 7051,
      "parted ": 7052,
      "My heart ": 7053,
      "My lord ": 7054,
      "Within": 7055,
      "Widow": 7056,
      "ved: ": 7057,
      "rang": 7058,
      "profit ": 7059,
      "ders, ": 7060,
      "to the Capitol": 7061,
      "ise, ": 7062,
      "perfor": 7063,
      "perform ": 7064,
      "me, And ": 7065,
      "What says ": 7066,
      "As well ": 7067,
      "she shall ": 7068,
      "she did ": 7069,
      "d; But ": 7070,
      "were not ": 7071,
      "from our ": 7072,
      "For what ": 7073,
      "For I have ": 7074,
      "son's ": 7075,
      "kings ": 7076,
      "kingdom": 7077,
      "soci": 7078,
      "like you, ": 7079,
      "hath he ": 7080,
      "bab": 7081,
      "bade ": 7082,
      "back, ": 7083,
      "you, good ": 7084,
      "tions, ": 7085,
      "should not ": 7086,
      "mb ": 7087,
      "I have been ": 7088,
      "can, ": 7089,
      "; And then ": 7090,
      "lands ": 7091,
      "dest": 7092,
      "hand; ": 7093,
      "had he ": 7094,
      "guess ": 7095,
      "thee to ": 7096,
      "which I ": 7097,
      "ousan": 7098,
      "play": 7099,
      "selfsame ": 7100,
      "my lord! ": 7101,
      "looking ": 7102,
      "ender ": 7103,
      "oppos": 7104,
      "still, ": 7105,
      "still\r\n": 7106,
      "take your ": 7107,
      "man of ": 7108,
      "yet un": 7109,
      "charit": 7110,
      "LOUGH": 7111,
      "prai": 7112,
      "If any ": 7113,
      "If ever ": 7114,
      "know your ": 7115,
      "but": 7116,
      "LIS": 7117,
      "Marian": 7118,
      "ds, And ": 7119,
      "GLOUCESTER: KING EDWARD IV: ": 7120,
      "when it ": 7121,
      "breast ": 7122,
      "breast, ": 7123,
      "How long ": 7124,
      "How far ": 7125,
      "How fares ": 7126,
      "aff": 7127,
      "upon her ": 7128,
      "Thou shalt ": 7129,
      "seeing ": 7130,
      "prevent": 7131,
      "press'd ": 7132,
      "abou": 7133,
      "merci": 7134,
      "judge ": 7135,
      "Why, then, ": 7136,
      "deep": 7137,
      "deed\r\n": 7138,
      "deeds, ": 7139,
      "ked, ": 7140,
      "'Twere ": 7141,
      "pleased ": 7142,
      "pleasant ": 7143,
      "Bet": 7144,
      "Noble ": 7145,
      "stands, ": 7146,
      "up of ": 7147,
      "up his ": 7148,
      "By my ": 7149,
      "offend ": 7150,
      "where I ": 7151,
      "assured ": 7152,
      "peace! ": 7153,
      "doth he ": 7154,
      "if this ": 7155,
      "sore ": 7156,
      "tell you, ": 7157,
      "Ay, but ": 7158,
      "PETRUCHIO: Why, ": 7159,
      "yourselves ": 7160,
      "yourself, ": 7161,
      "drous ": 7162,
      "Second Senator: ": 7163,
      "Second Keeper: ": 7164,
      "too? ": 7165,
      "fair and ": 7166,
      "best\r\n": 7167,
      "ments of ": 7168,
      "curst ": 7169,
      "us, and ": 7170,
      "it is not ": 7171,
      "When you ": 7172,
      "begg": 7173,
      "Uncle, ": 7174,
      "slay ": 7175,
      "disma": 7176,
      "dissol": 7177,
      "dismis": 7178,
      "meant ": 7179,
      "ADRI": 7180,
      "carried ": 7181,
      "tches ": 7182,
      "coron": 7183,
      "chall": 7184,
      "chast": 7185,
      "purse ": 7186,
      "purchase ": 7187,
      "JULIET: I ": 7188,
      "I would have ": 7189,
      "you have been ": 7190,
      "horse\r\n": 7191,
      "What, ho! ": 7192,
      "Nay, but ": 7193,
      "honour's ": 7194,
      "JULIET: O ": 7195,
      "No, my good ": 7196,
      "vaul": 7197,
      "set the ": 7198,
      "to-night ": 7199,
      "to-night\r\n": 7200,
      "soul\r\n": 7201,
      "friendly ": 7202,
      "friends: ": 7203,
      "repu": 7204,
      "burthen ": 7205,
      "wot ": 7206,
      "call thee ": 7207,
      "compli": 7208,
      "winter ": 7209,
      "love; ": 7210,
      "sun, ": 7211,
      "sun\r\n": 7212,
      "Shall we ": 7213,
      "human ": 7214,
      "straight": 7215,
      "me to thy ": 7216,
      "spoken ": 7217,
      "quick ": 7218,
      "King Henry's ": 7219,
      "masters, ": 7220,
      "comfort, ": 7221,
      "craves ": 7222,
      "get a ": 7223,
      "pity, ": 7224,
      "dares ": 7225,
      "poss": 7226,
      "trembling ": 7227,
      "attend": 7228,
      "treasure ": 7229,
      "lady": 7230,
      "wont to ": 7231,
      "wondrous ": 7232,
      "If the ": 7233,
      "patience, ": 7234,
      "patient, ": 7235,
      "patience\r\n": 7236,
      "heavenly ": 7237,
      "fury ": 7238,
      "Provost": 7239,
      "lay the ": 7240,
      "flatter ": 7241,
      "thing that ": 7242,
      "fairest ": 7243,
      "office, ": 7244,
      "devise ": 7245,
      "Come hither, ": 7246,
      "haste\r\n": 7247,
      "head and ": 7248,
      "tears\r\n": 7249,
      "yet\r\n": 7250,
      "cheer ": 7251,
      "hope of ": 7252,
      "none but ": 7253,
      "wants ": 7254,
      "weep\r\n": 7255,
      "service\r\n": 7256,
      "danger ": 7257,
      "follow'd ": 7258,
      "followers ": 7259,
      "power to ": 7260,
      "soldier, ": 7261,
      "soldiers, ": 7262,
      "said '": 7263,
      "through": 7264,
      "country, ": 7265,
      "purpose, ": 7266,
      "Henry the ": 7267,
      "creatu": 7268,
      "command\r\n": 7269,
      "Laur": 7270,
      "prison\r\n": 7271,
      "Roman ": 7272,
      "Montague ": 7273,
      "Disp": 7274,
      "ble: ": 7275,
      "blemi": 7276,
      "gging ": 7277,
      "shortly ": 7278,
      "propor": 7279,
      "FLORIZEL": 7280,
      "cries ": 7281,
      "testi": 7282,
      "hangs ": 7283,
      "sign of ": 7284,
      "company, ": 7285,
      "sleep\r\n": 7286,
      "ever\r\n": 7287,
      "Buckingham": 7288,
      "mouth, ": 7289,
      "would, ": 7290,
      "body, ": 7291,
      "Give me thy ": 7292,
      "e'er I ": 7293,
      "Marry, sir, ": 7294,
      "breathed ": 7295,
      "born to ": 7296,
      "Perdi": 7297,
      "single ": 7298,
      "Petruchio ": 7299,
      "Tull": 7300,
      "enough, ": 7301,
      "steal ": 7302,
      "liberty ": 7303,
      "days, ": 7304,
      "knave ": 7305,
      "deliver'd ": 7306,
      "fresh": 7307,
      "To make a ": 7308,
      "respect ": 7309,
      "Margaret ": 7310,
      "LORD WIL": 7311,
      "small": 7312,
      "direct ": 7313,
      "supposed ": 7314,
      "proclama": 7315,
      "till the ": 7316,
      "govern'd ": 7317,
      "drunk": 7318,
      "to-morrow\r\n": 7319,
      "Exeter, ": 7320,
      "image ": 7321,
      "chance to ": 7322,
      "counterfeit ": 7323,
      "flesh": 7324,
      "triumphan": 7325,
      "cease ": 7326,
      "here's a ": 7327,
      "True, ": 7328,
      "malice ": 7329,
      "point\r\n": 7330,
      "shepherd's ": 7331,
      "Northumberlan": 7332,
      "commonweal": 7333,
      "apparel ": 7334,
      "Willi": 7335,
      "continu": 7336,
      "Pompey, ": 7337,
      "condemn'd ": 7338,
      "embrace": 7339,
      "mistake ": 7340,
      "minister ": 7341,
      "To-morrow ": 7342,
      "Turn ": 7343,
      "awhile, ": 7344,
      "maiden": 7345,
      "your highness ": 7346,
      "question ": 7347,
      "prepared ": 7348,
      "John ": 7349,
      "Death ": 7350,
      "tomb": 7351,
      "arrived ": 7352,
      "worse than ": 7353,
      "deputy ": 7354,
      "view": 7355,
      "account ": 7356,
      "Paulina": 7357,
      "Lancaster\r\n": 7358,
      "selves; ": 7359,
      "powerful ": 7360,
      "Lady Bon": 7361,
      "Fie, ": 7362,
      "wedding-": 7363,
      "countenance ": 7364,
      "afford ": 7365,
      "Help, ": 7366,
      "Somerset, ": 7367,
      "conduct ": 7368,
      "protector": 7369,
      "household ": 7370,
      "Katharina ": 7371,
      "Katharina, ": 7372,
      "your lordship ": 7373,
      "Volsce: ": 7374,
      "equal ": 7375,
      "sceptr": 7376,
      "Thursday ": 7377,
      "tedious ": 7378,
      "express ": 7379,
      "Rivers, ": 7380,
      "money ": 7381,
      "excellent ": 7382,
      "remembrance ": 7383,
      "County ": 7384,
      "famous ": 7385,
      "scene ": 7386,
      "barren ": 7387,
      "resolution ": 7388,
      "renowned ": 7389,
      "BALTHASAR: ": 7390,
      "Young ": 7391,
      "according ": 7392,
      "monstrous ": 7393,
      "committed ": 7394,
      "felt ": 7395,
      "Lord Marshal: ": 7396,
      "-in-": 7397,
      "CLEOMEN": 7398,
      "Villa": 7399,
      "sepulch": 7400,
      "LOUGHBY: ": 7401,
      "LORD WILLOUGHBY: ": 7402,
      "CLEOMENES: ": 7403,
      " S": 7404,
      "! thou ": 7405,
      "'ll": 7406,
      "'fore ": 7407,
      "'pardon": 7408,
      ":-- ": 7409,
      "?--": 7410,
      "BAR": 7411,
      "Cry ": 7412,
      "Coura": 7413,
      "Fal": 7414,
      "FRO": 7415,
      "Gu": 7416,
      "Gree": 7417,
      "He, ": 7418,
      "Hang": 7419,
      "Im": 7420,
      "I that ": 7421,
      "Me ": 7422,
      "NARDIN": 7423,
      "Old ": 7424,
      "RUT": 7425,
      "So": 7426,
      "Sur": 7427,
      "SO: ": 7428,
      "See": 7429,
      "Sun": 7430,
      "Send ": 7431,
      "Vir": 7432,
      "Val": 7433,
      "Vaugh": 7434,
      "ali": 7435,
      "amen": 7436,
      "aim": 7437,
      "ah, ": 7438,
      "amis": 7439,
      "alive ": 7440,
      "by": 7441,
      "bat": 7442,
      "by\r\n": 7443,
      "bish": 7444,
      "cro": 7445,
      "cle ": 7446,
      "cting ": 7447,
      "ction\r\n": 7448,
      "city\r\n": 7449,
      "ds": 7450,
      "den, ": 7451,
      "dge": 7452,
      "ddy ": 7453,
      "dance ": 7454,
      "dly, ": 7455,
      "d,-- ": 7456,
      "edi": 7457,
      "event": 7458,
      "flee": 7459,
      "fits ": 7460,
      "fare you ": 7461,
      "gs ": 7462,
      "gown ": 7463,
      "ggar": 7464,
      "hin": 7465,
      "i' ": 7466,
      "isure": 7467,
      "ker ": 7468,
      "ken, ": 7469,
      "knew": 7470,
      "lt": 7471,
      "ler ": 7472,
      "l! ": 7473,
      "low, ": 7474,
      "ling, ": 7475,
      "lar ": 7476,
      "less\r\n": 7477,
      "mm": 7478,
      "m; ": 7479,
      "mere ": 7480,
      "nup": 7481,
      "nest ": 7482,
      "ning, ": 7483,
      "none; ": 7484,
      "pom": 7485,
      "pear": 7486,
      "roun": 7487,
      "rough": 7488,
      "smo": 7489,
      "sought ": 7490,
      "t'": 7491,
      "ty! ": 7492,
      "tnes": 7493,
      "town, ": 7494,
      "ull": 7495,
      "var": 7496,
      "vea": 7497,
      "win ": 7498,
      "yon ": 7499,
      "thes": 7500,
      "th; ": 7501,
      "thus, ": 7502,
      "s have ": 7503,
      "outra": 7504,
      "ous, and ": 7505,
      "err": 7506,
      "er; ": 7507,
      "ining ": 7508,
      "indu": 7509,
      "into my ": 7510,
      "in't ": 7511,
      "into his ": 7512,
      "anch": 7513,
      "anon ": 7514,
      ": O, ": 7515,
      "orna": 7516,
      "orator": 7517,
      "en: ": 7518,
      "eness ": 7519,
      "enced ": 7520,
      "enforce ": 7521,
      " thought ": 7522,
      "one": 7523,
      "on? ": 7524,
      "is thy ": 7525,
      "is full of ": 7526,
      "ess": 7527,
      "est; ": 7528,
      "you'ld ": 7529,
      "I with ": 7530,
      "I like ": 7531,
      "I told ": 7532,
      "I loved ": 7533,
      "I see, ": 7534,
      "to him ": 7535,
      "to live ": 7536,
      "to me: ": 7537,
      "to London ": 7538,
      "and in ": 7539,
      "and de": 7540,
      "and then ": 7541,
      "ease ": 7542,
      "e, my ": 7543,
      "ing! ": 7544,
      "wide ": 7545,
      "widow, ": 7546,
      "sten": 7547,
      "stur": 7548,
      "strew": 7549,
      "the wor": 7550,
      "the most ": 7551,
      "the great ": 7552,
      "the king's ": 7553,
      "hil": 7554,
      "hid ": 7555,
      "hide": 7556,
      "nobi": 7557,
      "my dear ": 7558,
      "my mother ": 7559,
      "my mind ": 7560,
      "my dear": 7561,
      "my loving ": 7562,
      "my uncle ": 7563,
      "for\r\n": 7564,
      "forty ": 7565,
      "form, ": 7566,
      "forfeit ": 7567,
      "a c": 7568,
      "a par": 7569,
      "a mon": 7570,
      "a foo": 7571,
      "a bar": 7572,
      "a woman ": 7573,
      "of me ": 7574,
      "of king": 7575,
      "sell ": 7576,
      "sets ": 7577,
      "sed; ": 7578,
      "sed: ": 7579,
      "he may ": 7580,
      "? ISABELLA: ": 7581,
      "? BENVOLIO: ": 7582,
      "? Messenger: ": 7583,
      "? ELBOW: ": 7584,
      "lie, ": 7585,
      "lives, ": 7586,
      "liken": 7587,
      "lives\r\n": 7588,
      "at a ": 7589,
      "at home, ": 7590,
      "rewar": 7591,
      "recomp": 7592,
      "reign ": 7593,
      "redres": 7594,
      "ing of the ": 7595,
      "tice ": 7596,
      "tired ": 7597,
      "! ANGELO: ": 7598,
      "you did ": 7599,
      "rip": 7600,
      "rit": 7601,
      "ripe ": 7602,
      "in so ": 7603,
      "match ": 7604,
      "made, ": 7605,
      "made\r\n": 7606,
      "s, but ": 7607,
      "rate ": 7608,
      "rage, ": 7609,
      "rapi": 7610,
      "not of ": 7611,
      "And his ": 7612,
      "And therefore ": 7613,
      "t, a ": 7614,
      "me in my ": 7615,
      "as any ": 7616,
      "his majesty ": 7617,
      "last": 7618,
      "lament ": 7619,
      "lew": 7620,
      "lean ": 7621,
      "leisure": 7622,
      "urged ": 7623,
      "shea": 7624,
      "shine ": 7625,
      "be thou ": 7626,
      "be gone\r\n": 7627,
      "be: ": 7628,
      "behalf ": 7629,
      "beloved ": 7630,
      "behavi": 7631,
      "it and ": 7632,
      "it not\r\n": 7633,
      "rose ": 7634,
      "dia": 7635,
      "on to ": 7636,
      "on her ": 7637,
      "faint ": 7638,
      "fail ": 7639,
      "faction ": 7640,
      "have done ": 7641,
      "or two ": 7642,
      "with such a ": 7643,
      "with me: ": 7644,
      "with her, ": 7645,
      "with all my ": 7646,
      "that your ": 7647,
      "that will ": 7648,
      "that are ": 7649,
      "that we ": 7650,
      "that I am ": 7651,
      "that there ": 7652,
      "that ever ": 7653,
      "it; And ": 7654,
      "Think": 7655,
      "Through ": 7656,
      "sai": 7657,
      "salt ": 7658,
      "sava": 7659,
      "sake\r\n": 7660,
      "sacri": 7661,
      "comest ": 7662,
      "come? ": 7663,
      "ated ": 7664,
      "attemp": 7665,
      "'d his ": 7666,
      "'d With ": 7667,
      "of thin": 7668,
      "of them\r\n": 7669,
      "lovest ": 7670,
      "whe": 7671,
      "who's ": 7672,
      "tas": 7673,
      "tain, ": 7674,
      "shame\r\n": 7675,
      "shame to ": 7676,
      "thern ": 7677,
      "spy ": 7678,
      "sue ": 7679,
      "ently ": 7680,
      "When, ": 7681,
      "Whether ": 7682,
      "The one ": 7683,
      "The time ": 7684,
      "The other ": 7685,
      "The people ": 7686,
      "conver": 7687,
      "confu": 7688,
      "contemp": 7689,
      "cation ": 7690,
      "caiti": 7691,
      "are in ": 7692,
      "sic ": 7693,
      "To take ": 7694,
      "To think ": 7695,
      "To meet ": 7696,
      "To help ": 7697,
      "wep": 7698,
      "weight": 7699,
      "way? ": 7700,
      "thou canst ": 7701,
      "day: ": 7702,
      "by any ": 7703,
      "more: ": 7704,
      "mortal": 7705,
      "cel": 7706,
      "cely ": 7707,
      "manage ": 7708,
      "terror ": 7709,
      "so he ": 7710,
      "so well ": 7711,
      "cks, ": 7712,
      "cket ": 7713,
      "rescu": 7714,
      "restor": 7715,
      "rest; ": 7716,
      "resign ": 7717,
      "moan": 7718,
      "modest ": 7719,
      "him with ": 7720,
      "seldom ": 7721,
      "selves\r\n": 7722,
      "quire ": 7723,
      "known": 7724,
      "vio": 7725,
      "bles ": 7726,
      "te; ": 7727,
      "paid ": 7728,
      "what he ": 7729,
      "what of that": 7730,
      "gage ": 7731,
      "gaze ": 7732,
      " this is ": 7733,
      "to: ": 7734,
      "to't, ": 7735,
      "doom ": 7736,
      "do't ": 7737,
      "doth the ": 7738,
      "dozen ": 7739,
      "But who comes here? ": 7740,
      "boy": 7741,
      "fill ": 7742,
      "fied ": 7743,
      "us Larti": 7744,
      "alone ": 7745,
      "alone; ": 7746,
      "sirra": 7747,
      "sir, and ": 7748,
      "sirrah, ": 7749,
      "was not ": 7750,
      "with these ": 7751,
      "within my ": 7752,
      "with thee": 7753,
      "fetch": 7754,
      "league ": 7755,
      "all-": 7756,
      "alle": 7757,
      "part; ": 7758,
      "parting ": 7759,
      "My father ": 7760,
      "My brother ": 7761,
      "My liege, ": 7762,
      ": I am": 7763,
      "Wilt": 7764,
      "vely ": 7765,
      "ought, ": 7766,
      "I'll tell you ": 7767,
      "proof ": 7768,
      "prove, ": 7769,
      "proceed ": 7770,
      "deri": 7771,
      "hoar": 7772,
      "more than": 7773,
      "perni": 7774,
      "true; ": 7775,
      "true-": 7776,
      "ONSO: ": 7777,
      "What is't ": 7778,
      "if any ": 7779,
      "As much ": 7780,
      "she hath ": 7781,
      "were his ": 7782,
      "from him ": 7783,
      "hell, ": 7784,
      "soever ": 7785,
      "hath not ": 7786,
      "make my ": 7787,
      "make it ": 7788,
      "Hast thou ": 7789,
      "Hadst thou ": 7790,
      "getting ": 7791,
      "'t; ": 7792,
      "god ": 7793,
      "nap": 7794,
      "ghted ": 7795,
      " thou wast ": 7796,
      "of the house of ": 7797,
      "destin": 7798,
      "had a ": 7799,
      "had no ": 7800,
      "had rather ": 7801,
      "I am no ": 7802,
      "I am sor": 7803,
      "mark": 7804,
      "stake ": 7805,
      "accursed ": 7806,
      "eye": 7807,
      "plain, ": 7808,
      "lift ": 7809,
      "look, ": 7810,
      "did you ": 7811,
      "here is ": 7812,
      "say I ": 7813,
      "exchange ": 7814,
      "sir, the ": 7815,
      "O heavens! ": 7816,
      "custom": 7817,
      "think, ": 7818,
      "love thee ": 7819,
      "yet I ": 7820,
      "charity ": 7821,
      "counsell": 7822,
      "scatter": 7823,
      "First Keeper: ": 7824,
      "First Soldi": 7825,
      "prison ": 7826,
      "If I ": 7827,
      "king of ": 7828,
      "voli": 7829,
      "Master": 7830,
      "burie": 7831,
      "s; But ": 7832,
      "Mark ": 7833,
      "can be ": 7834,
      "breath of ": 7835,
      "With a ": 7836,
      "With all the ": 7837,
      "te and ": 7838,
      "How many ": 7839,
      "go along ": 7840,
      "upon you ": 7841,
      "Thou wilt ": 7842,
      "well? ": 7843,
      "well, and ": 7844,
      "foes ": 7845,
      "mine eyes ": 7846,
      "made to ": 7847,
      "joys ": 7848,
      "join'd ": 7849,
      "preci": 7850,
      "prevent ": 7851,
      "brow ": 7852,
      "brook ": 7853,
      "present, ": 7854,
      "absen": 7855,
      "done": 7856,
      "done? ": 7857,
      "Of our ": 7858,
      "merry, ": 7859,
      "y; but ": 7860,
      "s and the ": 7861,
      "deem ": 7862,
      "kele": 7863,
      "farde": 7864,
      "senat": 7865,
      "sensel": 7866,
      "thereof ": 7867,
      "se, and ": 7868,
      "son and ": 7869,
      "son of ": 7870,
      "Better ": 7871,
      "No\r\n": 7872,
      "itious ": 7873,
      "up with ": 7874,
      "where he ": 7875,
      "where they ": 7876,
      "ROMEO: O, ": 7877,
      "trench": 7878,
      "womb": 7879,
      "women": 7880,
      "torment ": 7881,
      "angel": 7882,
      "doth not ": 7883,
      "if that ": 7884,
      "sorted ": 7885,
      "than a ": 7886,
      "shire ": 7887,
      "trick ": 7888,
      "death, and ": 7889,
      "Second Messenger: ": 7890,
      "harsh ": 7891,
      "ten thousand ": 7892,
      "hear me\r\n": 7893,
      "speak a ": 7894,
      "blood: ": 7895,
      "garment": 7896,
      "garden": 7897,
      "cot": 7898,
      "coll": 7899,
      "coat, ": 7900,
      "Lord Angelo ": 7901,
      "ment: ": 7902,
      "ment; ": 7903,
      "ge, And ": 7904,
      "When he ": 7905,
      "being so ": 7906,
      "disgu": 7907,
      "many a ": 7908,
      "corrup": 7909,
      "powers ": 7910,
      "tongues ": 7911,
      "chair ": 7912,
      "chamber ": 7913,
      "I would be ": 7914,
      "courti": 7915,
      "court? ": 7916,
      "passa": 7917,
      "passion ": 7918,
      "princes": 7919,
      "clear": 7920,
      "clear ": 7921,
      "Prove ": 7922,
      "grieve ": 7923,
      "youngest ": 7924,
      "help, ": 7925,
      "No, no, ": 7926,
      "first: ": 7927,
      "highness' ": 7928,
      "set down ": 7929,
      "hope\r\n": 7930,
      "Not a ": 7931,
      "willing ": 7932,
      "to-day ": 7933,
      "to-day, ": 7934,
      "brother: ": 7935,
      "brother\r\n": 7936,
      "armour ": 7937,
      "soul! ": 7938,
      "souls, ": 7939,
      "Cali": 7940,
      "both your ": 7941,
      "woe\r\n": 7942,
      "what": 7943,
      "call the ": 7944,
      "call them ": 7945,
      ",-- SICINIUS: ": 7946,
      "happily ": 7947,
      "happiness ": 7948,
      "Now, by my ": 7949,
      "life and ": 7950,
      "awake ": 7951,
      "thanks ": 7952,
      "friend\r\n": 7953,
      "every one ": 7954,
      "water, ": 7955,
      "From the ": 7956,
      "bid him ": 7957,
      "I said, ": 7958,
      "world: ": 7959,
      "Shall I be ": 7960,
      "might be ": 7961,
      "among ": 7962,
      "till I ": 7963,
      "looked ": 7964,
      "upon their ": 7965,
      "if you be ": 7966,
      "King Henry ": 7967,
      "King Edward's ": 7968,
      "Peter": 7969,
      "They have ": 7970,
      "call you ": 7971,
      "done to ": 7972,
      "thee; ": 7973,
      "young and ": 7974,
      "myself? ": 7975,
      "Nurse: O ": 7976,
      "craf": 7977,
      "thus I ": 7978,
      "Marcius\r\n": 7979,
      "Marcius! ": 7980,
      "banishment, ": 7981,
      "hand of ": 7982,
      "pity\r\n": 7983,
      "chance, ": 7984,
      "heard the ": 7985,
      "then\r\n": 7986,
      "keep your ": 7987,
      "Lici": 7988,
      "treason ": 7989,
      "Justi": 7990,
      "since the ": 7991,
      "that I should ": 7992,
      "Duke of York, ": 7993,
      "dowry ": 7994,
      "oath, ": 7995,
      "voice, ": 7996,
      "voices, ": 7997,
      "If, ": 7998,
      "undertake ": 7999,
      "tempest ": 8000,
      "heaven\r\n": 8001,
      "bring you ": 8002,
      "bring me ": 8003,
      "bring it ": 8004,
      "Off ": 8005,
      "myself a ": 8006,
      "where's ": 8007,
      "credi": 8008,
      "credit ": 8009,
      "revenge": 8010,
      "spect ": 8011,
      "mother; ": 8012,
      "strang": 8013,
      "woman\r\n": 8014,
      "Leon": 8015,
      "cheth ": 8016,
      "word '": 8017,
      "intent": 8018,
      " themselves ": 8019,
      "please to ": 8020,
      "weep, ": 8021,
      "spirits ": 8022,
      "Were he ": 8023,
      "led by ": 8024,
      "mistress\r\n": 8025,
      "mistress' ": 8026,
      "night's ": 8027,
      "beauti": 8028,
      "beauteous ": 8029,
      "gros": 8030,
      "dispatch ": 8031,
      "growing ": 8032,
      "hung": 8033,
      "hunt ": 8034,
      "throne, ": 8035,
      "I should not ": 8036,
      "together": 8037,
      "pluck'd ": 8038,
      "wife is ": 8039,
      "wife and ": 8040,
      "Paris, ": 8041,
      "Pardon, ": 8042,
      "wear the ": 8043,
      "IDAM": 8044,
      "POMPEY: Sir, ": 8045,
      "duke is ": 8046,
      "France\r\n": 8047,
      "silent ": 8048,
      "queen and ": 8049,
      "Fair ": 8050,
      "colour": 8051,
      "sovereign's ": 8052,
      "pardon, ": 8053,
      "pardon\r\n": 8054,
      "give me leave ": 8055,
      "Jove ": 8056,
      "tyrant ": 8057,
      "sorrow\r\n": 8058,
      "sorrow's ": 8059,
      "Romeo is ": 8060,
      "ctor ": 8061,
      "gates of ": 8062,
      "object ": 8063,
      "swallow": 8064,
      "discover": 8065,
      "prince's ": 8066,
      "Like to a ": 8067,
      "writ ": 8068,
      "quali": 8069,
      "bosom, ": 8070,
      "what's the matter": 8071,
      "Gloucester ": 8072,
      "dges ": 8073,
      "this! ": 8074,
      "dream'd ": 8075,
      "keep the ": 8076,
      "seem to ": 8077,
      "mouth ": 8078,
      "mayor ": 8079,
      "dukedom ": 8080,
      "frame ": 8081,
      "accused ": 8082,
      "thine own ": 8083,
      "Lucentio, ": 8084,
      "twenty thousand ": 8085,
      "gone to ": 8086,
      "body\r\n": 8087,
      "enemies ": 8088,
      "Lancaster, ": 8089,
      "emplo": 8090,
      "steel ": 8091,
      "he would have ": 8092,
      "Farewell: ": 8093,
      "lower ": 8094,
      "thither\r\n": 8095,
      "no more; ": 8096,
      "hence! ": 8097,
      "manners ": 8098,
      "Tush, ": 8099,
      "mourn ": 8100,
      "liberty\r\n": 8101,
      "affection": 8102,
      "Hereford ": 8103,
      "Hereford's ": 8104,
      "tribunes ": 8105,
      "look'd for ": 8106,
      "Richmond, ": 8107,
      "London": 8108,
      "London, ": 8109,
      "swear, ": 8110,
      "Margaret, ": 8111,
      "ages ": 8112,
      "foreign ": 8113,
      "scorn": 8114,
      "drunk ": 8115,
      "bound to ": 8116,
      "triumph ": 8117,
      "north, ": 8118,
      "before: ": 8119,
      "petition": 8120,
      "petition ": 8121,
      "plainly ": 8122,
      "kinsman ": 8123,
      "Oxford ": 8124,
      "'em ": 8125,
      "stoop": 8126,
      "church ": 8127,
      "approach": 8128,
      "Prin": 8129,
      "drown": 8130,
      "yields ": 8131,
      "thrive ": 8132,
      "thrice ": 8133,
      "apparent ": 8134,
      "ALONSO: ": 8135,
      "Away with ": 8136,
      "; For, ": 8137,
      "nobles ": 8138,
      "counsel, ": 8139,
      "sister\r\n": 8140,
      "blush ": 8141,
      "Padua ": 8142,
      "About ": 8143,
      "He'll ": 8144,
      "prosperous ": 8145,
      "Grumio, ": 8146,
      "Earl of Wilt": 8147,
      "abroad ": 8148,
      "odds ": 8149,
      "thyself, ": 8150,
      "stretch": 8151,
      "course of ": 8152,
      "Fear not, ": 8153,
      "dness\r\n": 8154,
      "tomor": 8155,
      "threaten": 8156,
      "neighbour ": 8157,
      "view ": 8158,
      "expect ": 8159,
      "butcher": 8160,
      "Mercutio, ": 8161,
      "book of ": 8162,
      "third ": 8163,
      "I am the ": 8164,
      "beholding ": 8165,
      "solemn ": 8166,
      "condition ": 8167,
      "contract ": 8168,
      "pleasure\r\n": 8169,
      "cried '": 8170,
      "contrar": 8171,
      "pierce ": 8172,
      "choice ": 8173,
      "Cousin of ": 8174,
      "Queen ": 8175,
      "jealou": 8176,
      "Apollo ": 8177,
      "avoided ": 8178,
      "titude ": 8179,
      "maintain ": 8180,
      "bridegroom ": 8181,
      "physician": 8182,
      "Thomas Mowbra": 8183,
      "Caius Marcius ": 8184,
      "Menenius, ": 8185,
      "abide ": 8186,
      "refuse ": 8187,
      "ARCHIDAM": 8188,
      "perpetual ": 8189,
      "Let him be ": 8190,
      "intend to ": 8191,
      "particular": 8192,
      "Dorset, ": 8193,
      "bottom ": 8194,
      "current ": 8195,
      "Berkele": 8196,
      "Titus Larti": 8197,
      "hatred ": 8198,
      "treacherous ": 8199,
      "Huntsman: ": 8200,
      "privilege ": 8201,
      "Ratcliff, ": 8202,
      "melancho": 8203,
      "prettiest ": 8204,
      "Remember ": 8205,
      "Signior Baptista, ": 8206,
      "Paulina, ": 8207,
      "Jesu": 8208,
      "anointed ": 8209,
      "conjure ": 8210,
      "ruthless ": 8211,
      "figure ": 8212,
      "Widow: ": 8213,
      "destroy": 8214,
      "afflic": 8215,
      "dismal ": 8216,
      "ADRIAN: ": 8217,
      "challen": 8218,
      "possess ": 8219,
      "triumphant ": 8220,
      "William ": 8221,
      "BARNARDIN": 8222,
      "FROTH": 8223,
      "Surre": 8224,
      "recompen": 8225,
      "sacrifi": 8226,
      "pernicious ": 8227,
      "ARCHIDAMUS: ": 8228,
      " ST": 8229,
      "! thy ": 8230,
      "'dst ": 8231,
      "-like ": 8232,
      "; they ": 8233,
      "Ay": 8234,
      "Abo": 8235,
      "Blun": 8236,
      "Burg": 8237,
      "CRO": 8238,
      "EP": 8239,
      "EOR": 8240,
      "Esca": 8241,
      "Fo": 8242,
      "Five ": 8243,
      "FIT": 8244,
      "GO": 8245,
      "Gar": 8246,
      "GE: ": 8247,
      "GEOR": 8248,
      "Hon": 8249,
      "Hence ": 8250,
      "I: I ": 8251,
      "Keep ": 8252,
      "Men ": 8253,
      "MOR": 8254,
      "Mis": 8255,
      "Mil": 8256,
      "Nat": 8257,
      "None ": 8258,
      "None, ": 8259,
      "O'er": 8260,
      "Pur": 8261,
      "Prep": 8262,
      "Sor": 8263,
      "Set ": 8264,
      "SIR": 8265,
      "Tra": 8266,
      "Tal": 8267,
      "Touch": 8268,
      "Vouch": 8269,
      "Veni": 8270,
      "Wom": 8271,
      "WEST": 8272,
      "WAT": 8273,
      "ZWAT": 8274,
      "a: ": 8275,
      "a; ": 8276,
      "as, ": 8277,
      "abe": 8278,
      "apo": 8279,
      "apa": 8280,
      "ation": 8281,
      "am, ": 8282,
      "aged ": 8283,
      "ation, ": 8284,
      "alive, ": 8285,
      "able, ": 8286,
      "by: ": 8287,
      "by; ": 8288,
      "bill": 8289,
      "bbed ": 8290,
      "chat ": 8291,
      "cta": 8292,
      "ct\r\n": 8293,
      "cop": 8294,
      "d!": 8295,
      "ding\r\n": 8296,
      "dried ": 8297,
      "dged ": 8298,
      "de, And ": 8299,
      "dire ": 8300,
      "ew": 8301,
      "fe, ": 8302,
      "floo": 8303,
      "feet ": 8304,
      "func": 8305,
      "flight, ": 8306,
      "gna": 8307,
      "gree ": 8308,
      "ild ": 8309,
      "ister": 8310,
      "ither, ": 8311,
      "is, and ": 8312,
      "jest, ": 8313,
      "jest\r\n": 8314,
      "ks and ": 8315,
      "l; ": 8316,
      "ls\r\n": 8317,
      "ls and ": 8318,
      "ler, ": 8319,
      "mp ": 8320,
      "ny": 8321,
      "ny ": 8322,
      "p-": 8323,
      "phi": 8324,
      "p the ": 8325,
      "rar": 8326,
      "ran ": 8327,
      "sow": 8328,
      "s-- ": 8329,
      "ses; ": 8330,
      "smother": 8331,
      "slip": 8332,
      "tend ": 8333,
      "tle, ": 8334,
      "ty? ": 8335,
      "t,--": 8336,
      "usu": 8337,
      "vit": 8338,
      "val ": 8339,
      "vul": 8340,
      "vassa": 8341,
      "x, ": 8342,
      "thie": 8343,
      "thunder": 8344,
      "three-": 8345,
      "oud ": 8346,
      "y of ": 8347,
      "ine\r\n": 8348,
      "inte": 8349,
      "insol": 8350,
      "in thee, ": 8351,
      "in those ": 8352,
      "infan": 8353,
      "infect ": 8354,
      "injur": 8355,
      "any, ": 8356,
      ": For ": 8357,
      "orn ": 8358,
      "enm": 8359,
      "endu": 8360,
      "enjoy ": 8361,
      "encounter": 8362,
      "are: ": 8363,
      "on-": 8364,
      "on'd ": 8365,
      "on, And ": 8366,
      "lled ": 8367,
      "ha! ": 8368,
      "hap ": 8369,
      "hatch": 8370,
      "hadst thou ": 8371,
      "is now ": 8372,
      "is grown ": 8373,
      "es; And ": 8374,
      "ested ": 8375,
      "ess; ": 8376,
      "est? ": 8377,
      "you're ": 8378,
      "I find ": 8379,
      "I lay ": 8380,
      "I desire ": 8381,
      "I have": 8382,
      "to us ": 8383,
      "to tell ": 8384,
      "to find ": 8385,
      "to us\r\n": 8386,
      "to lose ": 8387,
      "and '": 8388,
      "and for ": 8389,
      "and all ": 8390,
      "and now ": 8391,
      "and how ": 8392,
      "and give ": 8393,
      "and true ": 8394,
      "eas": 8395,
      "ingra": 8396,
      "wives ": 8397,
      "wise, ": 8398,
      "witch ": 8399,
      "wipe ": 8400,
      "; 'tis ": 8401,
      "stout ": 8402,
      "the good ": 8403,
      "the other ": 8404,
      "the next ": 8405,
      "the queen's ": 8406,
      "his, ": 8407,
      "th Citizen: ": 8408,
      "ve the ": 8409,
      "noi": 8410,
      "noble": 8411,
      "nothing, ": 8412,
      "ch-": 8413,
      "ched ": 8414,
      "my daughter": 8415,
      "my brother, ": 8416,
      "my brother's ": 8417,
      "my lady ": 8418,
      "forwar": 8419,
      "forgo": 8420,
      "for them": 8421,
      "forth the ": 8422,
      "for that": 8423,
      "forsoo": 8424,
      "a whi": 8425,
      "a devi": 8426,
      "a happy ": 8427,
      "a strange ": 8428,
      "of good ": 8429,
      "of you, ": 8430,
      "of any ": 8431,
      "of much ": 8432,
      "of noble ": 8433,
      "of great ": 8434,
      "of heaven ": 8435,
      "seen, ": 8436,
      "sequi": 8437,
      "seen\r\n": 8438,
      "he is": 8439,
      "he cannot ": 8440,
      "? HORTENSIO: ": 8441,
      "? Provost: ": 8442,
      "lie\r\n": 8443,
      "liver": 8444,
      "likes ": 8445,
      "lip, ": 8446,
      "at on": 8447,
      "at that ": 8448,
      "at lea": 8449,
      "at last ": 8450,
      "at home": 8451,
      "at least ": 8452,
      "at Pomfre": 8453,
      "rebu": 8454,
      "remove ": 8455,
      "revel ": 8456,
      "rejoi": 8457,
      "Anton": 8458,
      "ears\r\n": 8459,
      "ears? ": 8460,
      "tied ": 8461,
      "tious ": 8462,
      "time: ": 8463,
      "! And ": 8464,
      "! what ": 8465,
      "! How ": 8466,
      "! MENENIUS: ": 8467,
      "! CORIOLANUS: ": 8468,
      "! KING RICHARD II: ": 8469,
      "you in ": 8470,
      "you so ": 8471,
      "you say ": 8472,
      "you know, ": 8473,
      "d, that ": 8474,
      "rich, ": 8475,
      "in an ": 8476,
      "in him ": 8477,
      "in him\r\n": 8478,
      "in such a ": 8479,
      "in Vien": 8480,
      "mal": 8481,
      "male ": 8482,
      "s, To ": 8483,
      "rash": 8484,
      "raven": 8485,
      "rather, ": 8486,
      "rash ": 8487,
      "rate, ": 8488,
      "not yet ": 8489,
      "not too ": 8490,
      "not so\r\n": 8491,
      "And I'll ": 8492,
      "t, That ": 8493,
      "me for ": 8494,
      "me To ": 8495,
      "me from ": 8496,
      "me wrong": 8497,
      "es I ": 8498,
      "y, That ": 8499,
      "as his ": 8500,
      "as for ": 8501,
      "as good ": 8502,
      "as if ": 8503,
      "as it is ": 8504,
      "as I said, ": 8505,
      "his noble ": 8506,
      "his mother ": 8507,
      "his friends ": 8508,
      "led\r\n": 8509,
      "shes ": 8510,
      "shel": 8511,
      "shrie": 8512,
      "shore ": 8513,
      "shook ": 8514,
      "be in ": 8515,
      "be your ": 8516,
      "be gone, ": 8517,
      "belike ": 8518,
      "belove": 8519,
      "before, ": 8520,
      "belly ": 8521,
      "your father": 8522,
      "your brother ": 8523,
      "it must ": 8524,
      "it be, ": 8525,
      "it is\r\n": 8526,
      "room ": 8527,
      "rock, ": 8528,
      "robb": 8529,
      "did\r\n": 8530,
      "did; ": 8531,
      "dition ": 8532,
      "die: ": 8533,
      "distra": 8534,
      "ere thou ": 8535,
      "on him ": 8536,
      "uni": 8537,
      "unts ": 8538,
      "unju": 8539,
      "undone ": 8540,
      "unhappy ": 8541,
      "unknown ": 8542,
      "have some ": 8543,
      "or no": 8544,
      "or your ": 8545,
      "with an ": 8546,
      "with one ": 8547,
      "with me; ": 8548,
      "with us\r\n": 8549,
      "with her\r\n": 8550,
      "that to ": 8551,
      "that have ": 8552,
      "that this ": 8553,
      "itself\r\n": 8554,
      "Then": 8555,
      "Things ": 8556,
      "Thine ": 8557,
      "sau": 8558,
      "sail": 8559,
      "say: ": 8560,
      "salu": 8561,
      "saying ": 8562,
      "come": 8563,
      "comes\r\n": 8564,
      "come! ": 8565,
      "coming\r\n": 8566,
      "our fo": 8567,
      "ats ": 8568,
      "atel": 8569,
      "attor": 8570,
      "atten": 8571,
      "'d for ": 8572,
      "'d her ": 8573,
      "of thee ": 8574,
      "lo, ": 8575,
      "loso": 8576,
      "whel": 8577,
      "whom, ": 8578,
      "for what ": 8579,
      "for me\r\n": 8580,
      "for you\r\n": 8581,
      "for ever\r\n": 8582,
      "tack": 8583,
      "tasti": 8584,
      "tal, ": 8585,
      "tail ": 8586,
      "shape ": 8587,
      "spite ": 8588,
      "ly the ": 8589,
      "readin": 8590,
      "supre": 8591,
      "entran": 8592,
      "Where, ": 8593,
      "When the ": 8594,
      "but I am ": 8595,
      "me; For ": 8596,
      "member": 8597,
      "meddle ": 8598,
      "The more ": 8599,
      "consta": 8600,
      "concei": 8601,
      "consequ": 8602,
      "cab": 8603,
      "are but ": 8604,
      "are all ": 8605,
      "are you, ": 8606,
      "are you? ": 8607,
      "sive ": 8608,
      "sied ": 8609,
      "simp": 8610,
      "silly ": 8611,
      "worm": 8612,
      "wore ": 8613,
      "word; ": 8614,
      "words? ": 8615,
      "deth ": 8616,
      "dew ": 8617,
      "ded? ": 8618,
      "decre": 8619,
      "degree ": 8620,
      "wag": 8621,
      "way: ": 8622,
      "way; ": 8623,
      "waste ": 8624,
      "by and ": 8625,
      "by our ": 8626,
      "by some ": 8627,
      "vers ": 8628,
      "cell": 8629,
      "mild ": 8630,
      "misc": 8631,
      "so your ": 8632,
      "so shall ": 8633,
      "up: ": 8634,
      "we can ": 8635,
      "lord's ": 8636,
      "rese": 8637,
      "resign": 8638,
      "him; And ": 8639,
      "hear\r\n": 8640,
      "heart: ": 8641,
      "heart; ": 8642,
      "hearts, ": 8643,
      "heart-": 8644,
      "do the ": 8645,
      "That I have ": 8646,
      "That which ": 8647,
      "poli": 8648,
      "pover": 8649,
      "point": 8650,
      "popul": 8651,
      "quit": 8652,
      "thy name? ": 8653,
      "known, ": 8654,
      "knight": 8655,
      "blown ": 8656,
      "ble, and ": 8657,
      "te'er ": 8658,
      "her to ": 8659,
      "her brother": 8660,
      "no doubt, ": 8661,
      "pain ": 8662,
      "pain of ": 8663,
      "palace ": 8664,
      "this un": 8665,
      "this is a ": 8666,
      "what to ": 8667,
      "what then? ": 8668,
      " that the ": 8669,
      " that we ": 8670,
      "one would ": 8671,
      "to? ": 8672,
      "to't ": 8673,
      "do't, ": 8674,
      "But now ": 8675,
      "eldest ": 8676,
      "boy; ": 8677,
      "als ": 8678,
      "es, that ": 8679,
      "all a": 8680,
      "good and ": 8681,
      "good old ": 8682,
      "sirs, ": 8683,
      "was I ": 8684,
      "was my ": 8685,
      "was it ": 8686,
      "within the ": 8687,
      "with them": 8688,
      "feed ": 8689,
      "feit": 8690,
      "feder": 8691,
      "ELY: ": 8692,
      "ARD: I ": 8693,
      "minute ": 8694,
      "part\r\n": 8695,
      "My noble ": 8696,
      "My tongue ": 8697,
      "My mind ": 8698,
      ": I pray ": 8699,
      "veins ": 8700,
      ", and my ": 8701,
      ", and not ": 8702,
      "I'll have ": 8703,
      "proved ": 8704,
      "der\r\n": 8705,
      "giddy ": 8706,
      "more Than ": 8707,
      "perju": 8708,
      "person, ": 8709,
      "me, the ": 8710,
      "ts to ": 8711,
      "ts that ": 8712,
      "true": 8713,
      "true? ": 8714,
      "truly, ": 8715,
      "grace! ": 8716,
      "As if ": 8717,
      "As is the ": 8718,
      "As 'twere ": 8719,
      "swo": 8720,
      "were the ": 8721,
      "were you ": 8722,
      "were it ": 8723,
      " Is ": 8724,
      "from whence ": 8725,
      "son; ": 8726,
      "sons\r\n": 8727,
      "sons and ": 8728,
      "out my ": 8729,
      "heed ": 8730,
      "like to be ": 8731,
      "make her ": 8732,
      "A most ": 8733,
      "A little ": 8734,
      "geous ": 8735,
      "peer": 8736,
      "pedi": 8737,
      "petty ": 8738,
      "'t? ": 8739,
      "'twill ": 8740,
      "duce ": 8741,
      "dulter": 8742,
      "god": 8743,
      "gods! ": 8744,
      "you, sir\r\n": 8745,
      "you, my noble ": 8746,
      "may I ": 8747,
      "may not ": 8748,
      "nation ": 8749,
      "naked ": 8750,
      "let this ": 8751,
      "come the ": 8752,
      "th, And ": 8753,
      "frighted ": 8754,
      "mbi": 8755,
      "cannot, ": 8756,
      "mp, ": 8757,
      "pping ": 8758,
      "they do ": 8759,
      "they say ": 8760,
      "they say, ": 8761,
      " thou didst ": 8762,
      "destru": 8763,
      "descen": 8764,
      "despi": 8765,
      "hand, and ": 8766,
      "had the ": 8767,
      "I am in ": 8768,
      "I am so ": 8769,
      "stay'd ": 8770,
      "guest ": 8771,
      "guess, ": 8772,
      "eye\r\n": 8773,
      "eyes: ": 8774,
      "places ": 8775,
      "O, let me ": 8776,
      "very good ": 8777,
      "ty and ": 8778,
      "ty of ": 8779,
      "here to ": 8780,
      "here and ": 8781,
      "here comes the ": 8782,
      "say you, ": 8783,
      "say you? ": 8784,
      "experi": 8785,
      "take his ": 8786,
      "O God, ": 8787,
      "venspur": 8788,
      "cured ": 8789,
      "love the ": 8790,
      "love of ": 8791,
      "yet not ": 8792,
      "prithee ": 8793,
      "see thee ": 8794,
      "If he ": 8795,
      "whipp": 8796,
      "k, And ": 8797,
      "chief ": 8798,
      "king in ": 8799,
      "Lords, ": 8800,
      "I will go ": 8801,
      " their own ": 8802,
      "know not ": 8803,
      "buzz": 8804,
      "build ": 8805,
      "s; but ": 8806,
      "s; For ": 8807,
      "s of a ": 8808,
      "s of his ": 8809,
      "March ": 8810,
      "when we ": 8811,
      "can do ": 8812,
      "break the ": 8813,
      "HEN S": 8814,
      "any other ": 8815,
      "any thing": 8816,
      "tutor": 8817,
      "afra": 8818,
      "after, ": 8819,
      "go and ": 8820,
      "mine eyes, ": 8821,
      "advanta": 8822,
      "admit": 8823,
      "them and ": 8824,
      "Is she ": 8825,
      "Is there ": 8826,
      "appointed ": 8827,
      "Your brother ": 8828,
      "Your highness ": 8829,
      "presu": 8830,
      "We do ": 8831,
      "We shall be ": 8832,
      "abun": 8833,
      "absent ": 8834,
      "done, And ": 8835,
      "s! What ": 8836,
      "ttering ": 8837,
      "d! O ": 8838,
      "men: ": 8839,
      "use to ": 8840,
      "lust": 8841,
      "It is the ": 8842,
      "It is my ": 8843,
      "Why, sir, ": 8844,
      "Right ": 8845,
      "money": 8846,
      "months ": 8847,
      "Becomes ": 8848,
      "up to ": 8849,
      "offended ": 8850,
      "where you ": 8851,
      "beast": 8852,
      "beast ": 8853,
      "beats ": 8854,
      "fly, ": 8855,
      "MENENIUS: The ": 8856,
      "tell us ": 8857,
      "Wednes": 8858,
      "shield ": 8859,
      "trifl": 8860,
      "Ay, my good ": 8861,
      "ness and ": 8862,
      "Where is my ": 8863,
      "PETRUCHIO: A ": 8864,
      "PETRUCHIO: Nay, ": 8865,
      "droo": 8866,
      "fears ": 8867,
      "fear the ": 8868,
      "fearing ": 8869,
      "Second Watchman: ": 8870,
      "harm\r\n": 8871,
      "Romeo\r\n": 8872,
      "ish'd ": 8873,
      "now: ": 8874,
      "now; ": 8875,
      "fair a ": 8876,
      "ity and ": 8877,
      "BAGO": 8878,
      "cover ": 8879,
      "gentleman\r\n": 8880,
      "Lord Hasting": 8881,
      "Lord Angelo, ": 8882,
      "besides ": 8883,
      "great a ": 8884,
      "Come, sir, ": 8885,
      "men and ": 8886,
      "'t be ": 8887,
      "enemy": 8888,
      "begun": 8889,
      "disse": 8890,
      "disgrace ": 8891,
      "disinher": 8892,
      "swords ": 8893,
      "care, ": 8894,
      "careful ": 8895,
      "corn ": 8896,
      "corrupt ": 8897,
      "power: ": 8898,
      "chasti": 8899,
      "purge ": 8900,
      "purple ": 8901,
      "'Tis a ": 8902,
      "Bushy, ": 8903,
      "immortal ": 8904,
      "impossible ": 8905,
      "leave the ": 8906,
      "little, ": 8907,
      "against my ": 8908,
      "against his ": 8909,
      "against thy ": 8910,
      "What, art thou ": 8911,
      "prince\r\n": 8912,
      "princes ": 8913,
      "princess ": 8914,
      "d, and the ": 8915,
      "Shalt ": 8916,
      "JULIET: What ": 8917,
      "first\r\n": 8918,
      "subdu": 8919,
      "Whiles ": 8920,
      "will? ": 8921,
      "brothers ": 8922,
      "arm'd ": 8923,
      "Have we ": 8924,
      "Have I not ": 8925,
      "soul's ": 8926,
      "souls of ": 8927,
      "friends": 8928,
      "Thy father ": 8929,
      "Came ": 8930,
      "Cambi": 8931,
      "bear\r\n": 8932,
      "burning ": 8933,
      "ness\r\n": 8934,
      "both are ": 8935,
      "LUCIO: ISABELLA: ": 8936,
      "happin": 8937,
      "away: ": 8938,
      "away? ": 8939,
      "wind, ": 8940,
      "Good morrow, ": 8941,
      "born, ": 8942,
      "could never ": 8943,
      "fortune, ": 8944,
      "love: ": 8945,
      "down the ": 8946,
      "waters ": 8947,
      "I say! ": 8948,
      "worldly ": 8949,
      "TRANIO: And ": 8950,
      "among": 8951,
      "amend": 8952,
      "amongst ": 8953,
      "closed ": 8954,
      "looks\r\n": 8955,
      "; though ": 8956,
      "estee": 8957,
      "estate ": 8958,
      "Why dost thou ": 8959,
      "call it ": 8960,
      "Will I ": 8961,
      "Clarence! ": 8962,
      "push ": 8963,
      "comfort\r\n": 8964,
      "comfortable ": 8965,
      "cousin! ": 8966,
      "remedy\r\n": 8967,
      "myself: ": 8968,
      "clamour ": 8969,
      "live in ": 8970,
      "think you ": 8971,
      "think you? ": 8972,
      "banishment ": 8973,
      "banishment\r\n": 8974,
      "Boy: ": 8975,
      "hand and ": 8976,
      "hand that ": 8977,
      "This, ": 8978,
      "pitch ": 8979,
      "ving the ": 8980,
      "confess, ": 8981,
      "hour\r\n": 8982,
      "somewhat ": 8983,
      "queen? ": 8984,
      "tains ": 8985,
      "il and ": 8986,
      "delight ": 8987,
      "If this ": 8988,
      "temples ": 8989,
      "Pau": 8990,
      "Pati": 8991,
      "gone: ": 8992,
      "gone? ": 8993,
      "sin\r\n": 8994,
      "patient\r\n": 8995,
      "as I hear, ": 8996,
      "myself and ": 8997,
      "Return ": 8998,
      "FRIAR PETER: ": 8999,
      "sent for ": 9000,
      "fair\r\n": 9001,
      "officer": 9002,
      "wrong'd ": 9003,
      "virtues ": 9004,
      "though they ": 9005,
      "Even in the ": 9006,
      "bid! ": 9007,
      "hasty ": 9008,
      "you shall find ": 9009,
      "shalt thou ": 9010,
      "speak; ": 9011,
      "desert ": 9012,
      "Third Gentleman: ": 9013,
      "grew ": 9014,
      "tears: ": 9015,
      "yet? ": 9016,
      "then, to ": 9017,
      "damna": 9018,
      "none of ": 9019,
      "them? ": 9020,
      "age and ": 9021,
      "spirit! ": 9022,
      "whom you ": 9023,
      "mistress, ": 9024,
      "beauty, ": 9025,
      "beauty's ": 9026,
      "POMPE": 9027,
      "no more but ": 9028,
      "Comfor": 9029,
      "Comes ": 9030,
      "Tell": 9031,
      "even so ": 9032,
      "each other's ": 9033,
      "forth to ": 9034,
      "Does ": 9035,
      "Much ": 9036,
      "study ": 9037,
      "fellows, ": 9038,
      "together\r\n": 9039,
      "together: ": 9040,
      "country\r\n": 9041,
      "loss, ": 9042,
      "meat ": 9043,
      "wreck": 9044,
      "wretch ": 9045,
      "send the ": 9046,
      "Harry, ": 9047,
      "Alas! ": 9048,
      "fall of ": 9049,
      "fault, ": 9050,
      "silence ": 9051,
      "silence, ": 9052,
      "fit to ": 9053,
      "surely ": 9054,
      "farewell, ": 9055,
      "Bolingbroke\r\n": 9056,
      "bones ": 9057,
      "colour ": 9058,
      "storm ": 9059,
      "she'll ": 9060,
      "mind to ": 9061,
      "back to ": 9062,
      "dearly ": 9063,
      "hence to ": 9064,
      "captain ": 9065,
      "You are a ": 9066,
      "help to ": 9067,
      "traitor's ": 9068,
      "Did you ": 9069,
      "Did not ": 9070,
      "Jove's ": 9071,
      "sound\r\n": 9072,
      "I can tell ": 9073,
      "sorrow, ": 9074,
      "sorrows ": 9075,
      "again to ": 9076,
      "cture ": 9077,
      "obsequi": 9078,
      "discre": 9079,
      "discover ": 9080,
      "obey\r\n": 9081,
      "stopp'd ": 9082,
      "execution ": 9083,
      "gg'd ": 9084,
      "is it not ": 9085,
      "life: ": 9086,
      "consul, ": 9087,
      "Had I ": 9088,
      "Had he ": 9089,
      "brought you ": 9090,
[...]
