{
  "version": "1.0",
  "truncation": null,
  "padding": null,
  "added_tokens": [
    {
      "id": 0,
      "content": "[PAD]",
      "single_word": false,
      "lstrip": false,
      "rstrip": false,
      "normalized": false,
      "special": true
    },
    {
      "id": 1,
      "content": "[CLS]",
      "single_word": false,
      "lstrip": false,
      "rstrip": false,
      "normalized": false,
      "special": true
    },
    {
      "id": 2,
      "content": "[SEP]",
      "single_word": false,
      "lstrip": false,
      "rstrip": false,
      "normalized": false,
      "special": true
    },
    {
      "id": 3,
      "content": "[MASK]",
      "single_word": false,
      "lstrip": false,
      "rstrip": false,
      "normalized": false,
      "special": true
    },
    {
      "id": 4,
      "content": "[UNK]",
      "single_word": false,
      "lstrip": false,
      "rstrip": false,
      "normalized": false,
      "special": true
    }
  ],
  "normalizer": null,
  "pre_tokenizer": null,
  "post_processor": null,
  "decoder": null,
  "model": {
    "type": "BPE",
    "dropout": null,
    "unk_token": "[UNK]",
    "continuing_subword_prefix": null,
    "end_of_word_suffix": null,
    "fuse_unk": false,
    "byte_fallback": false,
    "ignore_merges": false,
    "vocab": {
      "[PAD]": 0,
      "[CLS]": 1,
      "[SEP]": 2,
      "[MASK]": 3,
      "[UNK]": 4,
      "\n": 5,
      "\r": 6,
      " ": 7,
      "!": 8,
      "$": 9,
      "&": 10,
      "'": 11,
      ",": 12,
      "-": 13,
      ".": 14,
      "3": 15,
      ":": 16,
      ";": 17,
      "?": 18,
      "A": 19,
      "B": 20,
      "C": 21,
      "D": 22,
      "E": 23,
      "F": 24,
      "G": 25,
      "H": 26,
      "I": 27,
      "J": 28,
      "K": 29,
      "L": 30,
      "M": 31,
      "N": 32,
      "O": 33,
      "P": 34,
      "Q": 35,
      "R": 36,
      "S": 37,
      "T": 38,
      "U": 39,
      "V": 40,
      "W": 41,
      "X": 42,
      "Y": 43,
      "Z": 44,
      "a": 45,
      "b": 46,
      "c": 47,
      "d": 48,
      "e": 49,
      "f": 50,
      "g": 51,
      "h": 52,
      "i": 53,
      "j": 54,
      "k": 55,
      "l": 56,
      "m": 57,
      "n": 58,
      "o": 59,
      "p": 60,
      "q": 61,
      "r": 62,
      "s": 63,
      "t": 64,
      "u": 65,
      "v": 66,
      "w": 67,
      "x": 68,
      "y": 69,
      "z": 70,
      "e ": 71,
      "th": 72,
      ", ": 73,
      "t ": 74,
      "s ": 75,
      "d ": 76,
      "ou": 77,
      "er": 78,
      "y ": 79,
      "in": 80,
      "an": 81,
      ": ": 82,
      "or": 83,
      "o ": 84,
      "en": 85,
      "\r\n": 86,
      "ar": 87,
      " th": 88,
      "on": 89,
      "ll": 90,
      "ha": 91,
      "is ": 92,
      "es": 93,
      "you": 94,
      "I ": 95,
      "to ": 96,
      "and ": 97,
      "ow": 98,
      "ea": 99,
      "f ": 100,
      "ll ": 101,
      "e, ": 102,
      "ing": 103,
      "r ": 104,
      "wi": 105,
      "om": 106,
      "; ": 107,
      "st": 108,
      "er ": 109,
      "the ": 110,
      "hi": 111,
      "th ": 112,
      "ve ": 113,
      "no": 114,
      "ch": 115,
      "my ": 116,
      "for": 117,
      "a ": 118,
      "of ": 119,
      "se": 120,
      "he ": 121,
      " the ": 122,
      "? ": 123,
      "li": 124,
      "at ": 125,
      "re": 126,
      "st ": 127,
      "ing ": 128,
      "An": 129,
      "ear": 130,
      "ti": 131,
      "! ": 132,
      "oo": 133,
      "you ": 134,
      "d, ": 135,
      "gh": 136,
      "ri": 137,
      "in ": 138,
      "ma": 139,
      "ed ": 140,
      "s, ": 141,
      "en ": 142,
      "ra": 143,
      "not ": 144,
      "And ": 145,
      "'s ": 146,
      "t, ": 147,
      "me ": 148,
      "m ": 149,
      "es ": 150,
      "y, ": 151,
      "ld ": 152,
      "as ": 153,
      "his ": 154,
      "la": 155,
      "ut ": 156,
      "ir": 157,
      "hat ": 158,
      "ou ": 159,
      "le": 160,
      "ur": 161,
      "sh": 162,
      "be ": 163,
      "be": 164,
      "your ": 165,
      "it ": 166,
      "ro": 167,
      "di": 168,
      "O: ": 169,
      "ow ": 170,
      "ere ": 171,
      "ke ": 172,
      "on ": 173,
      "ee": 174,
      "un": 175,
      "an ": 176,
      "ch ": 177,
      "EN": 178,
      "k ": 179,
      "se ": 180,
      "IN": 181,
      "fa": 182,
      "have ": 183,
      "or ": 184,
      "with ": 185,
      "that ": 186,
      "ce ": 187,
      "the": 188,
      "it": 189,
      "e\r\n": 190,
      "Th": 191,
      "l ": 192,
      "sa": 193,
      "S: ": 194,
      "com": 195,
      "our ": 196,
      "at": 197,
      "'d ": 198,
      "AR": 199,
      "le ": 200,
      "of": 201,
      "lo": 202,
      "wh": 203,
      "for ": 204,
      "ta": 205,
      "sha": 206,
      "ther": 207,
      "sp": 208,
      "ould ": 209,
      "IO: ": 210,
      "ly ": 211,
      "rea": 212,
      "n ": 213,
      "su": 214,
      "ent": 215,
      "Wh": 216,
      "but ": 217,
      "will ": 218,
      "me": 219,
      "The ": 220,
      "US: ": 221,
      "con": 222,
      "ca": 223,
      "are ": 224,
      " the": 225,
      "ru": 226,
      "si": 227,
      "To ": 228,
      "wor": 229,
      "ne": 230,
      "de": 231,
      "ood ": 232,
      "we": 233,
      "ir ": 234,
      "wa": 235,
      "thou ": 236,
      "da": 237,
      "by ": 238,
      "mor": 239,
      "ver": 240,
      "ce": 241,
      "ol": 242,
      "mi": 243,
      "man": 244,
      "ther ": 245,
      "ter": 246,
      "so ": 247,
      "UC": 248,
      "ck": 249,
      "ING": 250,
      "up": 251,
      "d\r\n": 252,
      "s\r\n": 253,
      "shall ": 254,
      "rom": 255,
      "oun": 256,
      "mu": 257,
      "ds ": 258,
      "we ": 259,
      "lor": 260,
      "AN": 261,
      "res": 262,
      "him": 263,
      "mo": 264,
      "him ": 265,
      "ER": 266,
      "hear": 267,
      "OR": 268,
      "sel": 269,
      "ght ": 270,
      "et ": 271,
      "do ": 272,
      "ET": 273,
      "That ": 274,
      "po": 275,
      "qu": 276,
      "o, ": 277,
      "thy ": 278,
      "kn": 279,
      "vi": 280,
      "our": 281,
      "bl": 282,
      "te": 283,
      "her ": 284,
      "no ": 285,
      "pa": 286,
      "this ": 287,
      "'ll ": 288,
      "what ": 289,
      "ga": 290,
      "est ": 291,
      "KING": 292,
      " that ": 293,
      "one ": 294,
      " this ": 295,
      "to": 296,
      "A: ": 297,
      "her": 298,
      "ess ": 299,
      "do": 300,
      "ci": 301,
      "But ": 302,
      "el": 303,
      "from": 304,
      "bo": 305,
      "ent ": 306,
      "ong": 307,
      "y\r\n": 308,
      "fi": 309,
      "us ": 310,
      "al": 311,
      "t\r\n": 312,
      "hich ": 313,
      "war": 314,
      "es, ": 315,
      "IC": 316,
      "all ": 317,
      "dea": 318,
      "good ": 319,
      "sir": 320,
      "was ": 321,
      "hea": 322,
      "with": 323,
      "fe": 324,
      "OL": 325,
      "lea": 326,
      "EL": 327,
      "fu": 328,
      "ARD": 329,
      "KING ": 330,
      "ome ": 331,
      "would ": 332,
      "p ": 333,
      "all": 334,
      "min": 335,
      "--": 336,
      "IUS: ": 337,
      "row": 338,
      "ous ": 339,
      "par": 340,
      "My ": 341,
      "ce, ": 342,
      "ear ": 343,
      ": I ": 344,
      "ST": 345,
      "tt": 346,
      "Wi": 347,
      "ve": 348,
      ", and ": 349,
      "ough": 350,
      "ran": 351,
      "' ": 352,
      "I'll ": 353,
      "pro": 354,
      "der": 355,
      "ho": 356,
      "gi": 357,
      "ver ": 358,
      "de ": 359,
      " thy ": 360,
      "ge ": 361,
      "to the ": 362,
      "am ": 363,
      "more ": 364,
      "is": 365,
      "per": 366,
      "ble ": 367,
      "me, ": 368,
      "us": 369,
      "ts ": 370,
      "tru": 371,
      "E: ": 372,
      "ON": 373,
      "What ": 374,
      "gra": 375,
      "if ": 376,
      "As ": 377,
      "bro": 378,
      "sw": 379,
      "she ": 380,
      "ere": 381,
      "d; ": 382,
      "were ": 383,
      " I": 384,
      "from ": 385,
      "For ": 386,
      "son": 387,
      "king": 388,
      "out ": 389,
      "en, ": 390,
      "he": 391,
      "so": 392,
      "ck ": 393,
      "like ": 394,
      "hath ": 395,
      "make ": 396,
      "Ha": 397,
      "ba": 398,
      "A ": 399,
      "d: ": 400,
      "ge": 401,
      "pe": 402,
      "'t": 403,
      "ARD I": 404,
      "in the ": 405,
      "du": 406,
      "go": 407,
      "you, ": 408,
      "may ": 409,
      "na": 410,
      "ni": 411,
      "RO": 412,
      "TIO: ": 413,
      "must ": 414,
      "I: ": 415,
      "let ": 416,
      "AU": 417,
      "Y ": 418,
      "come ": 419,
      "E ": 420,
      "ght": 421,
      "end ": 422,
      "gain": 423,
      "tion": 424,
      "th, ": 425,
      "ow, ": 426,
      "irst ": 427,
      "ET: ": 428,
      "You ": 429,
      "should ": 430,
      "fri": 431,
      "fore ": 432,
      "spea": 433,
      "mb": 434,
      "I have ": 435,
      "can": 436,
      "mp": 437,
      "pp": 438,
      "they ": 439,
      "id ": 440,
      " thou ": 441,
      "; And ": 442,
      "of the ": 443,
      "ICH": 444,
      "RICH": 445,
      "lan": 446,
      "ence ": 447,
      "des": 448,
      "han": 449,
      "had ": 450,
      "ll, ": 451,
      "I am ": 452,
      "mar": 453,
      "CA": 454,
      "DU": 455,
      "s: ": 456,
      "DUK": 457,
      "ese ": 458,
      "DUKE ": 459,
      "hon": 460,
      "sta": 461,
      "ac": 462,
      "ry ": 463,
      "w ": 464,
      "gu": 465,
      "thee ": 466,
      "Go": 467,
      "K: ": 468,
      "ey": 469,
      "which ": 470,
      "own ": 471,
      "ose ": 472,
      "ven ": 473,
      "now ": 474,
      "ous": 475,
      "ENTIO: ": 476,
      "pla": 477,
      "O, ": 478,
      "some ": 479,
      "own": 480,
      "lif": 481,
      "ig": 482,
      "ome": 483,
      "self": 484,
      "ure ": 485,
      "very ": 486,
      "He ": 487,
      "pr": 488,
      "my lor": 489,
      "loo": 490,
      "ted ": 491,
      "INC": 492,
      "ty ": 493,
      "did ": 494,
      "il": 495,
      "end": 496,
      "how ": 497,
      "ster": 498,
      "here ": 499,
      "say ": 500,
      "ex": 501,
      "op": 502,
      "ER: ": 503,
      "dy ": 504,
      "gent": 505,
      "t's ": 506,
      "; and ": 507,
      "tion ": 508,
      "ful ": 509,
      "sti": 510,
      "sir, ": 511,
      "take ": 512,
      "ves ": 513,
      "O ": 514,
      "Y: ": 515,
      "such ": 516,
      "AB": 517,
      "ven": 518,
      "ve, ": 519,
      "again": 520,
      "cu": 521,
      "al ": 522,
      "most ": 523,
      "ther, ": 524,
      "thin": 525,
      "love ": 526,
      "give ": 527,
      "man ": 528,
      "t: ": 529,
      "yet ": 530,
      "char": 531,
      "KING RICH": 532,
      "-- ": 533,
      "KING RICHARD I": 534,
      "LO": 535,
      "coun": 536,
      "sc": 537,
      "First ": 538,
      "pri": 539,
      "self ": 540,
      "Which ": 541,
      "see ": 542,
      "pra": 543,
      "EST": 544,
      "If ": 545,
      "whi": 546,
      "k, ": 547,
      "chi": 548,
      "king ": 549,
      "This ": 550,
      "UCH": 551,
      "EEN": 552,
      "GLO": 553,
      "ser": 554,
      "sed ": 555,
      "eet ": 556,
      "UCEST": 557,
      "GLOUCEST": 558,
      "Lor": 559,
      "vo": 560,
      "I will ": 561,
      " their ": 562,
      "Ma": 563,
      "oul": 564,
      "their ": 565,
      "know ": 566,
      "bu": 567,
      "s; ": 568,
      "sh ": 569,
      "LI": 570,
      ", And ": 571,
      "ough ": 572,
      "QU": 573,
      "s of ": 574,
      "well ": 575,
      "QUEEN": 576,
      "F ": 577,
      "OF ": 578,
      "Mar": 579,
      "ds, ": 580,
      "VINC": 581,
      "d? ": 582,
      "m, ": 583,
      "GLOUCESTER: ": 584,
      "VINCENTIO: ": 585,
      "when ": 586,
      "can ": 587,
      "brea": 588,
      "y: ": 589,
      "With ": 590,
      "d's ": 591,
      "HEN": 592,
      "te ": 593,
      "any ": 594,
      "to be ": 595,
      "ome, ": 596,
      "tu": 597,
      "How ": 598,
      "Se": 599,
      "af": 600,
      "go ": 601,
      "lt ": 602,
      "time ": 603,
      "ind ": 604,
      "grea": 605,
      "om ": 606,
      "upon ": 607,
      "RY ": 608,
      "So ": 609,
      "Thou ": 610,
      "well": 611,
      "HENRY ": 612,
      "ban": 613,
      "fo": 614,
      "'tis ": 615,
      "mine ": 616,
      "ES": 617,
      "ad": 618,
      "ved ": 619,
      "ng": 620,
      "made ": 621,
      "thing ": 622,
      "see": 623,
      "them ": 624,
      "jo": 625,
      "pre": 626,
      "QUEEN ": 627,
      "Is ": 628,
      "ap": 629,
      "DUKE VINCENTIO: ": 630,
      "br": 631,
      "lie": 632,
      "ORI": 633,
      "too ": 634,
      "Your ": 635,
      "YOR": 636,
      "pres": 637,
      "never ": 638,
      "We ": 639,
      "ab": 640,
      "don": 641,
      "s! ": 642,
      "tter": 643,
      "rie": 644,
      "Wha": 645,
      "d! ": 646,
      "Of ": 647,
      "ce\r\n": 648,
      "mer": 649,
      "art ": 650,
      "In ": 651,
      "old ": 652,
      "y; ": 653,
      "men": 654,
      "thou": 655,
      "ing, ": 656,
      "know": 657,
      "ju": 658,
      "use ": 659,
      "less ": 660,
      "then ": 661,
      "s and ": 662,
      "er: ": 663,
      "lu": 664,
      "DW": 665,
      "EDW": 666,
      "'st ": 667,
      "It ": 668,
      "tra": 669,
      "Why, ": 670,
      "way ": 671,
      "Ri": 672,
      "dee": 673,
      "o'": 674,
      "ke": 675,
      "INIUS: ": 676,
      "ES: ": 677,
      "der ": 678,
      "far": 679,
      "sen": 680,
      "st, ": 681,
      "there": 682,
      "'T": 683,
      "GR": 684,
      "PET": 685,
      "plea": 686,
      "my": 687,
      "ong ": 688,
      "me\r\n": 689,
      "s? ": 690,
      "MI": 691,
      "TH": 692,
      "es\r\n": 693,
      "ate ": 694,
      "much ": 695,
      "YORK: ": 696,
      "mon": 697,
      "noble ": 698,
      "LE": 699,
      "se, ": 700,
      "son ": 701,
      "que": 702,
      "cannot ": 703,
      "Be": 704,
      "MEN": 705,
      "UM": 706,
      "ter ": 707,
      "cond ": 708,
      "tw": 709,
      "Ed": 710,
      "LUC": 711,
      "is the ": 712,
      "IS": 713,
      "ME": 714,
      "ks ": 715,
      "ELL": 716,
      "No": 717,
      "iti": 718,
      "stan": 719,
      "it\r\n": 720,
      "up ": 721,
      "Edwar": 722,
      "By ": 723,
      "van": 724,
      " thin": 725,
      "off": 726,
      "where ": 727,
      "ROME": 728,
      "ROMEO: ": 729,
      "ct ": 730,
      "ince ": 731,
      "bea": 732,
      "tr": 733,
      "tur": 734,
      "wom": 735,
      "new": 736,
      "ound ": 737,
      "ay, ": 738,
      "it, ": 739,
      "tor": 740,
      "ang": 741,
      "'d, ": 742,
      "as": 743,
      "fl": 744,
      "le, ": 745,
      "other ": 746,
      "pea": 747,
      "doth ": 748,
      "God ": 749,
      "For": 750,
      "Or ": 751,
      "if": 752,
      "ENIUS: ": 753,
      "MENENIUS: ": 754,
      "OM": 755,
      "sor": 756,
      "than ": 757,
      "been ": 758,
      "father": 759,
      " thee ": 760,
      "tell ": 761,
      "We": 762,
      "sea": 763,
      "shi": 764,
      "tri": 765,
      "er, ": 766,
      "on the ": 767,
      "Ay, ": 768,
      "Cl": 769,
      "RUCH": 770,
      "ness ": 771,
      "ers ": 772,
      "Where ": 773,
      "tter ": 774,
      "PETRUCH": 775,
      "PETRUCHIO: ": 776,
      "HA": 777,
      "in, ": 778,
      "your": 779,
      "him\r\n": 780,
      "death": 781,
      "MAR": 782,
      "dr": 783,
      "fear": 784,
      "re ": 785,
      "to my ": 786,
      "Second ": 787,
      "crow": 788,
      "har": 789,
      "Rome": 790,
      "e; ": 791,
      "ish": 792,
      "nor ": 793,
      "ten": 794,
      "too": 795,
      "y! ": 796,
      "hear ": 797,
      "CORI": 798,
      "foo": 799,
      "now": 800,
      "y? ": 801,
      "there ": 802,
      "fair ": 803,
      "with the ": 804,
      "OLAN": 805,
      "speak ": 806,
      "CORIOLAN": 807,
      "ces": 808,
      "zen": 809,
      "llow": 810,
      "ity ": 811,
      "dau": 812,
      "ONT": 813,
      "CORIOLANUS: ": 814,
      "BA": 815,
      "on, ": 816,
      "red ": 817,
      "man: ": 818,
      "bloo": 819,
      "gar": 820,
      "you\r\n": 821,
      "co": 822,
      "e: ": 823,
      "e? ": 824,
      "ever ": 825,
      "not, ": 826,
      "by the ": 827,
      "gentle": 828,
      "KING RICHARD II": 829,
      "Lord ": 830,
      "bes": 831,
      "ment": 832,
      "tun": 833,
      "of my ": 834,
      "great ": 835,
      "Come, ": 836,
      "ving ": 837,
      "ys ": 838,
      "wif": 839,
      "st thou ": 840,
      "him, ": 841,
      "cur": 842,
      "us, ": 843,
      "War": 844,
      "bra": 845,
      "ge, ": 846,
      "row ": 847,
      "ence": 848,
      "it is ": 849,
      "INA: ": 850,
      "When ": 851,
      " they ": 852,
      "men ": 853,
      "being ": 854,
      "'t ": 855,
      "t; ": 856,
      "se\r\n": 857,
      "who ": 858,
      "Warwi": 859,
      "D: ": 860,
      "t? ": 861,
      "ster ": 862,
      "sweet ": 863,
      "KING RICHARD III: ": 864,
      "ie": 865,
      "ene": 866,
      "beg": 867,
      "eep": 868,
      "His ": 869,
      "Un": 870,
      "sla": 871,
      "for the ": 872,
      "before ": 873,
      "dis": 874,
      "thee, ": 875,
      "mean": 876,
      "id": 877,
      "swor": 878,
      "ence, ": 879,
      "ck, ": 880,
      "poor ": 881,
      "ongu": 882,
      "AD": 883,
      "car": 884,
      "e's ": 885,
      "l, ": 886,
      "tch": 887,
      "many ": 888,
      "cor": 889,
      "pow": 890,
      "with a ": 891,
      "comes ": 892,
      "Who ": 893,
      "RAN": 894,
      "tongu": 895,
      "s, and ": 896,
      "shall be ": 897,
      "cha": 898,
      "ought ": 899,
      " these ": 900,
      "And, ": 901,
      "hou": 902,
      "pur": 903,
      "se: ": 904,
      "ears ": 905,
      "day ": 906,
      "all the ": 907,
      "ABELL": 908,
      "ABELLA: ": 909,
      "JU": 910,
      "JULI": 911,
      "ISABELLA: ": 912,
      "Let ": 913,
      "e! ": 914,
      "ill": 915,
      "I do ": 916,
      "I would ": 917,
      "lee": 918,
      "'Tis ": 919,
      "LAD": 920,
      "cour": 921,
      "goo": 922,
      "kes ": 923,
      "ing\r\n": 924,
      "of his ": 925,
      "ENC": 926,
      "heart ": 927,
      "chil": 928,
      "LADY ": 929,
      "Bu": 930,
      "im": 931,
      "y's ": 932,
      "ings ": 933,
      "you have ": 934,
      "father ": 935,
      " OF ": 936,
      "In": 937,
      "Ser": 938,
      "wr": 939,
      "pas": 940,
      "leave ": 941,
      "Citi": 942,
      "dly ": 943,
      "hor": 944,
      "ine ": 945,
      "in this ": 946,
      " than ": 947,
      "litt": 948,
      "in my ": 949,
      "The": 950,
      "against ": 951,
      "What, ": 952,
      "Citizen": 953,
      "is, ": 954,
      "ign": 955,
      "prin": 956,
      "LEONT": 957,
      "LEONTES: ": 958,
      "VOL": 959,
      "cl": 960,
      "ul": 961,
      "er\r\n": 962,
      "ance ": 963,
      "hast ": 964,
      "ree ": 965,
      "d, and ": 966,
      "Than ": 967,
      "Nay, ": 968,
      "Pro": 969,
      "Sha": 970,
      "now, ": 971,
      "these ": 972,
      "cious ": 973,
      "ENCE: ": 974,
      "BR": 975,
      "grie": 976,
      "ment ": 977,
      "ant ": 978,
      "one, ": 979,
      "young": 980,
      "urder": 981,
      "Then ": 982,
      "honour": 983,
      "hel": 984,
      "kin": 985,
      "t! ": 986,
      "ree": 987,
      "spi": 988,
      "oul ": 989,
      "str": 990,
      "of your ": 991,
      "ghter": 992,
      "ir, ": 993,
      "cause ": 994,
      "JULIET: ": 995,
      "Be ": 996,
      "No, ": 997,
      "SIC": 998,
      "fir": 999,
      "va": 1000,
      "stand ": 1001,
      "high": 1002,
      "sub": 1003,
      "blood ": 1004,
      "KING EDW": 1005,
      "ARD IV": 1006,
      "Richar": 1007,
      "SICINIUS: ": 1008,
      "KING EDWARD IV": 1009,
      "Whi": 1010,
      "ke, ": 1011,
      "ts, ": 1012,
      "set ": 1013,
      "hop": 1014,
      "Not ": 1015,
      "RI": 1016,
      "will": 1017,
      "ght, ": 1018,
      "to-": 1019,
      "brother": 1020,
      "KING EDWARD IV: ": 1021,
      "TI": 1022,
      "Yor": 1023,
      "ting ": 1024,
      "arm": 1025,
      "in a ": 1026,
      "eep ": 1027,
      "Have ": 1028,
      "soul": 1029,
      "le\r\n": 1030,
      "friend": 1031,
      "LO: ": 1032,
      "so, ": 1033,
      "rep": 1034,
      "Thy ": 1035,
      "cont": 1036,
      " them ": 1037,
      "Ca": 1038,
      "IZ": 1039,
      "bear": 1040,
      "bur": 1041,
      "ive ": 1042,
      "m\r\n": 1043,
      "nes": 1044,
      "ETH": 1045,
      "both ": 1046,
      "ELIZ": 1047,
      "ABETH": 1048,
      "QUEEN ELIZ": 1049,
      "LUCIO: ": 1050,
      "QUEEN ELIZABETH": 1051,
      "hus": 1052,
      "ry, ": 1053,
      "ve\r\n": 1054,
      "true ": 1055,
      "look ": 1056,
      "Hen": 1057,
      "ly, ": 1058,
      "wo": 1059,
      "wha": 1060,
      "he is ": 1061,
      "come, ": 1062,
      "call": 1063,
      "lord, ": 1064,
      "peop": 1065,
      "GRE": 1066,
      "dd": 1067,
      "k\r\n": 1068,
      "roy": 1069,
      "comp": 1070,
      "name ": 1071,
      "little ": 1072,
      "QUEEN ELIZABETH: ": 1073,
      ",-- ": 1074,
      "happ": 1075,
      "ARD: ": 1076,
      "'er ": 1077,
      "MER": 1078,
      "Now, ": 1079,
      "Sa": 1080,
      "WAR": 1081,
      "WIC": 1082,
      "dou": 1083,
      "life ": 1084,
      "WARWIC": 1085,
      "CL": 1086,
      "ch, ": 1087,
      "KING HENRY ": 1088,
      "brother ": 1089,
      "KING HENRY V": 1090,
      "awa": 1091,
      "drea": 1092,
      "my lord, ": 1093,
      "put ": 1094,
      "win": 1095,
      "tal": 1096,
      "WARWICK: ": 1097,
      "Good ": 1098,
      "I, ": 1099,
      "Nur": 1100,
      "Now ": 1101,
      "bor": 1102,
      "could ": 1103,
      "h, ": 1104,
      "s to ": 1105,
      "to your ": 1106,
      "tell": 1107,
      "DUKE OF ": 1108,
      "KING RICHARD II: ": 1109,
      "PU": 1110,
      "PER": 1111,
      "ces ": 1112,
      "nat": 1113,
      "llow ": 1114,
      "fortun": 1115,
      "love": 1116,
      "CAPU": 1117,
      "two ": 1118,
      "crown": 1119,
      "Citizen: ": 1120,
      "CAPUL": 1121,
      "than": 1122,
      " than": 1123,
      "death ": 1124,
      "frien": 1125,
      "HAM": 1126,
      "CAPULET: ": 1127,
      "No ": 1128,
      "On": 1129,
      "dst ": 1130,
      "every ": 1131,
      "ff": 1132,
      "ill ": 1133,
      "int ": 1134,
      "st: ": 1135,
      "of a ": 1136,
      "in his ": 1137,
      "IAN": 1138,
      "Ou": 1139,
      "UT": 1140,
      "ding ": 1141,
      "ded ": 1142,
      "down": 1143,
      "sun": 1144,
      "wat": 1145,
      "from the ": 1146,
      "hold ": 1147,
      "BUC": 1148,
      "From": 1149,
      "TRAN": 1150,
      "bid ": 1151,
      "dra": 1152,
      "th\r\n": 1153,
      "I sa": 1154,
      "worl": 1155,
      "KINGHAM": 1156,
      "heav": 1157,
      "Shall ": 1158,
      "BUCKINGHAM": 1159,
      "TRANIO: ": 1160,
      "ft ": 1161,
      "hu": 1162,
      "sol": 1163,
      "sure ": 1164,
      "ore ": 1165,
      "is a ": 1166,
      "comm": 1167,
      "whose ": 1168,
      "wel": 1169,
      "might ": 1170,
      "BOL": 1171,
      "BRO": 1172,
      "am": 1173,
      "cen": 1174,
      "ced ": 1175,
      "clo": 1176,
      "den": 1177,
      "je": 1178,
      "; For ": 1179,
      "INGBRO": 1180,
      "HENRY BOL": 1181,
      "INGBROK": 1182,
      "HENRY BOLINGBROK": 1183,
      "bear ": 1184,
      "answ": 1185,
      "stra": 1186,
      "stru": 1187,
      "nothing ": 1188,
      "till ": 1189,
      "me to ": 1190,
      "spo": 1191,
      "qui": 1192,
      "look": 1193,
      "; th": 1194,
      "est": 1195,
      "upon": 1196,
      "if you ": 1197,
      "ESS": 1198,
      "o' the ": 1199,
      "' the ": 1200,
      "GAR": 1201,
      "King ": 1202,
      "Pe": 1203,
      "find ": 1204,
      "wea": 1205,
      "ard ": 1206,
      "stres": 1207,
      "ke of ": 1208,
      "grace ": 1209,
      "son, ": 1210,
      "pray ": 1211,
      "QUEEN MAR": 1212,
      "Well, ": 1213,
      "They ": 1214,
      "QUEEN MARGAR": 1215,
      "long ": 1216,
      "sur": 1217,
      "vir": 1218,
      "and, ": 1219,
      "Why ": 1220,
      "call ": 1221,
      "mis": 1222,
      "man, ": 1223,
      "Will ": 1224,
      "eyes ": 1225,
      "gentle ": 1226,
      "Clar": 1227,
      "daughter": 1228,
      "BRUT": 1229,
      "doub": 1230,
      "Our ": 1231,
      "BUCKINGHAM: ": 1232,
      "HENRY BOLINGBROKE: ": 1233,
      "BRUTUS: ": 1234,
      "done ": 1235,
      "ither ": 1236,
      "pu": 1237,
      "thee": 1238,
      "stri": 1239,
      "you are ": 1240,
      "ght\r\n": 1241,
      "master": 1242,
      "law": 1243,
      "fal": 1244,
      "There": 1245,
      "comfor": 1246,
      "young ": 1247,
      "Du": 1248,
      "GEL": 1249,
      "Yet ": 1250,
      "cous": 1251,
      "s' ": 1252,
      "reme": 1253,
      "ANGEL": 1254,
      "like a ": 1255,
      "myself": 1256,
      "MIL": 1257,
      "Nurse: ": 1258,
      "ANGELO: ": 1259,
      "ATH": 1260,
      "Ta": 1261,
      "cra": 1262,
      "cla": 1263,
      "get ": 1264,
      "pi": 1265,
      "slee": 1266,
      "thus ": 1267,
      "though ": 1268,
      "es; ": 1269,
      "to his ": 1270,
      "e, and ": 1271,
      "live ": 1272,
      "better ": 1273,
      "for a ": 1274,
      "think ": 1275,
      "Marci": 1276,
      "banish": 1277,
      "QUEEN MARGARET: ": 1278,
      "Bo": 1279,
      "CU": 1280,
      "Eng": 1281,
      "HOR": 1282,
      "hand ": 1283,
      "ses ": 1284,
      "honour ": 1285,
      "Thi": 1286,
      "at, ": 1287,
      "app": 1288,
      "pit": 1289,
      "ving": 1290,
      ": And ": 1291,
      "chan": 1292,
      "There ": 1293,
      "me; ": 1294,
      "else ": 1295,
      "dar": 1296,
      "ried ": 1297,
      "ARINA: ": 1298,
      "love, ": 1299,
      "heard ": 1300,
      "pos": 1301,
      "gracious ": 1302,
      "king, ": 1303,
      "such a ": 1304,
      "Do ": 1305,
      "KATH": 1306,
      "bri": 1307,
      "bla": 1308,
      "best ": 1309,
      "hol": 1310,
      "tre": 1311,
      "then": 1312,
      " thee": 1313,
      "and the ": 1314,
      "at the ": 1315,
      "eech ": 1316,
      "of this ": 1317,
      "conf": 1318,
      " thee, ": 1319,
      "still ": 1320,
      "KATHARINA: ": 1321,
      "Here ": 1322,
      "bus": 1323,
      "don ": 1324,
      "hour": 1325,
      "keep ": 1326,
      "long": 1327,
      "some": 1328,
      "ar ": 1329,
      "es: ": 1330,
      "att": 1331,
      "me? ": 1332,
      "well, ": 1333,
      "fec": 1334,
      "part ": 1335,
      ",--": 1336,
      "DUCH": 1337,
      "Li": 1338,
      "LUS: ": 1339,
      "pt ": 1340,
      "trea": 1341,
      "tim": 1342,
      "lad": 1343,
      "new ": 1344,
      "vill": 1345,
      "full ": 1346,
      "CALUS: ": 1347,
      "ESCALUS: ": 1348,
      "queen": 1349,
      "Ju": 1350,
      "Nor ": 1351,
      "dear ": 1352,
      "since ": 1353,
      "won": 1354,
      "makes ": 1355,
      "that I ": 1356,
      "tain": 1357,
      "heaven ": 1358,
      "stay ": 1359,
      "turn": 1360,
      "Duke of ": 1361,
      "Sir, ": 1362,
      "bal": 1363,
      "c ": 1364,
      "d-": 1365,
      "dow": 1366,
      "first ": 1367,
      "il ": 1368,
      "oa": 1369,
      "deli": 1370,
      "vere": 1371,
      "AND: ": 1372,
      "Hath ": 1373,
      "night ": 1374,
      "let me ": 1375,
      "voi": 1376,
      "If": 1377,
      "I thin": 1378,
      "Nor": 1379,
      "Up": 1380,
      "g ": 1381,
      "gen": 1382,
      "ged ": 1383,
      "once ": 1384,
      "I must ": 1385,
      "under": 1386,
      "sion ": 1387,
      "world ": 1388,
      "temp": 1389,
      "come to ": 1390,
      "trait": 1391,
      "From ": 1392,
      "Go ": 1393,
      "Pa": 1394,
      "gon": 1395,
      "sin": 1396,
      "ten ": 1397,
      "ort ": 1398,
      "show": 1399,
      "came ": 1400,
      "pati": 1401,
      "heaven": 1402,
      "rant ": 1403,
      "ousand ": 1404,
      "bring ": 1405,
      "Edward ": 1406,
      "royal ": 1407,
      "ESS OF ": 1408,
      "DUCHESS OF ": 1409,
      "Of": 1410,
      "fur": 1411,
      "ty, ": 1412,
      "as I ": 1413,
      "lau": 1414,
      "will be ": 1415,
      "myself ": 1416,
      "Provo": 1417,
      "FRI": 1418,
      "Re": 1419,
      "ds\r\n": 1420,
      "les ": 1421,
      "us\r\n": 1422,
      "e, And ": 1423,
      "lay ": 1424,
      "unc": 1425,
      "father, ": 1426,
      "ator": 1427,
      "AR ": 1428,
      "where": 1429,
      "death, ": 1430,
      "ROS": 1431,
      "CAMIL": 1432,
      "FRIAR ": 1433,
      "CAMILLO: ": 1434,
      "Are ": 1435,
      "Ty": 1436,
      "bit": 1437,
      "fla": 1438,
      "men, ": 1439,
      "ps ": 1440,
      "pher": 1441,
      "sent ": 1442,
      "thing": 1443,
      "has ": 1444,
      "est, ": 1445,
      "I know ": 1446,
      "to a ": 1447,
      "wilt ": 1448,
      "st\r\n": 1449,
      "s, And ": 1450,
      "fair": 1451,
      "offi": 1452,
      "devi": 1453,
      "sovere": 1454,
      "mber": 1455,
      "wrong": 1456,
      "KING HENRY VI: ": 1457,
      "virtu": 1458,
      "IA: ": 1459,
      "PTI": 1460,
      "She ": 1461,
      "TEN": 1462,
      "Would ": 1463,
      "cre": 1464,
      "ise ": 1465,
      "though": 1466,
      "reven": 1467,
      "spe": 1468,
      "me: ": 1469,
      "ce: ": 1470,
      "EL: ": 1471,
      "STA: ": 1472,
      "tion, ": 1473,
      "tion\r\n": 1474,
      "far ": 1475,
      "BAPTI": 1476,
      "But, ": 1477,
      "HORTEN": 1478,
      "busin": 1479,
      "BAPTISTA: ": 1480,
      "HORTENS": 1481,
      ".' ": 1482,
      "Come ": 1483,
      "Murder": 1484,
      "Sh": 1485,
      "xt ": 1486,
      "in your ": 1487,
      "ate, ": 1488,
      "mother": 1489,
      "own: ": 1490,
      "house ": 1491,
      "Thir": 1492,
      "HORTENSIO: ": 1493,
      "CUS: ": 1494,
      "Even ": 1495,
      "Gent": 1496,
      "More ": 1497,
      "TOL": 1498,
      "YCUS: ": 1499,
      "bi": 1500,
      "down ": 1501,
      "lou": 1502,
      "ning ": 1503,
      "other": 1504,
      "p, ": 1505,
      " then ": 1506,
      "hast": 1507,
      "star": 1508,
      "stran": 1509,
      "ook ": 1510,
      "you shall ": 1511,
      "ire ": 1512,
      "shalt ": 1513,
      "dam, ": 1514,
      "head ": 1515,
      "AUTOL": 1516,
      "speak": 1517,
      "deser": 1518,
      "about ": 1519,
      "woman": 1520,
      "father's ": 1521,
      "CLAR": 1522,
      "Third ": 1523,
      "AUTOLYCUS: ": 1524,
      "COM": 1525,
      "Le": 1526,
      "au": 1527,
      "gre": 1528,
      "prom": 1529,
      "tear": 1530,
      "ye": 1531,
      "that": 1532,
      "then, ": 1533,
      "eng": 1534,
      "che": 1535,
      "of thy ": 1536,
      "will not ": 1537,
      "word ": 1538,
      "dam": 1539,
      "With": 1540,
      "ghter ": 1541,
      "prou": 1542,
      "husban": 1543,
      "happy ": 1544,
      "villa": 1545,
      "COMINIUS: ": 1546,
      "'d\r\n": 1547,
      "NOR": 1548,
      "fee": 1549,
      "land ": 1550,
      "meet ": 1551,
      "te, ": 1552,
      "int": 1553,
      "on\r\n": 1554,
      "to make ": 1555,
      "; but ": 1556,
      "d, And ": 1557,
      "when": 1558,
      "holy ": 1559,
      "lieve ": 1560,
      "tongue ": 1561,
      "hope ": 1562,
      "BEN": 1563,
      "Con": 1564,
      "nee": 1565,
      "none ": 1566,
      "sing ": 1567,
      "wan": 1568,
      " those ": 1569,
      "die ": 1570,
      "them": 1571,
      "for my ": 1572,
      " them": 1573,
      "prove ": 1574,
      "please ": 1575,
      "VOLIO: ": 1576,
      "DUCHESS OF YORK: ": 1577,
      "CLARENCE: ": 1578,
      "BENVOLIO: ": 1579,
      "age ": 1580,
      "ge\r\n": 1581,
      "igh": 1582,
      "i' the ": 1583,
      "kis": 1584,
      "sit ": 1585,
      "weep": 1586,
      "is not ": 1587,
      "fai": 1588,
      "cei": 1589,
      "he's ": 1590,
      "seem": 1591,
      "EDWARD: ": 1592,
      "vant: ": 1593,
      "spiri": 1594,
      "MERCU": 1595,
      "MERCUTIO: ": 1596,
      "EY: ": 1597,
      "Here": 1598,
      "POM": 1599,
      "Were ": 1600,
      "ian": 1601,
      "led ": 1602,
      "ly\r\n": 1603,
      "ori": 1604,
      "; for ": 1605,
      "say, ": 1606,
      "whom ": 1607,
      "mistres": 1608,
      "rest ": 1609,
      "night": 1610,
      "life, ": 1611,
      "servi": 1612,
      "GRUM": 1613,
      "beau": 1614,
      "turn ": 1615,
      "Clown: ": 1616,
      "POMP": 1617,
      "GRUMIO: ": 1618,
      "Au": 1619,
      "Lu": 1620,
      "ber": 1621,
      "dang": 1622,
      "fear ": 1623,
      "only ": 1624,
      "with his ": 1625,
      "no more ": 1626,
      "justi": 1627,
      "LUCENTIO: ": 1628,
      "subje": 1629,
      "Murderer: ": 1630,
      "At ": 1631,
      "Com": 1632,
      "LAND: ": 1633,
      "PROS": 1634,
      "Te": 1635,
      "a th": 1636,
      "even ": 1637,
      "h ": 1638,
      "imp": 1639,
      "over": 1640,
      "ying ": 1641,
      "essen": 1642,
      "each ": 1643,
      "forth ": 1644,
      "its ": 1645,
      "words ": 1646,
      "by my ": 1647,
      "gain ": 1648,
      "ward ": 1649,
      "gainst ": 1650,
      "follow": 1651,
      "PERO: ": 1652,
      "PROSPERO: ": 1653,
      "Do": 1654,
      "LINA: ": 1655,
      "Mu": 1656,
      "MIO: ": 1657,
      "PAU": 1658,
      "bar": 1659,
      "gr": 1660,
      "gro": 1661,
      "ight ": 1662,
      "t-": 1663,
      "in\r\n": 1664,
      "hal": 1665,
      "stu": 1666,
      "fore, ": 1667,
      "he hath ": 1668,
      "right ": 1669,
      "t, and ": 1670,
      "as the ": 1671,
      "himself": 1672,
      "her, ": 1673,
      "here, ": 1674,
      "daughter ": 1675,
      "power ": 1676,
      "Servant: ": 1677,
      "GREMIO: ": 1678,
      "soldi": 1679,
      "Take ": 1680,
      "gener": 1681,
      "PAULINA: ": 1682,
      "Give ": 1683,
      "ling ": 1684,
      "n'd ": 1685,
      "o's ": 1686,
      "soul ": 1687,
      "tly ": 1688,
      "ere, ": 1689,
      "; But ": 1690,
      "lies ": 1691,
      "maj": 1692,
      "disp": 1693,
      "on my ": 1694,
      "said ": 1695,
      "INGS: ": 1696,
      "sir\r\n": 1697,
      "fellow": 1698,
      "STINGS: ": 1699,
      "merc": 1700,
      "HASTINGS: ": 1701,
      "Serving": 1702,
      "centi": 1703,
      "'t\r\n": 1704,
      "BER": 1705,
      "Go, ": 1706,
      "LAU": 1707,
      "Was ": 1708,
      "fol": 1709,
      "grow": 1710,
      "hun": 1711,
      "ken ": 1712,
      "kind ": 1713,
      "ves, ": 1714,
      "thr": 1715,
      "ess, ": 1716,
      "I should ": 1717,
      "I had ": 1718,
      "y, and ": 1719,
      "mill": 1720,
      "ter, ": 1721,
      "himself ": 1722,
      "toge": 1723,
      "My lord, ": 1724,
      "countr": 1725,
      "well\r\n": 1726,
      "beseech ": 1727,
      "childr": 1728,
      "kind": 1729,
      "FRIAR LAU": 1730,
      "Tybal": 1731,
      "Gentle": 1732,
      "esseng": 1733,
      "FRIAR LAUR": 1734,
      ",' ": 1735,
      "GON": 1736,
      "away ": 1737,
      "plu": 1738,
      "tow": 1739,
      "ouch": 1740,
      "in thy ": 1741,
      "is my ": 1742,
      "ing the ": 1743,
      "of our ": 1744,
      "not a ": 1745,
      "off ": 1746,
      "los": 1747,
      "Where": 1748,
      "ck'd ": 1749,
      "wife ": 1750,
      "Servingman: ": 1751,
      "Bol": 1752,
      "CLI": 1753,
      "FF": 1754,
      "Mon": 1755,
      "NIA: ": 1756,
      "Par": 1757,
      "St": 1758,
      "Tha": 1759,
      "cer": 1760,
      "ke\r\n": 1761,
      "kill": 1762,
      "mea": 1763,
      "nur": 1764,
      "o\r\n": 1765,
      "run": 1766,
      "tch ": 1767,
      "wre": 1768,
      "wear": 1769,
      "; I ": 1770,
      "rather ": 1771,
      "show ": 1772,
      "why ": 1773,
      "thou art ": 1774,
      "my lord\r\n": 1775,
      "thou, ": 1776,
      "thought ": 1777,
      "UMNIA: ": 1778,
      "VOLUMNIA: ": 1779,
      "Richard ": 1780,
      "Provost: ": 1781,
      "CLIFF": 1782,
      "ID": 1783,
      "l\r\n": 1784,
      "send ": 1785,
      "form": 1786,
      "Ange": 1787,
      "not the ": 1788,
      "left ": 1789,
      "save ": 1790,
      "atch": 1791,
      "mean ": 1792,
      "day, ": 1793,
      "morrow": 1794,
      "we have ": 1795,
      "mother ": 1796,
      "so\r\n": 1797,
      "THUM": 1798,
      "purpo": 1799,
      "friends ": 1800,
      "NORTHUM": 1801,
      "POMPEY: ": 1802,
      "BERLAND: ": 1803,
      "FRIAR LAURENCE: ": 1804,
      "NORTHUMBERLAND: ": 1805,
      "BY: ": 1806,
      "Har": 1807,
      "Su": 1808,
      "be, ": 1809,
      "dom ": 1810,
      "foul ": 1811,
      "ze ": 1812,
      ": but ": 1813,
      ": The ": 1814,
      "you? ": 1815,
      "ed to ": 1816,
      "t, And ": 1817,
      "unto ": 1818,
      "ne'er ": 1819,
      "cian": 1820,
      "duke ": 1821,
      "ign ": 1822,
      "joy ": 1823,
      "therefore ": 1824,
      "bloody ": 1825,
      "DUKE OF YORK: ": 1826,
      "Angelo": 1827,
      "All ": 1828,
      "Ala": 1829,
      "Clif": 1830,
      "Fran": 1831,
      "Her ": 1832,
      "PR": 1833,
      "ctor": 1834,
      "mbl": 1835,
      "n, ": 1836,
      "those ": 1837,
      "not\r\n": 1838,
      "fall ": 1839,
      "faul": 1840,
      "for his ": 1841,
      "tain ": 1842,
      "sil": 1843,
      "worthy ": 1844,
      "d; And ": 1845,
      "must be ": 1846,
      "mber ": 1847,
      "queen ": 1848,
      "Henry ": 1849,
      "times ": 1850,
      "Cliffor": 1851,
      "PRINC": 1852,
      "Ah, ": 1853,
      "Fa": 1854,
      "Gre": 1855,
      "IX": 1856,
      "POL": 1857,
      "T: ": 1858,
      "able ": 1859,
      "crea": 1860,
      "ed, ": 1861,
      "fit ": 1862,
      "lear": 1863,
      "s'd ": 1864,
      "vent": 1865,
      "woun": 1866,
      "oura": 1867,
      "es? ": 1868,
      "es! ": 1869,
      "I cannot ": 1870,
      "ingbro": 1871,
      "An ": 1872,
      "it be ": 1873,
      "ENES: ": 1874,
      "comman": 1875,
      "sure": 1876,
      "ANN": 1877,
      "told ": 1878,
      "igni": 1879,
      "pray": 1880,
      "fare": 1881,
      "Warwick ": 1882,
      "LADY ANN": 1883,
      "Bolingbro": 1884,
      "IXENES: ": 1885,
      "POLIXENES: ": 1886,
      "Cori": 1887,
      "La": 1888,
      "Pra": 1889,
      "Signi": 1890,
      "a, ": 1891,
      "bon": 1892,
      "col": 1893,
      "din": 1894,
      "ks, ": 1895,
      "another ": 1896,
      "to our ": 1897,
      "stor": 1898,
      "sting": 1899,
      "requ": 1900,
      "not be ": 1901,
      "let's ": 1902,
      "she": 1903,
      "bet": 1904,
      "with my ": 1905,
      "tal ": 1906,
      "Whose ": 1907,
      "do not ": 1908,
      "quar": 1909,
      "without ": 1910,
      "mind ": 1911,
      "pardon ": 1912,
      "ONE: ": 1913,
      "back": 1914,
      "back ": 1915,
      "got ": 1916,
      "prison": 1917,
      "present ": 1918,
      "death\r\n": 1919,
      "sovereign": 1920,
      "Signior ": 1921,
      "Rom": 1922,
      "dear": 1923,
      "ef": 1924,
      "fea": 1925,
      "gla": 1926,
      "hence ": 1927,
      "murder": 1928,
      "s are ": 1929,
      "instru": 1930,
      "I was ": 1931,
      "to thy ": 1932,
      "and my ": 1933,
      "last ": 1934,
      "believe ": 1935,
      "face ": 1936,
      "tagu": 1937,
      "entrea": 1938,
      "cap": 1939,
      "body ": 1940,
      "all, ": 1941,
      "pardon": 1942,
      "may be ": 1943,
      "You are ": 1944,
      "give me ": 1945,
      "help ": 1946,
      "high ": 1947,
      "traitor": 1948,
      "Montagu": 1949,
      "All": 1950,
      "Di": 1951,
      "Did ": 1952,
      "Jo": 1953,
      "Po": 1954,
      "Some ": 1955,
      "To": 1956,
      "dan": 1957,
      "de, ": 1958,
      "ecu": 1959,
      "how": 1960,
      "soun": 1961,
      "ty": 1962,
      "tend": 1963,
      "year": 1964,
      "are": 1965,
      "one\r\n": 1966,
      "lly ": 1967,
      "ll\r\n": 1968,
      "I can ": 1969,
      "to do ": 1970,
      "state ": 1971,
      "lie ": 1972,
      "light ": 1973,
      "ther\r\n": 1974,
      "deed ": 1975,
      "more, ": 1976,
      "lord": 1977,
      "does ": 1978,
      "swee": 1979,
      "king\r\n": 1980,
      "You have ": 1981,
      "hands ": 1982,
      "sorrow": 1983,
      "Romeo ": 1984,
      "fortune ": 1985,
      "false ": 1986,
      "Englan": 1987,
      "Should ": 1988,
      "; the ": 1989,
      "FID": 1990,
      "Messeng": 1991,
      "Sen": 1992,
      "again ": 1993,
      "boo": 1994,
      "ble": 1995,
      "ct": 1996,
      "dge ": 1997,
      "gat": 1998,
      "id, ": 1999,
      "ob": 2000,
      "swa": 2001,
      "ers, ": 2002,
      "I shall ": 2003,
      "I pray ": 2004,
      "no, ": 2005,
      "dish": 2006,
      "disc": 2007,
      "of th": 2008,
      "for your ": 2009,
      "spee": 2010,
      "def": 2011,
      "we'll ": 2012,
      "ORD: ": 2013,
      "swear ": 2014,
      "AUFID": 2015,
      "o'er": 2016,
      "Edward's ": 2017,
      "news ": 2018,
      "peace ": 2019,
      "ship ": 2020,
      "prince": 2021,
      "Like ": 2022,
      "Messenger: ": 2023,
      "AUFIDIUS: ": 2024,
      "Cap": 2025,
      "Clau": 2026,
      "She": 2027,
      "VER": 2028,
      "bir": 2029,
      "f, ": 2030,
      "is\r\n": 2031,
      "obe": 2032,
      "sk": 2033,
      "wri": 2034,
      "that, ": 2035,
      "ery ": 2036,
      "ins ": 2037,
      "sto": 2038,
      "choo": 2039,
      "lish ": 2040,
      "not to ": 2041,
      "that the ": 2042,
      "These ": 2043,
      "me! ": 2044,
      "cking": 2045,
      "him: ": 2046,
      "if I ": 2047,
      "brother, ": 2048,
      "guil": 2049,
      "God, ": 2050,
      "execu": 2051,
      "while ": 2052,
      "after ": 2053,
      "deed, ": 2054,
      "twent": 2055,
      "Warwick, ": 2056,
      "LADY CAPULET: ": 2057,
      "One ": 2058,
      "heavy ": 2059,
      "comfort ": 2060,
      "LADY ANNE: ": 2061,
      "Senator": 2062,
      "Claudi": 2063,
      "FL": 2064,
      "den ": 2065,
      "gg": 2066,
      "lar": 2067,
      "pen": 2068,
      "sent": 2069,
      "ini": 2070,
      "ink ": 2071,
      "ench": 2072,
      "is it ": 2073,
      "and his ": 2074,
      "cho": 2075,
      "for this ": 2076,
      "life": 2077,
      "lives ": 2078,
      "matter": 2079,
      "shor": 2080,
      "that you ": 2081,
      "consu": 2082,
      "cau": 2083,
      "lord ": 2084,
      "dead ": 2085,
      "prop": 2086,
      "issu": 2087,
      "Had ": 2088,
      "again\r\n": 2089,
      "Lord: ": 2090,
      "brought ": 2091,
      "ORIZ": 2092,
      "flow": 2093,
      "if thou ": 2094,
      "answer ": 2095,
      "FLORIZ": 2096,
      "Against ": 2097,
      "Glou": 2098,
      "ION": 2099,
      "I than": 2100,
      "TON": 2101,
      "cri": 2102,
      "ding": 2103,
      "fan": 2104,
      "ses": 2105,
      "tes": 2106,
      "woo": 2107,
      "tit": 2108,
      "master ": 2109,
      "sh'd ": 2110,
      "ity, ": 2111,
      "Though ": 2112,
      "ARI": 2113,
      "read": 2114,
      "man\r\n": 2115,
      "we are ": 2116,
      "qua": 2117,
      "bos": 2118,
      "sir; ": 2119,
      "let him ": 2120,
      "hang": 2121,
      "marri": 2122,
      "God's ": 2123,
      "ster, ": 2124,
      "May ": 2125,
      "streng": 2126,
      "what's ": 2127,
      "talk ": 2128,
      "Tell ": 2129,
      "Glouces": 2130,
      "!' ": 2131,
      "OW": 2132,
      "SE": 2133,
      "You": 2134,
      "ath": 2135,
      "dg": 2136,
      "frow": 2137,
      "he, ": 2138,
      "kne": 2139,
      "this": 2140,
      "ess\r\n": 2141,
      "you: ": 2142,
      "to have ": 2143,
      "to this ": 2144,
      "and a ": 2145,
      "will, ": 2146,
      "se; ": 2147,
      "better": 2148,
      "but a ": 2149,
      "sig": 2150,
      "way, ": 2151,
      "resol": 2152,
      "her\r\n": 2153,
      "play ": 2154,
      "thinks ": 2155,
      "First Citizen: ": 2156,
      "What's ": 2157,
      "ship": 2158,
      "Let me ": 2159,
      "Camill": 2160,
      "compan": 2161,
      "dream": 2162,
      "sleep": 2163,
      "that's ": 2164,
      "Shepher": 2165,
      "LE: ": 2166,
      "Mo": 2167,
      "b ": 2168,
      "bun": 2169,
      "ds: ": 2170,
      "ever": 2171,
      "gran": 2172,
      "hour ": 2173,
      "hous": 2174,
      "ken": 2175,
      "keep": 2176,
      "ut": 2177,
      "y'd ": 2178,
      "th the ": 2179,
      "inted ": 2180,
      "in their ": 2181,
      "ent, ": 2182,
      "ond ": 2183,
      "I did ": 2184,
      "I see ": 2185,
      "ste": 2186,
      "of her ": 2187,
      "he shall ": 2188,
      "he was ": 2189,
      "time, ": 2190,
      "you to ": 2191,
      "shoul": 2192,
      "why, ": 2193,
      "suc": 2194,
      "enter": 2195,
      "need ": 2196,
      "thou hast ": 2197,
      "ce; ": 2198,
      "upon the ": 2199,
      "bles": 2200,
      "dost ": 2201,
      "STIAN": 2202,
      "gods ": 2203,
      "should be ": 2204,
      "seem ": 2205,
      "sorrow ": 2206,
      "MARC": 2207,
      "crown ": 2208,
      "BASTIAN": 2209,
      "Warwick": 2210,
      "Bucking": 2211,
      "people ": 2212,
      "natu": 2213,
      "common ": 2214,
      "change ": 2215,
      "full of ": 2216,
      "Gentleman: ": 2217,
      "SEBASTIAN": 2218,
      "Buckingha": 2219,
      "Si": 2220,
      "Vol": 2221,
      "band ": 2222,
      "batt": 2223,
      "fin": 2224,
      "gol": 2225,
      "k'd ": 2226,
      "mou": 2227,
      "pity ": 2228,
      "pie": 2229,
      "tears ": 2230,
      "woul": 2231,
      "s the ": 2232,
      "erous ": 2233,
      " there": 2234,
      "hate ": 2235,
      "esty ": 2236,
      "in our ": 2237,
      "may": 2238,
      "ed with ": 2239,
      "ros": 2240,
      "it? ": 2241,
      "Then, ": 2242,
      "same ": 2243,
      "says ": 2244,
      "read ": 2245,
      "might": 2246,
      "up, ": 2247,
      "musi": 2248,
      "der, ": 2249,
      "duke": 2250,
      "RICHARD: ": 2251,
      "prince ": 2252,
      "content": 2253,
      "ffer": 2254,
      "draw": 2255,
      "I think ": 2256,
      "Norfol": 2257,
      "Senator: ": 2258,
      "MARCIUS: ": 2259,
      "Bes": 2260,
      "BION": 2261,
      "DELL": 2262,
      "Lan": 2263,
      "Tow": 2264,
      "bow": 2265,
      "ed\r\n": 2266,
      "fra": 2267,
      "free ": 2268,
      "x ": 2269,
      "is no ": 2270,
      "to see ": 2271,
      "wixt ": 2272,
      "live, ": 2273,
      "earth ": 2274,
      "es and ": 2275,
      "as you ": 2276,
      "have you ": 2277,
      "oft ": 2278,
      "ce? ": 2279,
      "ceive ": 2280,
      "lords, ": 2281,
      "ORD": 2282,
      "do you ": 2283,
      ": I am ": 2284,
      "more than ": 2285,
      "AUMER": 2286,
      "accu": 2287,
      "thine ": 2288,
      "blood, ": 2289,
      "husband ": 2290,
      "DUKE OF AUMER": 2291,
      "Lucenti": 2292,
      "twenty ": 2293,
      "SEBASTIAN: ": 2294,
      "BIONDELL": 2295,
      "BIONDELLO: ": 2296,
      "Bian": 2297,
      "On ": 2298,
      "bed ": 2299,
      "gone ": 2300,
      "mble ": 2301,
      "o! ": 2302,
      "sle": 2303,
      "ty\r\n": 2304,
      "tness ": 2305,
      "yself ": 2306,
      "three ": 2307,
      "s that ": 2308,
      "I may ": 2309,
      "wife": 2310,
      "om, ": 2311,
      "es of ": 2312,
      "late ": 2313,
      "fall": 2314,
      "Than": 2315,
      "Thus ": 2316,
      "sati": 2317,
      "lose ": 2318,
      "ready ": 2319,
      "will I ": 2320,
      "ce! ": 2321,
      "know, ": 2322,
      "bod": 2323,
      "fidi": 2324,
      "warrant ": 2325,
      "all\r\n": 2326,
      "from my ": 2327,
      "out of ": 2328,
      "let us ": 2329,
      "eye ": 2330,
      "place ": 2331,
      "scar": 2332,
      "after": 2333,
      "follow ": 2334,
      "beat ": 2335,
      "ield ": 2336,
      "enemi": 2337,
      "clou": 2338,
      "sun ": 2339,
      "Julie": 2340,
      "proud ": 2341,
      "Give me ": 2342,
      "tender ": 2343,
      "Lanca": 2344,
      "ALO: ": 2345,
      "HER": 2346,
      "OP": 2347,
      "ZALO: ": 2348,
      "emp": 2349,
      "glor": 2350,
      "ked ": 2351,
      "l: ": 2352,
      "o? ": 2353,
      "pe ": 2354,
      "ren": 2355,
      "sca": 2356,
      "val": 2357,
      "y-": 2358,
      "out": 2359,
      "inter": 2360,
      " there ": 2361,
      "stee": 2362,
      "sed, ": 2363,
      "he would ": 2364,
      "lic": 2365,
      "light": 2366,
      "as a ": 2367,
      "ite ": 2368,
      "it: ": 2369,
      "l of ": 2370,
      "loving ": 2371,
      "dem": 2372,
      "we will ": 2373,
      "ANTON": 2374,
      "selves ": 2375,
      "all my ": 2376,
      "was a ": 2377,
      ": I have ": 2378,
      "tty ": 2379,
      "name, ": 2380,
      "night, ": 2381,
      "advi": 2382,
      "ment, ": 2383,
      "queen, ": 2384,
      "friends, ": 2385,
      "heaven, ": 2386,
      "half ": 2387,
      "GONZALO: ": 2388,
      "Shepherd: ": 2389,
      "Most ": 2390,
      "ANTONIO: ": 2391,
      "'t, ": 2392,
      "Fare": 2393,
      "Rome ": 2394,
      "Tran": 2395,
      "abo": 2396,
      "brow": 2397,
      "cut ": 2398,
      "cru": 2399,
      "do, ": 2400,
      "e-": 2401,
      "e'er ": 2402,
      "hur": 2403,
      "ls ": 2404,
      "low": 2405,
      "roo": 2406,
      "years ": 2407,
      "thi": 2408,
      "in'd ": 2409,
      "ence\r\n": 2410,
      "to her ": 2411,
      "wish ": 2412,
      "chee": 2413,
      "he that ": 2414,
      "live": 2415,
      "on his ": 2416,
      "have I ": 2417,
      "say": 2418,
      "loved ": 2419,
      "pois": 2420,
      "known ": 2421,
      "no mor": 2422,
      "es, and ": 2423,
      "d; and ": 2424,
      "friar": 2425,
      "speak\r\n": 2426,
      "desire ": 2427,
      "own, ": 2428,
      "self, ": 2429,
      "looks ": 2430,
      "Marry, ": 2431,
      "breath": 2432,
      "wife, ": 2433,
      "honour, ": 2434,
      "brother's ": 2435,
      "York ": 2436,
      "born": 2437,
      "born ": 2438,
      "Petru": 2439,
      "quarre": 2440,
      "FLORIZEL: ": 2441,
      "DUKE OF AUMERLE: ": 2442,
      "HERMI": 2443,
      "Can ": 2444,
      "Ga": 2445,
      "JO": 2446,
      "LORD": 2447,
      "Per": 2448,
      "Pom": 2449,
      "Sir ": 2450,
      "Wel": 2451,
      "cry ": 2452,
      "dro": 2453,
      "go, ": 2454,
      "hence": 2455,
      "ious ": 2456,
      "ised ": 2457,
      "ish ": 2458,
      "ns ": 2459,
      "over ": 2460,
      "sing": 2461,
      "sci": 2462,
      "try ": 2463,
      "yield ": 2464,
      "you; ": 2465,
      "stat": 2466,
      "ch\r\n": 2467,
      "se! ": 2468,
      "lady ": 2469,
      "le: ": 2470,
      "letter": 2471,
      "she's ": 2472,
      "under ": 2473,
      "fav": 2474,
      "of their ": 2475,
      "lost ": 2476,
      "love\r\n": 2477,
      "mil": 2478,
      "mann": 2479,
      "mother, ": 2480,
      "usur": 2481,
      "grave ": 2482,
      "soon ": 2483,
      "hand, ": 2484,
      "charge ": 2485,
      "Make ": 2486,
      "break ": 2487,
      "deep ": 2488,
      "Romeo, ": 2489,
      "gentleman ": 2490,
      "grief ": 2491,
      "Say ": 2492,
      "something ": 2493,
      "Aufidi": 2494,
      "wretch": 2495,
      "Petruchi": 2496,
      "HERMIONE: ": 2497,
      "DIO: ": 2498,
      "DA: ": 2499,
      "HN": 2500,
      "I th": 2501,
      "Tu": 2502,
      "cold ": 2503,
      "city ": 2504,
      "dare ": 2505,
      "dness ": 2506,
      "found ": 2507,
      "gone, ": 2508,
      "home ": 2509,
      "kno": 2510,
      "mour": 2511,
      "tro": 2512,
      "ump": 2513,
      "enough": 2514,
      " thr": 2515,
      "; The ": 2516,
      "stea": 2517,
      "he had ": 2518,
      "liber": 2519,
      "rema": 2520,
      "not so ": 2521,
      "safe": 2522,
      "shall": 2523,
      "reason": 2524,
      "reason ": 2525,
      "sigh": 2526,
      "To the ": 2527,
      "day": 2528,
      "day\r\n": 2529,
      "him; ": 2530,
      "heart, ": 2531,
      "fight ": 2532,
      "fect ": 2533,
      "'twere ": 2534,
      "AUDIO: ": 2535,
      "serve ": 2536,
      "affec": 2537,
      "present": 2538,
      "done, ": 2539,
      "knows ": 2540,
      "Rich": 2541,
      "MIRAN": 2542,
      "brave ": 2543,
      "sworn ": 2544,
      "report ": 2545,
      "CLAUDIO: ": 2546,
      "quick": 2547,
      "Clarence ": 2548,
      "business ": 2549,
      "Herefor": 2550,
      "PRINCE ": 2551,
      "Pray ": 2552,
      "satis": 2553,
      "JOHN": 2554,
      "MIRANDA: ": 2555,
      "Me": 2556,
      "Sta": 2557,
      "Since ": 2558,
      "by, ": 2559,
      "brie": 2560,
      "kill ": 2561,
      "lin": 2562,
      "s; And ": 2563,
      "tin": 2564,
      "umber": 2565,
      "or, ": 2566,
      "ards ": 2567,
      " that": 2568,
      "hither ": 2569,
      "my good ": 2570,
      "lip": 2571,
      "sh, ": 2572,
      "come\r\n": 2573,
      "often ": 2574,
      "thou shalt ": 2575,
      "morrow ": 2576,
      "olan": 2577,
      "cks ": 2578,
      "him that ": 2579,
      "kna": 2580,
      "ble, ": 2581,
      "gave ": 2582,
      "here? ": 2583,
      "dost thou ": 2584,
      "al\r\n": 2585,
      "sir? ": 2586,
      "truth ": 2587,
      "king's ": 2588,
      "baw": 2589,
      "night\r\n": 2590,
      "friend ": 2591,
      " thou hast ": 2592,
      "First Murderer: ": 2593,
      "If you ": 2594,
      "Madam, ": 2595,
      "but, ": 2596,
      "Thou art ": 2597,
      "It is ": 2598,
      "Being ": 2599,
      "vanta": 2600,
      "trou": 2601,
      "tribun": 2602,
      "fearful ": 2603,
      "nature ": 2604,
      "world, ": 2605,
      "look'd ": 2606,
      "thee\r\n": 2607,
      "Therefore ": 2608,
      "deliver": 2609,
      "flatter": 2610,
      "CLIFFORD: ": 2611,
      "betwe": 2612,
      "Trani": 2613,
      "Richmon": 2614,
      "AG": 2615,
      "BU": 2616,
      "How": 2617,
      "Lon": 2618,
      "SON": 2619,
      "Till ": 2620,
      "de\r\n": 2621,
      "dst thou ": 2622,
      "fres": 2623,
      "iel": 2624,
      "k the ": 2625,
      "knew ": 2626,
      "ned ": 2627,
      "ture ": 2628,
      "d of ": 2629,
      "y and ": 2630,
      "in! ": 2631,
      "ll'd ": 2632,
      "to me ": 2633,
      "ing: ": 2634,
      "chang": 2635,
      "see, ": 2636,
      "he did ": 2637,
      "res ": 2638,
      "mai": 2639,
      "become ": 2640,
      "have been ": 2641,
      "ity\r\n": 2642,
      "sion": 2643,
      "side ": 2644,
      "To make ": 2645,
      "by your ": 2646,
      "man's ": 2647,
      "respe": 2648,
      "blow": 2649,
      "past ": 2650,
      "what is ": 2651,
      "cient ": 2652,
      "es, And ": 2653,
      "swear": 2654,
      "from his ": 2655,
      "Hasting": 2656,
      "ge: ": 2657,
      "land, ": 2658,
      "married ": 2659,
      "First Senator: ": 2660,
      "servan": 2661,
      "I will not ": 2662,
      "Margar": 2663,
      "Before ": 2664,
      " thine ": 2665,
      "Henr": 2666,
      "welcome ": 2667,
      "Such ": 2668,
      "Coriolan": 2669,
      "I thank ": 2670,
      "LORD ": 2671,
      "Bap": 2672,
      "CA: ": 2673,
      "IR": 2674,
      "IT": 2675,
      "Loo": 2676,
      "Mi": 2677,
      "Or": 2678,
      "Rome, ": 2679,
      "Spea": 2680,
      "TES": 2681,
      "ag": 2682,
      "care ": 2683,
      "dest ": 2684,
      "evi": 2685,
      "hoo": 2686,
      "hence, ": 2687,
      "ion": 2688,
      "ight": 2689,
      "san": 2690,
      "sma": 2691,
      "wee": 2692,
      "thousand ": 2693,
      "in: ": 2694,
      "I be ": 2695,
      "fore": 2696,
      "seen ": 2697,
      "rever": 2698,
      "in her ": 2699,
      "as he ": 2700,
      "law ": 2701,
      "bell": 2702,
      "dire": 2703,
      "unto the ": 2704,
      "shame ": 2705,
      "sum": 2706,
      "sup": 2707,
      "supp": 2708,
      "ent\r\n": 2709,
      "miser": 2710,
      "ds and ": 2711,
      "knee": 2712,
      "victor": 2713,
      "al, ": 2714,
      "procla": 2715,
      "am I ": 2716,
      "person": 2717,
      "us: ": 2718,
      "if he ": 2719,
      "she is ": 2720,
      "speak, ": 2721,
      "CATES": 2722,
      "gue ": 2723,
      "self\r\n": 2724,
      "again, ": 2725,
      "scor": 2726,
      "mine own ": 2727,
      "liege, ": 2728,
      "Because ": 2729,
      "stands ": 2730,
      "too, ": 2731,
      "Their ": 2732,
      "grief": 2733,
      "help": 2734,
      "York": 2735,
      "Saint ": 2736,
      "; there": 2737,
      "Marcius ": 2738,
      " thee\r\n": 2739,
      "kiss ": 2740,
      "house, ": 2741,
      "PRINCE EDWARD: ": 2742,
      "Bapti": 2743,
      "CATESBY: ": 2744,
      "Ge": 2745,
      "Mer": 2746,
      "NT: ": 2747,
      "bol": 2748,
      "bour": 2749,
      "cted ": 2750,
      "ction ": 2751,
      "cros": 2752,
      "dow ": 2753,
      "el ": 2754,
      "home": 2755,
      "im ": 2756,
      "ies ": 2757,
      "les": 2758,
      "mee": 2759,
      "near": 2760,
      "test ": 2761,
      "touch": 2762,
      "ult ": 2763,
      "ves": 2764,
      "ves\r\n": 2765,
      "thor": 2766,
      "t to ": 2767,
      "t of ": 2768,
      "er than ": 2769,
      "y to ": 2770,
      "ina": 2771,
      "into ": 2772,
      "you'll ": 2773,
      "to re": 2774,
      "wise ": 2775,
      "forth": 2776,
      "for thy ": 2777,
      "secre": 2778,
      "till": 2779,
      "y, And ": 2780,
      "your gra": 2781,
      "your grace ": 2782,
      "div": 2783,
      "dies ": 2784,
      "face, ": 2785,
      "sudd": 2786,
      "To be ": 2787,
      "wal": 2788,
      "cep": 2789,
      "move ": 2790,
      "him to ": 2791,
      "what a ": 2792,
      "one that ": 2793,
      "with thy ": 2794,
      "What is ": 2795,
      "so? ": 2796,
      "'twas ": 2797,
      "gover": 2798,
      "they are ": 2799,
      "honest ": 2800,
      "upon my ": 2801,
      "art thou ": 2802,
      "women ": 2803,
      "yourself ": 2804,
      "drun": 2805,
      "BAL": 2806,
      "Unless ": 2807,
      "prince, ": 2808,
      "BRA": 2809,
      "vali": 2810,
      "RIVER": 2811,
      "to-morrow": 2812,
      "content ": 2813,
      "GREY: ": 2814,
      "draw ": 2815,
      "strange ": 2816,
      "Must ": 2817,
      "pluck ": 2818,
      "That's ": 2819,
      "Roman": 2820,
      "dishon": 2821,
      "princely ": 2822,
      "Geor": 2823,
      "RIVERS: ": 2824,
      "'ld ": 2825,
      "Al": 2826,
      "BIAN": 2827,
      "BOW": 2828,
      "Ch": 2829,
      "Ex": 2830,
      "Ere ": 2831,
      "GAU": 2832,
      "Her": 2833,
      "Look ": 2834,
      "bound ": 2835,
      "cow": 2836,
      "cti": 2837,
      "cee": 2838,
      "clu": 2839,
      "et, ": 2840,
      "either ": 2841,
      "ima": 2842,
      "lst ": 2843,
      "ph": 2844,
      "pat": 2845,
      "in that ": 2846,
      "indeed ": 2847,
      "sty ": 2848,
      "chance ": 2849,
      "for that ": 2850,
      "rew": 2851,
      "earth": 2852,
      "shed ": 2853,
      "it not ": 2854,
      "it was ": 2855,
      "die\r\n": 2856,
      "didst ": 2857,
      "eeper": 2858,
      "ce of ": 2859,
      "of that ": 2860,
      "neither ": 2861,
      "days ": 2862,
      "mortal ": 2863,
      "him? ": 2864,
      "pair ": 2865,
      "what you ": 2866,
      "fie": 2867,
      "ELBOW": 2868,
      "would not ": 2869,
      "mine, ": 2870,
      "given ": 2871,
      "trust ": 2872,
      "you, sir, ": 2873,
      "hand": 2874,
      "eyes, ": 2875,
      "counter": 2876,
      "This is ": 2877,
      "Master ": 2878,
      "LIA: ": 2879,
      "go with ": 2880,
      "seek ": 2881,
      "men\r\n": 2882,
      "know the ": 2883,
      "fles": 2884,
      "sea ": 2885,
      "triump": 2886,
      "beggar": 2887,
      " OF GAU": 2888,
      "ness, ": 2889,
      "Clarence, ": 2890,
      "doubt ": 2891,
      "North": 2892,
      "subjec": 2893,
      "groun": 2894,
      "majest": 2895,
      "JOHN OF GAU": 2896,
      "SON: ": 2897,
      "BIANCA: ": 2898,
      " KING HENRY V": 2899,
      "3 KING HENRY V": 2900,
      "AS": 2901,
      "En": 2902,
      "Hor": 2903,
      "He's ": 2904,
      "Kat": 2905,
      "Lest ": 2906,
      "MONT": 2907,
      "Ox": 2908,
      "Sir": 2909,
      "TY": 2910,
      "Yes, ": 2911,
      "age, ": 2912,
      "cea": 2913,
      "cess ": 2914,
      "ces, ": 2915,
      "fre": 2916,
      "home, ": 2917,
      "l'd ": 2918,
      "nor": 2919,
      "nar": 2920,
      "oc": 2921,
      "rt ": 2922,
      "sound ": 2923,
      "wer": 2924,
      "er? ": 2925,
      ": and ": 2926,
      "enough ": 2927,
      "ary ": 2928,
      " thus ": 2929,
      "have, ": 2930,
      "to be": 2931,
      "and to ": 2932,
      "and your ": 2933,
      "ea, ": 2934,
      "ste ": 2935,
      "the king ": 2936,
      "not": 2937,
      "my heart ": 2938,
      "force ": 2939,
      "se? ": 2940,
      "recei": 2941,
      "earth, ": 2942,
      "ties ": 2943,
      "you must ": 2944,
      "as we ": 2945,
      "befor": 2946,
      "saf": 2947,
      "saw ": 2948,
      "for our ": 2949,
      "ta'": 2950,
      "suit": 2951,
      "Whom ": 2952,
      "next ": 2953,
      "cked ": 2954,
      "shall not ": 2955,
      "him! ": 2956,
      "heart\r\n": 2957,
      "what I ": 2958,
      "here\r\n": 2959,
      "here's ": 2960,
      "war ": 2961,
      "mine\r\n": 2962,
      "provo": 2963,
      "held ": 2964,
      "peti": 2965,
      "canst ": 2966,
      "mark ": 2967,
      "marry ": 2968,
      "plain": 2969,
      "life\r\n": 2970,
      "il, ": 2971,
      "pray, ": 2972,
      "time to ": 2973,
      "woman ": 2974,
      "Second Murderer: ": 2975,
      "tensi": 2976,
      "took ": 2977,
      "ment\r\n": 2978,
      "slau": 2979,
      "kins": 2980,
      "strong ": 2981,
      "straight ": 2982,
      "strike ": 2983,
      "cousin, ": 2984,
      "posses": 2985,
      "beauty ": 2986,
      "general ": 2987,
      "title ": 2988,
      "mighty ": 2989,
      "AGU": 2990,
      "Chri": 2991,
      "3 KING HENRY VI ": 2992,
      "Hortensi": 2993,
      "MONTAGU": 2994,
      "Oxfor": 2995,
      "'e": 2996,
      "'d; ": 2997,
      "'d: ": 2998,
      "Kath": 2999,
      "Pea": 3000,
      "Tru": 3001,
      "dru": 3002,
      "grant ": 3003,
      "por": 3004,
      "ring ": 3005,
      "s; and ": 3006,
      "ts\r\n": 3007,
      "ue ": 3008,
      "ink": 3009,
      ": I'll ": 3010,
      "est\r\n": 3011,
      "to take ": 3012,
      "and un": 3013,
      "; And, ": 3014,
      "ston": 3015,
      "sting ": 3016,
      "stoo": 3017,
      "th and ": 3018,
      "chur": 3019,
      "a man ": 3020,
      "sel ": 3021,
      "sever": 3022,
      "at your ": 3023,
      "right": 3024,
      "mali": 3025,
      "matter ": 3026,
      "rah, ": 3027,
      "unti": 3028,
      "with your ": 3029,
      "with her ": 3030,
      "that he ": 3031,
      "'d the ": 3032,
      "spa": 3033,
      "ded, ": 3034,
      "wall": 3035,
      "by his ": 3036,
      "shall I ": 3037,
      "poin": 3038,
      "pose ": 3039,
      "ours ": 3040,
      "both": 3041,
      "fiel": 3042,
      "almost ": 3043,
      "sir! ": 3044,
      "fellow ": 3045,
      "tting ": 3046,
      "us? ": 3047,
      "goes ": 3048,
      "say '": 3049,
      "when I ": 3050,
      "well: ": 3051,
      "appro": 3052,
      "therefore, ": 3053,
      "news? ": 3054,
      "Lord of ": 3055,
      "horse ": 3056,
      "fire ": 3057,
      "Richard, ": 3058,
      "cousin ": 3059,
      "remember ": 3060,
      "Let's ": 3061,
      "majesty ": 3062,
      "shepher": 3063,
      "entreat ": 3064,
      "tyran": 3065,
      "natura": 3066,
      "Northumber": 3067,
      "JOHN OF GAUNT: ": 3068,
      "Kathar": 3069,
      "AM": 3070,
      "AT": 3071,
      "Isa": 3072,
      "Pr": 3073,
      "Ra": 3074,
      "Sw": 3075,
      "ad ": 3076,
      "ala": 3077,
      "bli": 3078,
      "dom": 3079,
      "drow": 3080,
      "emb": 3081,
      "gri": 3082,
      "med ": 3083,
      "plan": 3084,
      "sin ": 3085,
      "smi": 3086,
      "slan": 3087,
      "swif": 3088,
      "ute ": 3089,
      "vol": 3090,
      "yiel": 3091,
      "thri": 3092,
      "ous, ": 3093,
      "inno": 3094,
      "ancient ": 3095,
      "en\r\n": 3096,
      " things ": 3097,
      "wis": 3098,
      "widow": 3099,
      "; and, ": 3100,
      "st? ": 3101,
      "er of ": 3102,
      "th of ": 3103,
      "not: ": 3104,
      "nothing": 3105,
      "rich ": 3106,
      "maid ": 3107,
      "madam, ": 3108,
      "as thou ": 3109,
      "le! ": 3110,
      "be the ": 3111,
      "die": 3112,
      "dig": 3113,
      "sad ": 3114,
      "common": 3115,
      " them, ": 3116,
      "hearts ": 3117,
      "ted, ": 3118,
      "dead, ": 3119,
      "would have ": 3120,
      ": I will ": 3121,
      "hemi": 3122,
      "ge! ": 3123,
      "extre": 3124,
      "which": 3125,
      "pretty ": 3126,
      "appar": 3127,
      "We are ": 3128,
      "Edward, ": 3129,
      "fool": 3130,
      "foot ": 3131,
      "now! ": 3132,
      "good, ": 3133,
      "against the ": 3134,
      "soul, ": 3135,
      "call'd ": 3136,
      "crown, ": 3137,
      "myself, ": 3138,
      "Bohemi": 3139,
      "possi": 3140,
      "hours ": 3141,
      "traitor ": 3142,
      "dangerous ": 3143,
      "justice ": 3144,
      "Doth ": 3145,
      "children ": 3146,
      "Stan": 3147,
      "Alas, ": 3148,
      "ELBOW: ": 3149,
      "MONTAGUE: ": 3150,
      "'s, ": 3151,
      "AL": 3152,
      "Away ": 3153,
      "Call ": 3154,
      "DIT": 3155,
      "GI": 3156,
      "Lo": 3157,
      "VIR": 3158,
      "ach": 3159,
      "bb": 3160,
      "bour ": 3161,
      "fit": 3162,
      "fly ": 3163,
      "foun": 3164,
      "gel": 3165,
      "ms ": 3166,
      "mper": 3167,
      "mpe": 3168,
      "tou": 3169,
      "vy ": 3170,
      "want ": 3171,
      "ye ": 3172,
      "e the ": 3173,
      "out\r\n": 3174,
      "ers\r\n": 3175,
      "indeed, ": 3176,
      "arm ": 3177,
      " this": 3178,
      " this, ": 3179,
      "on thy ": 3180,
      "having ": 3181,
      "wil": 3182,
      "; For": 3183,
      "nobl": 3184,
      "not? ": 3185,
      "for, ": 3186,
      "forget ": 3187,
      "of you ": 3188,
      "re\r\n": 3189,
      "you will ": 3190,
      "madam": 3191,
      "be a ": 3192,
      "beh": 3193,
      "it were ": 3194,
      "unt ": 3195,
      "ates": 3196,
      "loy": 3197,
      " them\r\n": 3198,
      "ck\r\n": 3199,
      "up the ": 3200,
      "shall we ": 3201,
      "ds of ": 3202,
      "point ": 3203,
      "pale ": 3204,
      "bold ": 3205,
      "parti": 3206,
      "Will": 3207,
      "ough the ": 3208,
      "me, and ": 3209,
      "heir ": 3210,
      "base ": 3211,
      "duty ": 3212,
      "go\r\n": 3213,
      "let them ": 3214,
      "tions ": 3215,
      "own\r\n": 3216,
      "counsel": 3217,
      "child ": 3218,
      "when he ": 3219,
      "How now, ": 3220,
      "there's ": 3221,
      " think ": 3222,
      "Well ": 3223,
      "We'll ": 3224,
      "Where is ": 3225,
      "now\r\n": 3226,
      "cess": 3227,
      "curse ": 3228,
      "goodly ": 3229,
      "pass ": 3230,
      "Which, ": 3231,
      "contin": 3232,
      "people, ": 3233,
      "PERDIT": 3234,
      "sure, ": 3235,
      "lawful ": 3236,
      "There's ": 3237,
      "rememb": 3238,
      "attend ": 3239,
      "If thou ": 3240,
      "gone\r\n": 3241,
      "deserved ": 3242,
      "Here's ": 3243,
      "That, ": 3244,
      "purpose ": 3245,
      "England's ": 3246,
      "Pompe": 3247,
      "between ": 3248,
      "Henry's ": 3249,
      "GILIA: ": 3250,
      "VIRGILIA: ": 3251,
      "PERDITA: ": 3252,
      "'st, ": 3253,
      "Af": 3254,
      "Ear": 3255,
      "Hea": 3256,
      "K: I ": 3257,
      "PARI": 3258,
      "So, ": 3259,
      "SET: ": 3260,
      "Wor": 3261,
      "Watch": 3262,
      "boun": 3263,
      "ble\r\n": 3264,
      "cure ": 3265,
      "fing": 3266,
      "near ": 3267,
      "rough ": 3268,
      "sy ": 3269,
      "sli": 3270,
      "tar": 3271,
      ": But ": 3272,
      "I could ": 3273,
      "st! ": 3274,
      "like": 3275,
      "return": 3276,
      "return ": 3277,
      "tive ": 3278,
      "you not ": 3279,
      "you do ": 3280,
      "you were ": 3281,
      "s, That ": 3282,
      "as they ": 3283,
      "ure, ": 3284,
      "be not ": 3285,
      "because ": 3286,
      "on a ": 3287,
      "fault ": 3288,
      "or else ": 3289,
      "with our ": 3290,
      "that is ": 3291,
      "'d my ": 3292,
      "loves ": 3293,
      "there, ": 3294,
      "but the ": 3295,
      "condem": 3296,
      "consci": 3297,
      "are you ": 3298,
      "sister": 3299,
      "sister ": 3300,
      "word, ": 3301,
      "by this ": 3302,
      "rest, ": 3303,
      "blu": 3304,
      "do\r\n": 3305,
      "citi": 3306,
      "ful": 3307,
      "all this ": 3308,
      "I'll be ": 3309,
      "desper": 3310,
      "I am a ": 3311,
      "open ": 3312,
      "QUEEN: ": 3313,
      "joy": 3314,
      "tell me, ": 3315,
      "MARIAN": 3316,
      "Second Citizen: ": 3317,
      "too\r\n": 3318,
      "LADY GREY: ": 3319,
      "ignor": 3320,
      "While ": 3321,
      "York, ": 3322,
      "what, ": 3323,
      "away\r\n": 3324,
      "friend, ": 3325,
      "I say, ": 3326,
      "spoke ": 3327,
      "black ": 3328,
      "wonder": 3329,
      "oath": 3330,
      "oath ": 3331,
      "Padu": 3332,
      "wilt thou ": 3333,
      "revenge ": 3334,
      "house of ": 3335,
      "needs ": 3336,
      "want": 3337,
      "service ": 3338,
      "beseech you, ": 3339,
      "nurse, ": 3340,
      "Gremi": 3341,
      "this? ": 3342,
      "embra": 3343,
      "PARIS: ": 3344,
      "MARIANA: ": 3345,
      "! the ": 3346,
      "Ab": 3347,
      "Can": 3348,
      "Gru": 3349,
      "He": 3350,
      "Ne": 3351,
      "Plan": 3352,
      "SL": 3353,
      "Say, ": 3354,
      "Ver": 3355,
      "a\r\n": 3356,
      "ama": 3357,
      "air ": 3358,
      "dful ": 3359,
      "ed": 3360,
      "fru": 3361,
      "free": 3362,
      "gir": 3363,
      "ily ": 3364,
      "ping ": 3365,
      "twi": 3366,
      "tless ": 3367,
      "vow": 3368,
      "this, ": 3369,
      "er's ": 3370,
      "an, ": 3371,
      "eni": 3372,
      "en the ": 3373,
      "ard, ": 3374,
      "hate": 3375,
      "have": 3376,
      "I say ": 3377,
      "and thy ": 3378,
      "witness ": 3379,
      "st, and ": 3380,
      "state, ": 3381,
      "Angel": 3382,
      "ghts ": 3383,
      "And so ": 3384,
      "me and ": 3385,
      "sho": 3386,
      "die, ": 3387,
      "itself ": 3388,
      "whence ": 3389,
      "sician": 3390,
      "To see ": 3391,
      "old, ": 3392,
      "man! ": 3393,
      "so much ": 3394,
      "quo": 3395,
      "viol": 3396,
      "pay ": 3397,
      "was the ": 3398,
      "head, ": 3399,
      "prosp": 3400,
      "ho! ": 3401,
      "us! ": 3402,
      "like the ": 3403,
      "hath been ": 3404,
      "make a ": 3405,
      "nay, ": 3406,
      "pp'd ": 3407,
      "my lord ": 3408,
      "how to ": 3409,
      "exce": 3410,
      "buy ": 3411,
      "See ": 3412,
      "Thou hast ": 3413,
      "'tis a ": 3414,
      "too much ": 3415,
      "We have ": 3416,
      "merry ": 3417,
      "ask ": 3418,
      "if the ": 3419,
      "father\r\n": 3420,
      "tell me ": 3421,
      "ments ": 3422,
      "ence? ": 3423,
      "strong": 3424,
      "weal": 3425,
      "sleep ": 3426,
      "Marcius, ": 3427,
      "banish'd ": 3428,
      "then? ": 3429,
      "uncle ": 3430,
      "Third Citizen: ": 3431,
      "yet, ": 3432,
      "seems ": 3433,
      "a thousand ": 3434,
      "mercy ": 3435,
      "kind of ": 3436,
      "toward ": 3437,
      "run ": 3438,
      "glas": 3439,
      "Too ": 3440,
      "Gloucester": 3441,
      "golden ": 3442,
      "Bianca": 3443,
      "valiant ": 3444,
      "wert ": 3445,
      "slaughter": 3446,
      "Grumi": 3447,
      "Planta": 3448,
      "Angelo ": 3449,
      " X": 3450,
      ":' ": 3451,
      "; that ": 3452,
      "Bar": 3453,
      "Could ": 3454,
      "De": 3455,
      "DOR": 3456,
      "Fri": 3457,
      "Ro": 3458,
      "WIS": 3459,
      "big": 3460,
      "cy ": 3461,
      "cing ": 3462,
      "cat": 3463,
      "ether ": 3464,
      "ges ": 3465,
      "ly": 3466,
      "moun": 3467,
      "sit": 3468,
      "ts": 3469,
      "s in ": 3470,
      "out, ": 3471,
      "er'd ": 3472,
      "ins, ": 3473,
      "ance, ": 3474,
      ": the ": 3475,
      "ends ": 3476,
      "hast thou ": 3477,
      "you! ": 3478,
      "and that ": 3479,
      "ing-": 3480,
      "wish": 3481,
      "stom": 3482,
      "stir": 3483,
      "ches ": 3484,
      "my father ": 3485,
      "form ": 3486,
      "of all ": 3487,
      "he will ": 3488,
      "you a ": 3489,
      "mad ": 3490,
      "as it ": 3491,
      "le's ": 3492,
      "dispo": 3493,
      "Thou": 3494,
      "coming ": 3495,
      "come; ": 3496,
      "shap": 3497,
      "suffer": 3498,
      "conqu": 3499,
      "wast ": 3500,
      "ways ": 3501,
      "mista": 3502,
      "man that ": 3503,
      "shall have ": 3504,
      "we may ": 3505,
      "this is ": 3506,
      "dog": 3507,
      "heal": 3508,
      "fetch ": 3509,
      "KING LE": 3510,
      "p of ": 3511,
      "mini": 3512,
      ": I would ": 3513,
      "vel ": 3514,
      "is't ": 3515,
      "true, ": 3516,
      "son\r\n": 3517,
      "heir": 3518,
      "like an ": 3519,
      "mple ": 3520,
      "still": 3521,
      "take the ": 3522,
      "well-": 3523,
      "adver": 3524,
      "done\r\n": 3525,
      "knowle": 3526,
      "just ": 3527,
      "o'er ": 3528,
      "peace, ": 3529,
      "God save ": 3530,
      "now? ": 3531,
      "cursed ": 3532,
      "means ": 3533,
      "pursu": 3534,
      "Henry, ": 3535,
      "thank": 3536,
      "down\r\n": 3537,
      "; then ": 3538,
      "daughter, ": 3539,
      "appear": 3540,
      "confess ": 3541,
      "ground ": 3542,
      "hund": 3543,
      "country's ": 3544,
      "measure ": 3545,
      "To-": 3546,
      "Capu": 3547,
      "obedi": 3548,
      "issue ": 3549,
      "bosom": 3550,
      "music ": 3551,
      "Look, ": 3552,
      "Or, ": 3553,
      "Speak ": 3554,
      "innoc": 3555,
      "Earl of ": 3556,
      "Watchman: ": 3557,
      "citizen": 3558,
      " XI: ": 3559,
      "WIS XI: ": 3560,
      "KING LEWIS XI: ": 3561,
      "Bro": 3562,
      "Cates": 3563,
      "I\r\n": 3564,
      "Kate, ": 3565,
      "Keeper": 3566,
      "LAR": 3567,
      "Man": 3568,
      "Mow": 3569,
      "Pri": 3570,
      "Pla": 3571,
      "Tur": 3572,
      "TIUS: ": 3573,
      "a-": 3574,
      "abro": 3575,
      "awhi": 3576,
      "blo": 3577,
      "bene": 3578,
      "des ": 3579,
      "ffi": 3580,
      "ilor": 3581,
      "ith, ": 3582,
      "k! ": 3583,
      "nu": 3584,
      "n\r\n": 3585,
      "od": 3586,
      "other, ": 3587,
      "per ": 3588,
      "pun": 3589,
      "schoo": 3590,
      "t'st ": 3591,
      "ught ": 3592,
      "vest ": 3593,
      "vel": 3594,
      "wind ": 3595,
      "thy": 3596,
      "are, ": 3597,
      "on: ": 3598,
      "llow, ": 3599,
      "esti": 3600,
      "you the ": 3601,
      "I not ": 3602,
      "I never ": 3603,
      "I fear": 3604,
      "stre": 3605,
      "stood ": 3606,
      "a very ": 3607,
      "like, ": 3608,
      "light, ": 3609,
      "maid": 3610,
      "lamb": 3611,
      "le; ": 3612,
      "le? ": 3613,
      "your high": 3614,
      "with me ": 3615,
      "them, ": 3616,
      "tale ": 3617,
      "table ": 3618,
      "spr": 3619,
      "spur": 3620,
      "will you ": 3621,
      "met ": 3622,
      "consent ": 3623,
      "case ": 3624,
      "sight": 3625,
      "deter": 3626,
      "way": 3627,
      "thou wilt ": 3628,
      "ques": 3629,
      "no man ": 3630,
      "gall": 3631,
      "est thou ": 3632,
      "five ": 3633,
      "alread": 3634,
      "with that ": 3635,
      "with this ": 3636,
      "prof": 3637,
      "trumpe": 3638,
      "broke ": 3639,
      "like to ": 3640,
      "'t: ": 3641,
      "let the ": 3642,
      "honoura": 3643,
      "place, ": 3644,
      "ended ": 3645,
      "take my ": 3646,
      "cuti": 3647,
      "give him ": 3648,
      "prepar": 3649,
      "bring": 3650,
      "presence ": 3651,
      "judg": 3652,
      "cover": 3653,
      "enem": 3654,
      "course ": 3655,
      "will\r\n": 3656,
      "arms ": 3657,
      "repor": 3658,
      "myself\r\n": 3659,
      "Both ": 3660,
      "offic": 3661,
      "office ": 3662,
      "sovereign ": 3663,
      "bids ": 3664,
      "promise ": 3665,
      "faith, ": 3666,
      "Aumer": 3667,
      "himself, ": 3668,
      "Tybalt, ": 3669,
      "towards ": 3670,
      "Clifford, ": 3671,
      "Faith, ": 3672,
      "learn ": 3673,
      "Joh": 3674,
      "defend ": 3675,
      "guilty ": 3676,
      "Norfolk, ": 3677,
      "Welcome, ": 3678,
      "fresh ": 3679,
      "; therefore ": 3680,
      "Isabe": 3681,
      "Sweet ": 3682,
      "SLY: ": 3683,
      "LARTIUS: ": 3684,
      "Mowbra": 3685,
      "Apo": 3686,
      "Dea": 3687,
      "EX": 3688,
      "Fir": 3689,
      "Fear ": 3690,
      "Lea": 3691,
      "Plea": 3692,
      "RTI": 3693,
      "Vin": 3694,
      "ation ": 3695,
      "cir": 3696,
      "dri": 3697,
      "dres": 3698,
      "dent ": 3699,
      "dnes": 3700,
      "ff ": 3701,
      "four": 3702,
      "ger ": 3703,
      "hood ": 3704,
      "ls, ": 3705,
      "low ": 3706,
      "lun": 3707,
      "les, ": 3708,
      "moo": 3709,
      "mit": 3710,
      "mour ": 3711,
      "plo": 3712,
      "ply ": 3713,
      "pul": 3714,
      "soo": 3715,
      "tom": 3716,
      "w, ": 3717,
      "wing": 3718,
      "wra": 3719,
      "wear ": 3720,
      "weep ": 3721,
      "yond ": 3722,
      "zed ": 3723,
      "threa": 3724,
      "things ": 3725,
      "inf": 3726,
      ": My ": 3727,
      "arri": 3728,
      " thou": 3729,
      " thousand ": 3730,
      "youth ": 3731,
      "I love ": 3732,
      "I warrant ": 3733,
      "to hear ": 3734,
      "eat ": 3735,
      "omer": 3736,
      "; I'll ": 3737,
      "sts ": 3738,
      "stro": 3739,
      "hither": 3740,
      "hide ": 3741,
      "not; ": 3742,
      "sei": 3743,
      "living ": 3744,
      "st of ": 3745,
      "ing to ": 3746,
      "may, ": 3747,
      "match": 3748,
      "not my ": 3749,
      "es are ": 3750,
      "led, ": 3751,
      "an un": 3752,
      "with him ": 3753,
      "with her": 3754,
      "with such ": 3755,
      "sage ": 3756,
      "said, ": 3757,
      "'d and ": 3758,
      "'d with ": 3759,
      "who": 3760,
      "consi": 3761,
      "sick": 3762,
      "sight ": 3763,
      "worse ": 3764,
      "neigh": 3765,
      "depu": 3766,
      "decei": 3767,
      "morn": 3768,
      "more\r\n": 3769,
      "lord\r\n": 3770,
      "him, and ": 3771,
      "hear, ": 3772,
      "posed ": 3773,
      "vie": 3774,
      "visit ": 3775,
      "here": 3776,
      "boy, ": 3777,
      "dead\r\n": 3778,
      "deadly ": 3779,
      "feit ": 3780,
      "ful, ": 3781,
      "fully ": 3782,
      ": I do ": 3783,
      ": I know ": 3784,
      "tten ": 3785,
      "person ": 3786,
      "king? ": 3787,
      "bad ": 3788,
      "ge? ": 3789,
      "tion: ": 3790,
      "should have ": 3791,
      "hand\r\n": 3792,
      "accoun": 3793,
      "my lord; ": 3794,
      "expe": 3795,
      "excu": 3796,
      "First Servingman: ": 3797,
      "priv": 3798,
      "prithee, ": 3799,
      "This is the ": 3800,
      "butch": 3801,
      "precious ": 3802,
      "PETER: ": 3803,
      "pleasure ": 3804,
      "Or else ": 3805,
      "hard ": 3806,
      "hear me ": 3807,
      "enemy ": 3808,
      "sword ": 3809,
      "child, ": 3810,
      "wrong ": 3811,
      "down, ": 3812,
      "Pedan": 3813,
      "Will you ": 3814,
      "CURTI": 3815,
      "Paul": 3816,
      "heavens ": 3817,
      "laugh": 3818,
      "virtue ": 3819,
      "cheer": 3820,
      "when the ": 3821,
      "mistress ": 3822,
      "subject ": 3823,
      "grown ": 3824,
      "wounds ": 3825,
      "marriage ": 3826,
      "Camillo, ": 3827,
      "blessed ": 3828,
      "Lancaster": 3829,
      "Farewell, ": 3830,
      "above ": 3831,
      "quarrel ": 3832,
      "quickly ": 3833,
      "vantage ": 3834,
      "BUR": 3835,
      "Baptista": 3836,
      "Mercuti": 3837,
      "Sirrah, ": 3838,
      "Peace, ": 3839,
      "quoth ": 3840,
      "hundred ": 3841,
      "Capule": 3842,
      "Keeper: ": 3843,
      "First, ": 3844,
      "CURTIS: ": 3845,
      "I' the ": 3846,
      "Put ": 3847,
      "RAT": 3848,
      "SAM": 3849,
      "age\r\n": 3850,
      "book ": 3851,
      "fy ": 3852,
      "hee": 3853,
      "lous ": 3854,
      "mur": 3855,
      "o; ": 3856,
      "o' ": 3857,
      "pare ": 3858,
      "r'd ": 3859,
      "s-": 3860,
      "ss ": 3861,
      "soft ": 3862,
      "zen ": 3863,
      "th: ": 3864,
      "thir": 3865,
      ", To ": 3866,
      "s for ": 3867,
      "ine, ": 3868,
      "in? ": 3869,
      "ined ": 3870,
      "one; ": 3871,
      "is he ": 3872,
      "you that ": 3873,
      "I know": 3874,
      "I am": 3875,
      "forward ": 3876,
      "set, ": 3877,
      "second ": 3878,
      "he be ": 3879,
      "live\r\n": 3880,
      "time\r\n": 3881,
      "you know ": 3882,
      "in all ": 3883,
      "me the ": 3884,
      "me a ": 3885,
      "lack ": 3886,
      "laid ": 3887,
      "be it ": 3888,
      "be\r\n": 3889,
      "behol": 3890,
      "fast ": 3891,
      "that thou ": 3892,
      "them\r\n": 3893,
      "'d in ": 3894,
      "of these ": 3895,
      "whom": 3896,
      "but that ": 3897,
      "conve": 3898,
      "cal": 3899,
      "rup": 3900,
      "depar": 3901,
      "day! ": 3902,
      "ANTI": 3903,
      "selv": 3904,
      "bless ": 3905,
      "ted\r\n": 3906,
      "teous ": 3907,
      "pair": 3908,
      "along": 3909,
      "sir: ": 3910,
      "with thee ": 3911,
      "ally ": 3912,
      "ved, ": 3913,
      "provi": 3914,
      "hot ": 3915,
      "sole": 3916,
      "make me ": 3917,
      " thou art ": 3918,
      "hands, ": 3919,
      "eye, ": 3920,
      "ils ": 3921,
      "venge": 3922,
      "think": 3923,
      "white ": 3924,
      "Made ": 3925,
      "greater ": 3926,
      "YORK: I ": 3927,
      "'st thou ": 3928,
      "it, and ": 3929,
      "Come, come, ": 3930,
      "ence! ": 3931,
      " they are ": 3932,
      "means to ": 3933,
      "power": 3934,
      "comes the ": 3935,
      "I would not ": 3936,
      "Citizens: ": 3937,
      "honour\r\n": 3938,
      "Which": 3939,
      "hope, ": 3940,
      "to-morrow ": 3941,
      "York\r\n": 3942,
      "name of ": 3943,
      "watch": 3944,
      "world\r\n": 3945,
      "answer": 3946,
      "nothing but ": 3947,
      "King of ": 3948,
      "Therefore, ": 3949,
      "English ": 3950,
      "confes": 3951,
      "queen's ": 3952,
      "I think, ": 3953,
      "shows ": 3954,
      "uncle, ": 3955,
      "More than ": 3956,
      "haste ": 3957,
      "Third Servingman: ": 3958,
      "faith": 3959,
      "spirit ": 3960,
      "together ": 3961,
      "children": 3962,
      "GONUS: ": 3963,
      "Stand ": 3964,
      "prayers ": 3965,
      "Bolingbroke ": 3966,
      "Lady ": 3967,
      "glad ": 3968,
      "succes": 3969,
      "Volsc": 3970,
      "wouldst ": 3971,
      "I thought ": 3972,
      "knock ": 3973,
      "Tranio, ": 3974,
      "imag": 3975,
      "ta'en ": 3976,
      "Pedant: ": 3977,
      "RATCLIFF": 3978,
      "SAMP": 3979,
      "ANTIGONUS: ": 3980,
      "'? ": 3981,
      "'re ": 3982,
      "Ba": 3983,
      "Des": 3984,
      "Fi": 3985,
      "Kate ": 3986,
      "Lad": 3987,
      "Rut": 3988,
      "Yet, ": 3989,
      "Yea, ": 3990,
      "air": 3991,
      "ach ": 3992,
      "cun": 3993,
      "ctu": 3994,
      "ds! ": 3995,
      "ele": 3996,
      "ed: ": 3997,
      "gene": 3998,
      "gree": 3999,
      "hom": 4000,
      "ion ": 4001,
      "jest ": 4002,
      "mn": 4003,
      "mit ": 4004,
      "oli": 4005,
      "wis ": 4006,
      "e to ": 4007,
      "ouri": 4008,
      "int, ": 4009,
      "encoun": 4010,
      "arti": 4011,
      "hadst ": 4012,
      "is this ": 4013,
      "I were ": 4014,
      "to me, ": 4015,
      "to give ": 4016,
      "e, fi": 4017,
      "ing? ": 4018,
      "st; ": 4019,
      "sted ": 4020,
      "stly ": 4021,
      "hither, ": 4022,
      "cher": 4023,
      "chol": 4024,
      "forced ": 4025,
      "of it\r\n": 4026,
      "sely ": 4027,
      "early ": 4028,
      "oof": 4029,
      "ed and ": 4030,
      "as well ": 4031,
      "late": 4032,
      "le-": 4033,
      "leg": 4034,
      "leis": 4035,
      "shar": 4036,
      "behold ": 4037,
      "your good ": 4038,
      "un ": 4039,
      "it; ": 4040,
      "Thom": 4041,
      "Think ": 4042,
      "sac": 4043,
      "of, ": 4044,
      "who, ": 4045,
      "for her ": 4046,
      "tation ": 4047,
      "shake ": 4048,
      "shame, ": 4049,
      "suff": 4050,
      "but not ": 4051,
      "condi": 4052,
      "contra": 4053,
      "constan": 4054,
      "conclu": 4055,
      "cast": 4056,
      "are the ": 4057,
      "side, ": 4058,
      "To have ": 4059,
      "wedd": 4060,
      "weigh": 4061,
      "was, ": 4062,
      "morning ": 4063,
      "man; ": 4064,
      "man? ": 4065,
      "we shall ": 4066,
      "lord? ": 4067,
      "ANLE": 4068,
      "moved ": 4069,
      "selves, ": 4070,
      "teen ": 4071,
      "paw": 4072,
      "from this ": 4073,
      "war, ": 4074,
      "STANLE": 4075,
      "true\r\n": 4076,
      "grave": 4077,
      "As I ": 4078,
      "kingdom ": 4079,
      "so; ": 4080,
      "name? ": 4081,
      "must I ": 4082,
      "speaks ": 4083,
      "mbly ": 4084,
      "stay\r\n": 4085,
      "guard ": 4086,
      "plain ": 4087,
      "take it ": 4088,
      "counten": 4089,
      "counsel ": 4090,
      "First Lord: ": 4091,
      "see the ": 4092,
      "How now! ": 4093,
      "affor": 4094,
      "well; ": 4095,
      "men's ": 4096,
      "kept ": 4097,
      "pleasure": 4098,
      "off, ": 4099,
      "news, ": 4100,
      "if they ": 4101,
      "Second Servingman: ": 4102,
      "foolish ": 4103,
      "now the ": 4104,
      "gentlemen, ": 4105,
      "tune ": 4106,
      "wife\r\n": 4107,
      "ence; ": 4108,
      "begin ": 4109,
      "mean, ": 4110,
      "I do not ": 4111,
      "name is ": 4112,
      "nature, ": 4113,
      "than the ": 4114,
      "bid me ": 4115,
      "humble ": 4116,
      "close ": 4117,
      "weak ": 4118,
      "crave ": 4119,
      "queen\r\n": 4120,
      "tempt ": 4121,
      "bitter ": 4122,
      "virtuous ": 4123,
      "speed ": 4124,
      "author": 4125,
      "villain ": 4126,
      "together, ": 4127,
      "Tybalt ": 4128,
      "certain ": 4129,
      "mbling ": 4130,
      "PRINCE: ": 4131,
      "venture ": 4132,
      "Corioli": 4133,
      "sovereign, ": 4134,
      "Montague, ": 4135,
      "choose ": 4136,
      "ARIEL: ": 4137,
      "strength ": 4138,
      "play the ": 4139,
      "Besid": 4140,
      "friar, ": 4141,
      "Hastings, ": 4142,
      "small ": 4143,
      "secret ": 4144,
      "TYBAL": 4145,
      "occa": 4146,
      "extrem": 4147,
      "Plantagene": 4148,
      "Mantu": 4149,
      "Vincenti": 4150,
      "'er": 4151,
      "'gainst ": 4152,
      ";' ": 4153,
      "Awa": 4154,
      "BIS": 4155,
      "Fe": 4156,
      "Hel": 4157,
      "Hear ": 4158,
      "HOP": 4159,
      "KEN": 4160,
      "Mine ": 4161,
      "Out ": 4162,
      "Somer": 4163,
      "Tw": 4164,
      "amb": 4165,
      "bran": 4166,
      "cli": 4167,
      "ct, ": 4168,
      "cit": 4169,
      "ces\r\n": 4170,
      "cried ": 4171,
      "coura": 4172,
      "ds; ": 4173,
      "ely ": 4174,
      "eous ": 4175,
      "four ": 4176,
      "fran": 4177,
      "fine ": 4178,
      "fond ": 4179,
      "grow ": 4180,
      "lest ": 4181,
      "leng": 4182,
      "ming ": 4183,
      "mir": 4184,
      "mend ": 4185,
      "pin": 4186,
      "p\r\n": 4187,
      "piti": 4188,
      "s't ": 4189,
      "tes ": 4190,
      "tee": 4191,
      "te\r\n": 4192,
      "tent": 4193,
      "were, ": 4194,
      "wench": 4195,
      "throw": 4196,
      "indee": 4197,
      "in these ": 4198,
      "infec": 4199,
      ": 'Tis ": 4200,
      "or: ": 4201,
      "order": 4202,
      "order ": 4203,
      " though": 4204,
      " then, ": 4205,
      "I dare ": 4206,
      "to their ": 4207,
      "stop": 4208,
      "my hear": 4209,
      "my brother ": 4210,
      "my gracious ": 4211,
      "my master ": 4212,
      "a little ": 4213,
      "lity ": 4214,
      "at my ": 4215,
      "rew ": 4216,
      "reign": 4217,
      "Anti": 4218,
      "gho": 4219,
      "rich": 4220,
      "right, ": 4221,
      "in of ": 4222,
      "And yet ": 4223,
      "me of ": 4224,
      "me with ": 4225,
      "lamen": 4226,
      "lean": 4227,
      "shin": 4228,
      "your wor": 4229,
      "your honour ": 4230,
      "died ": 4231,
      "faced ": 4232,
      "with all ": 4233,
      "with you\r\n": 4234,
      "sake, ": 4235,
      "of those ": 4236,
      "ther than ": 4237,
      "medi": 4238,
      "condu": 4239,
      "contr": 4240,
      "cast ": 4241,
      "sick ": 4242,
      "worth ": 4243,
      "words, ": 4244,
      "much": 4245,
      "we were ": 4246,
      "hearing ": 4247,
      "do I ": 4248,
      "post ": 4249,
      "our'd ": 4250,
      "what thou ": 4251,
      "fill": 4252,
      "always ": 4253,
      "warran": 4254,
      "head\r\n": 4255,
      "fellow, ": 4256,
      "leave, ": 4257,
      "full": 4258,
      "would be ": 4259,
      "all that ": 4260,
      "My gracious ": 4261,
      "I'll not ": 4262,
      "prote": 4263,
      "procee": 4264,
      "use, ": 4265,
      "ts and ": 4266,
      "hath made ": 4267,
      "make the ": 4268,
      "'twixt ": 4269,
      "they have ": 4270,
      "land\r\n": 4271,
      "marrie": 4272,
      "marry, ": 4273,
      "He hath ": 4274,
      "how he ": 4275,
      "say you ": 4276,
      "give my ": 4277,
      "First Gentleman: ": 4278,
      "breathe ": 4279,
      "breath ": 4280,
      "affair": 4281,
      "preva": 4282,
      "'Twas ": 4283,
      "THOM": 4284,
      "angry ": 4285,
      "'d, and ": 4286,
      "gentleman, ": 4287,
      "power, ": 4288,
      "house": 4289,
      "willing": 4290,
      "Cai": 4291,
      "dream ": 4292,
      "could not ": 4293,
      "love's ": 4294,
      "Once ": 4295,
      "I saw ": 4296,
      "might have ": 4297,
      "deni": 4298,
      "deny ": 4299,
      "upon thy ": 4300,
      "master, ": 4301,
      "claim": 4302,
      "pier": 4303,
      "Do you ": 4304,
      " thee: ": 4305,
      "lady, ": 4306,
      "Juli": 4307,
      "wonder ": 4308,
      "Are you ": 4309,
      "I know not ": 4310,
      "Come on, ": 4311,
      "mother's ": 4312,
      "woman, ": 4313,
      "feel ": 4314,
      "prove a ": 4315,
      "impri": 4316,
      "groan": 4317,
      "kill'd ": 4318,
      "weary ": 4319,
      "mean to ": 4320,
      "France ": 4321,
      "Clifford ": 4322,
      "Poor ": 4323,
      "choi": 4324,
      "consul": 4325,
      "talk of ": 4326,
      "entertain": 4327,
      "battle ": 4328,
      "Petruchio, ": 4329,
      "Pray you, ": 4330,
      "Methinks ": 4331,
      "How! ": 4332,
      "London ": 4333,
      "Margare": 4334,
      "Mistres": 4335,
      "BRAKEN": 4336,
      "field ": 4337,
      "flesh ": 4338,
      "natural ": 4339,
      "Katharin": 4340,
      "dieu": 4341,
      "Stanle": 4342,
      "touch ": 4343,
      "conscience ": 4344,
      "Veron": 4345,
      "Please ": 4346,
      "vengeance ": 4347,
      "sacred ": 4348,
      "STANLEY: ": 4349,
      "TYBALT: ": 4350,
      "BISHOP": 4351,
      "BRAKENBUR": 4352,
      "BISHOP OF ": 4353,
      " M": 4354,
      " O": 4355,
      "?' ": 4356,
      "Art ": 4357,
      "Bon": 4358,
      "Bid ": 4359,
      "Cous": 4360,
      "DER": 4361,
      "GOR": 4362,
      "Hi": 4363,
      "Here, ": 4364,
      "I'ld ": 4365,
      "Men": 4366,
      "Na": 4367,
      "Pi": 4368,
      "Qu": 4369,
      "RESS": 4370,
      "Ti": 4371,
      "abu": 4372,
      "cup": 4373,
      "dry ": 4374,
      "fle": 4375,
      "jea": 4376,
      "jour": 4377,
      "l the ": 4378,
      "mer ": 4379,
      "rou": 4380,
      "ting": 4381,
      "used ": 4382,
      "utter": 4383,
      "yon": 4384,
      "thing, ": 4385,
      "in; ": 4386,
      "in's ": 4387,
      "incl": 4388,
      "ant, ": 4389,
      "orac": 4390,
      "envi": 4391,
      " that, ": 4392,
      "ons ": 4393,
      "onoun": 4394,
      "is your ": 4395,
      "I pray, ": 4396,
      "and not ": 4397,
      "eal ": 4398,
      "widow ": 4399,
      "stin": 4400,
      "note ": 4401,
      "noise ": 4402,
      "forgot ": 4403,
      "sed\r\n": 4404,
      "he were ": 4405,
      "lix": 4406,
      "! O ": 4407,
      "you may ": 4408,
      "rician": 4409,
      "in good ": 4410,
      "me to the ": 4411,
      "she, ": 4412,
      "your lord": 4413,
      "roar": 4414,
      "fatal ": 4415,
      "have the ": 4416,
      "that she ": 4417,
      "spar": 4418,
      "n of ": 4419,
      "sua": 4420,
      "enter ": 4421,
      "When": 4422,
      "but to ": 4423,
      "but my ": 4424,
      "mely ": 4425,
      "The king ": 4426,
      "sion, ": 4427,
      "word\r\n": 4428,
      "deb": 4429,
      "thou li": 4430,
      "ck-": 4431,
      "much\r\n": 4432,
      "him and ": 4433,
      "That thou ": 4434,
      "quit ": 4435,
      "quite ": 4436,
      "vile ": 4437,
      "pain": 4438,
      "what we ": 4439,
      "from thy ": 4440,
      "boy ": 4441,
      "both, ": 4442,
      "fight": 4443,
      "few ": 4444,
      "lead ": 4445,
      "least ": 4446,
      "leaves ": 4447,
      "STRESS": 4448,
      "hope": 4449,
      "gives ": 4450,
      "perform": 4451,
      "perceive ": 4452,
      "us; ": 4453,
      "ts are ": 4454,
      "truth, ": 4455,
      "What is the ": 4456,
      "son: ": 4457,
      "king: ": 4458,
      "king! ": 4459,
      "out the ": 4460,
      "he'll ": 4461,
      "bastar": 4462,
      "duke, ": 4463,
      "let it ": 4464,
      "tion; ": 4465,
      "I have heard ": 4466,
      "langu": 4467,
      "despit": 4468,
      "hand: ": 4469,
      "had been ": 4470,
      "march ": 4471,
      "some other ": 4472,
      "He that ": 4473,
      "open": 4474,
      "practi": 4475,
      "which, ": 4476,
      "Lord, ": 4477,
      "time of ": 4478,
      "join": 4479,
      "don, ": 4480,
      "jud": 4481,
      "It shall be ": 4482,
      "there? ": 4483,
      "MISTRESS": 4484,
      "new-": 4485,
      "assi": 4486,
      "tell you ": 4487,
      "tell him ": 4488,
      "Where is the ": 4489,
      "death? ": 4490,
      "harm": 4491,
      "slain ": 4492,
      "idle ": 4493,
      "house\r\n": 4494,
      "court ": 4495,
      "passing ": 4496,
      "leave to ": 4497,
      "woe ": 4498,
      "GREGOR": 4499,
      "ddle ": 4500,
      "royal": 4501,
      "winter": 4502,
      "thank ": 4503,
      " than the ": 4504,
      "water ": 4505,
      "watch ": 4506,
      "struck ": 4507,
      "quiet ": 4508,
      "upon this ": 4509,
      "daughter\r\n": 4510,
      "doubt, ": 4511,
      "thee? ": 4512,
      "appear ": 4513,
      "lady's ": 4514,
      "voices ": 4515,
      "Upon the ": 4516,
      "Of the ": 4517,
      "devil": 4518,
      "busines": 4519,
      "woman's ": 4520,
      "Lewis ": 4521,
      "promised ": 4522,
      "Without ": 4523,
      "justice, ": 4524,
      "Comini": 4525,
      "Musician": 4526,
      "dispatch": 4527,
      "Angelo, ": 4528,
      "farewell\r\n": 4529,
      "All: ": 4530,
      "Capit": 4531,
      "VERD": 4532,
      "Against the ": 4533,
      "You, ": 4534,
      "Buckingham, ": 4535,
      "Sici": 4536,
      "Vols": 4537,
      "slew ": 4538,
      "cruel ": 4539,
      "usurp": 4540,
      "Aufidius, ": 4541,
      "trouble ": 4542,
      "sudden ": 4543,
      "George ": 4544,
      "cowar": 4545,
      "Christi": 4546,
      "tyrann": 4547,
      "swift ": 4548,
      "Barnar": 4549,
      "school": 4550,
      "honourable ": 4551,
      "Apoll": 4552,
      "murder ": 4553,
      "SAMPSON: ": 4554,
      "encounter ": 4555,
      " OVERD": 4556,
      "MISTRESS OVERD": 4557,
      "'s\r\n": 4558,
      "'d? ": 4559,
      "Ac": 4560,
      "Away, ": 4561,
      "CH": 4562,
      "Car": 4563,
      "El": 4564,
      "Either ": 4565,
      "Gra": 4566,
      "Grea": 4567,
      "Ho": 4568,
      "Hun": 4569,
      "MON": 4570,
      "OX": 4571,
      "RR": 4572,
      "Res": 4573,
      "SOM": 4574,
      "Vi": 4575,
      "avo": 4576,
      "b, ": 4577,
      "bs ": 4578,
      "bly ": 4579,
      "bears ": 4580,
      "blee": 4581,
      "ca ": 4582,
      "dy, ": 4583,
      "dur": 4584,
      "equ": 4585,
      "fought ": 4586,
      "ger": 4587,
      "gli": 4588,
      "ither": 4589,
      "k? ": 4590,
      "kest ": 4591,
      "ner": 4592,
      "ola": 4593,
      "ron": 4594,
      "sof": 4595,
      "sbur": 4596,
      "sits ": 4597,
      "scep": 4598,
      "to, ": 4599,
      "tran": 4600,
      "vow ": 4601,
      "we, ": 4602,
      "wof": 4603,
      "e my ": 4604,
      "inher": 4605,
      "iness ": 4606,
      "into the ": 4607,
      "instan": 4608,
      "another": 4609,
      "end, ": 4610,
      "end\r\n": 4611,
      "ari": 4612,
      "art, ": 4613,
      "one: ": 4614,
      "I a": 4615,
      "I tell": 4616,
      "and I ": 4617,
      "and be ": 4618,
      "and so ": 4619,
      "wicked ": 4620,
      "; Or ": 4621,
      "stit": 4622,
      "my liege, ": 4623,
      "for their ": 4624,
      "a ta": 4625,
      "of such ": 4626,
      "he com": 4627,
      "he has ": 4628,
      "? DUKE VINCENTIO: ": 4629,
      "at thy ": 4630,
      "tic": 4631,
      "tire": 4632,
      "titu": 4633,
      "main": 4634,
      "rag": 4635,
      "rage ": 4636,
      "rasca": 4637,
      "not thy ": 4638,
      "not this ": 4639,
      "es to ": 4640,
      "ladi": 4641,
      "lace ": 4642,
      "last, ": 4643,
      "urs": 4644,
      "sheep": 4645,
      "be so ": 4646,
      "it is": 4647,
      "unt, ": 4648,
      "an a": 4649,
      "an old ": 4650,
      "face\r\n": 4651,
      "fashi": 4652,
      "have no ": 4653,
      "Thurs": 4654,
      "atter": 4655,
      "of them ": 4656,
      "loath": 4657,
      "whether ": 4658,
      "ther: ": 4659,
      "suit ": 4660,
      "but one ": 4661,
      "me; And ": 4662,
      "rust ": 4663,
      "sion\r\n": 4664,
      "sister, ": 4665,
      "six ": 4666,
      "simple ": 4667,
      "worst ": 4668,
      "work ": 4669,
      "depo": 4670,
      "dam ": 4671,
      "by a ": 4672,
      "cept ": 4673,
      "mili": 4674,
      "cking ": 4675,
      "ERSET: ": 4676,
      "ET: I ": 4677,
      "poster": 4678,
      "blow ": 4679,
      "tedi": 4680,
      "pal": 4681,
      "her: ": 4682,
      "doom": 4683,
      "ongst ": 4684,
      "fire": 4685,
      "fiery ": 4686,
      "all his ": 4687,
      "p to ": 4688,
      "allow": 4689,
      "ts of ": 4690,
      "grace, ": 4691,
      "if it ": 4692,
      "were a ": 4693,
      "sons ": 4694,
      "so: ": 4695,
      "soon": 4696,
      "Having ": 4697,
      "due ": 4698,
      "nam": 4699,
      "I have done ": 4700,
      "RICHMON": 4701,
      "desc": 4702,
      "desi": 4703,
      "design": 4704,
      "despair": 4705,
      "I am not ": 4706,
      "stay, ": 4707,
      "acqua": 4708,
      "which is ": 4709,
      "now I ": 4710,
      "place\r\n": 4711,
      "plague ": 4712,
      "my lords, ": 4713,
      "my lord? ": 4714,
      "il'd ": 4715,
      "ending ": 4716,
      "expres": 4717,
      "country ": 4718,
      "whilst ": 4719,
      "GLOUCESTER": 4720,
      "to be a ": 4721,
      "See, ": 4722,
      "upon your ": 4723,
      "So many ": 4724,
      "foll": 4725,
      "prepare ": 4726,
      "preser": 4727,
      "done! ": 4728,
      "It is a ": 4729,
      "Why, then ": 4730,
      "River": 4731,
      "deeds ": 4732,
      "mone": 4733,
      "standing ": 4734,
      "up your ": 4735,
      "troo": 4736,
      "aslee": 4737,
      "For this ": 4738,
      "death! ": 4739,
      "drin": 4740,
      "blood\r\n": 4741,
      "ments, ": 4742,
      "it is a ": 4743,
      "'t please ": 4744,
      "slave, ": 4745,
      "before the ": 4746,
      "sword, ": 4747,
      "tongue, ": 4748,
      "ill-": 4749,
      "courtes": 4750,
      "In the ": 4751,
      "Indeed, ": 4752,
      "grief, ": 4753,
      "spira": 4754,
      "spici": 4755,
      "cause to ": 4756,
      "first, ": 4757,
      "Whilst ": 4758,
      "arms\r\n": 4759,
      "souls ": 4760,
      "friends\r\n": 4761,
      "bear the ": 4762,
      "woo ": 4763,
      "company ": 4764,
      "crown\r\n": 4765,
      "commend ": 4766,
      "They are ": 4767,
      "call him ": 4768,
      "master's ": 4769,
      "dark ": 4770,
      "bride": 4771,
      "times, ": 4772,
      "that I may ": 4773,
      "deliver ": 4774,
      "Offi": 4775,
      "further ": 4776,
      "wherefore ": 4777,
      "aught ": 4778,
      "promi": 4779,
      "husband, ": 4780,
      "villain, ": 4781,
      " those that ": 4782,
      "weeping ": 4783,
      "over-": 4784,
      "soldiers ": 4785,
      "through the ": 4786,
      ",' quoth ": 4787,
      "former ": 4788,
      "told me ": 4789,
      "Signior Gremi": 4790,
      "I pray thee, ": 4791,
      "prophe": 4792,
      "company\r\n": 4793,
      "grand": 4794,
      "mouth": 4795,
      "Bianca ": 4796,
      "Juliet, ": 4797,
      "poison ": 4798,
      "Aufidius ": 4799,
      "wretched ": 4800,
      "presently ": 4801,
      "kneel ": 4802,
      "phy": 4803,
      "before\r\n": 4804,
      "Hortensio, ": 4805,
      "church": 4806,
      "slander": 4807,
      "Heaven ": 4808,
      "desperate ": 4809,
      "wanton ": 4810,
      "twice ": 4811,
      "excell": 4812,
      "disposi": 4813,
      "circu": 4814,
      "RATCLIFF: ": 4815,
      "leisure ": 4816,
      "Thomas ": 4817,
      "Caius ": 4818,
      "Meneni": 4819,
      "GREGORY: ": 4820,
      "Capitol": 4821,
      "MISTRESS OVERDONE: ": 4822,
      "OXF": 4823,
      "SOMERSET: ": 4824,
      "RICHMOND: ": 4825,
      "'d! ": 4826,
      "AE": 4827,
      "Am ": 4828,
      "AMIL": 4829,
      "Co": 4830,
      "LIUS: ": 4831,
      "Myself ": 4832,
      "MAMIL": 4833,
      "Never ": 4834,
      "VAL": 4835,
      "Y: I ": 4836,
      "adieu": 4837,
      "bre": 4838,
      "ball": 4839,
      "bend ": 4840,
      "bid": 4841,
      "d'": 4842,
      "d: I ": 4843,
      "d-- ": 4844,
      "even": 4845,
      "fli": 4846,
      "fro": 4847,
      "jur": 4848,
      "kes, ": 4849,
      "len": 4850,
      "ly; ": 4851,
      "ms, ": 4852,
      "nea": 4853,
      "ror ": 4854,
      "sou": 4855,
      "ses, ": 4856,
      "sant ": 4857,
      "ton": 4858,
      "tti": 4859,
      "tent ": 4860,
      "ts! ": 4861,
      "twel": 4862,
      "vent ": 4863,
      "wol": 4864,
      "y; and ": 4865,
      "thro": 4866,
      "th, and ": 4867,
      "thing\r\n": 4868,
      "eri": 4869,
      "ers: ": 4870,
      "y the ": 4871,
      "ance\r\n": 4872,
      "ench ": 4873,
      "are\r\n": 4874,
      "on this ": 4875,
      "on their ": 4876,
      "hate, ": 4877,
      "to him\r\n": 4878,
      "and her ": 4879,
      "eaf": 4880,
      "easy ": 4881,
      "ing; ": 4882,
      "; That ": 4883,
      "stone ": 4884,
      "stree": 4885,
      "the matter": 4886,
      "the gods ": 4887,
      "hit ": 4888,
      "my noble ": 4889,
      "my poor ": 4890,
      "of us ": 4891,
      "seven ": 4892,
      "he not ": 4893,
      "he should ": 4894,
      "? And ": 4895,
      "lived ": 4896,
      "lips ": 4897,
      "like\r\n": 4898,
      "at his ": 4899,
      "! What ": 4900,
      "ries ": 4901,
      "in mine ": 4902,
      "maid, ": 4903,
      "ed my ": 4904,
      "ed by ": 4905,
      "short ": 4906,
      "shrew": 4907,
      "bed, ": 4908,
      "your own ": 4909,
      "it to ": 4910,
      "it should ": 4911,
      "rotten ": 4912,
      "divi": 4913,
      "differ": 4914,
      "an in": 4915,
      "ce and ": 4916,
      "it! ": 4917,
      "Though": 4918,
      "compas": 4919,
      "atswa": 4920,
      "loa": 4921,
      "whol": 4922,
      "for some ": 4923,
      "shall, ": 4924,
      "spor": 4925,
      "suffi": 4926,
      "Who, ": 4927,
      "will have ": 4928,
      "work, ": 4929,
      "necess": 4930,
      "deman": 4931,
      "thou dost ": 4932,
      "mid": 4933,
      "ck the ": 4934,
      "ck? ": 4935,
      "shall you ": 4936,
      "much, ": 4937,
      "lords ": 4938,
      "AN: ": 4939,
      "mock ": 4940,
      "ERIA: ": 4941,
      "ETER: ": 4942,
      "temper": 4943,
      "no less ": 4944,
      "top": 4945,
      "cial ": 4946,
      "But what ": 4947,
      "eless ": 4948,
      "both\r\n": 4949,
      "us to ": 4950,
      "alter": 4951,
      "along ": 4952,
      "alone, ": 4953,
      "alone\r\n": 4954,
      "already ": 4955,
      "ward, ": 4956,
      "warm ": 4957,
      "heads ": 4958,
      "withal ": 4959,
      "fell ": 4960,
      "part, ": 4961,
      "give": 4962,
      "de the ": 4963,
      "peri": 4964,
      "grace": 4965,
      "if she ": 4966,
      "if it be ": 4967,
      "broken ": 4968,
      "from your ": 4969,
      "from her ": 4970,
      "son? ": 4971,
      "king; ": 4972,
      "kingly ": 4973,
      "hell": 4974,
      "hath a ": 4975,
      "Ha! ": 4976,
      "Happ": 4977,
      "ge; ": 4978,
      "petu": 4979,
      "duke\r\n": 4980,
      "nal ": 4981,
      "hang ": 4982,
      "had not ": 4983,
      "ously ": 4984,
      "He is ": 4985,
      "proof": 4986,
      "pronoun": 4987,
      "il\r\n": 4988,
      "exi": 4989,
      "opini": 4990,
      "such as ": 4991,
      "ABHOR": 4992,
      "give you ": 4993,
      "privi": 4994,
      "prison, ": 4995,
      "I will be ": 4996,
      "breath, ": 4997,
      "any thing ": 4998,
      "upon his ": 4999,
      "Is it ": 5000,
      "abi": 5001,
      "What! ": 5002,
      "thou the ": 5003,
      "fares ": 5004,
      "offer ": 5005,
      "where is ": 5006,
      "peace\r\n": 5007,
      "For, ": 5008,
      "sea, ": 5009,
      "yours, ": 5010,
      "Romeo! ": 5011,
      "tender": 5012,
      "fool ": 5013,
      "there is ": 5014,
      "besee": 5015,
      "ence: ": 5016,
      "men are ": 5017,
      "disda": 5018,
      "ides ": 5019,
      "carry ": 5020,
      "Let us ": 5021,
      "good\r\n": 5022,
      "In this ": 5023,
      "honours ": 5024,
      "ree-": 5025,
      "firm": 5026,
      "burn": 5027,
      "what? ": 5028,
      "away! ": 5029,
      "I, that ": 5030,
      "fortunes ": 5031,
      "Shall I ": 5032,
      "humbly ": 5033,
      "welcome, ": 5034,
      "weap": 5035,
      "law, ": 5036,
      "remember": 5037,
      "get thee ": 5038,
      "There is ": 5039,
      "bright ": 5040,
      "holds ": 5041,
      "Here comes ": 5042,
      "show'd ": 5043,
      "patience ": 5044,
      "tears, ": 5045,
      "damned ": 5046,
      "husband\r\n": 5047,
      "danger": 5048,
      "impor": 5049,
      "himself\r\n": 5050,
      "mercy, ": 5051,
      "kindness ": 5052,
      "Where's ": 5053,
      "morrow, ": 5054,
      "Alack, ": 5055,
      "France, ": 5056,
      "Bolingbroke": 5057,
      "Pray, ": 5058,
      "story ": 5059,
      "betwixt ": 5060,
      "Polix": 5061,
      "speech": 5062,
      "Claudio ": 5063,
      "penit": 5064,
      "sentence ": 5065,
      "Gloucester, ": 5066,
      "OWBRA": 5067,
      "piece of ": 5068,
      "scarce ": 5069,
      "clouds ": 5070,
      "Tut, ": 5071,
      "troubl": 5072,
      "Richmond ": 5073,
      "proclaim": 5074,
      "govern": 5075,
      "Hermi": 5076,
      "AS M": 5077,
      "Oxford, ": 5078,
      "several ": 5079,
      "wisdom ": 5080,
      "remembran": 5081,
      "punish": 5082,
      "determin": 5083,
      "EXETER: ": 5084,
      "whole ": 5085,
      "consider": 5086,
      "suffer ": 5087,
      "Besides, ": 5088,
      "THOMAS M": 5089,
      "imprison": 5090,
      "DERBY: ": 5091,
      "Musician: ": 5092,
      "wofu": 5093,
      "circum": 5094,
      "OXFORD: ": 5095,
      "MAMILLIUS: ": 5096,
      "VALERIA: ": 5097,
      "ABHORSON: ": 5098,
      "Polixen": 5099,
      "THOMAS MOWBRA": 5100,
      ":--": 5101,
      "Ad": 5102,
      "Bion": 5103,
      "Coun": 5104,
      "E: I ": 5105,
      "HY: ": 5106,
      "Hold, ": 5107,
      "Ja": 5108,
      "Lo, ": 5109,
      "Might ": 5110,
      "MOP": 5111,
      "Nap": 5112,
      "Rea": 5113,
      "SA: ": 5114,
      "She is ": 5115,
      "SHY: ": 5116,
      "ax": 5117,
      "bree": 5118,
      "coo": 5119,
      "coul": 5120,
      "cer: ": 5121,
      "cle, ": 5122,
      "catch": 5123,
      "d--": 5124,
      "d'st ": 5125,
      "eful ": 5126,
      "fer": 5127,
      "fon": 5128,
      "gor": 5129,
      "gle": 5130,
      "gru": 5131,
      "k: ": 5132,
      "k; ": 5133,
      "ling": 5134,
      "lend ": 5135,
      "less, ": 5136,
      "none, ": 5137,
      "pil": 5138,
      "ry\r\n": 5139,
      "sour ": 5140,
      "sme": 5141,
      "smoo": 5142,
      "tea": 5143,
      "ts: ": 5144,
      "t; and ": 5145,
      "ty; ": 5146,
      "teach ": 5147,
      "vour": 5148,
      "year ": 5149,
      "throw ": 5150,
      ", That ": 5151,
      "ous\r\n": 5152,
      "intell": 5153,
      "enjo": 5154,
      "ard\r\n": 5155,
      "ary\r\n": 5156,
      "argu": 5157,
      "had, ": 5158,
      "ester": 5159,
      "es' ": 5160,
      "est: ": 5161,
      "you th": 5162,
      "I can": 5163,
      "I hear ": 5164,
      "I might ": 5165,
      "I fear ": 5166,
      "I charge ": 5167,
      "I beseech you, ": 5168,
      "to wa": 5169,
      "to thee ": 5170,
      "to put ": 5171,
      "and as ": 5172,
      "wit ": 5173,
      "wild ": 5174,
      "wither": 5175,
      "stir ": 5176,
      "the world ": 5177,
      "the duke ": 5178,
      "th to ": 5179,
      "ve to ": 5180,
      "my sweet ": 5181,
      "a word ": 5182,
      "of mine ": 5183,
      "of you\r\n": 5184,
      "se-": 5185,
      "seen": 5186,
      "lia": 5187,
      "lion ": 5188,
      "at once ": 5189,
      "reh": 5190,
      "refu": 5191,
      "regi": 5192,
      "earth\r\n": 5193,
      "you and ": 5194,
      "you would ": 5195,
      "you can ": 5196,
      "d, but ": 5197,
      "right\r\n": 5198,
      "in and ": 5199,
      "in Padu": 5200,
      "mad": 5201,
      "mak": 5202,
      "mas": 5203,
      "making ": 5204,
      "And I ": 5205,
      "And make ": 5206,
      "me not, ": 5207,
      "es of the ": 5208,
      "as my ": 5209,
      "labour ": 5210,
      "lex": 5211,
      "lets ": 5212,
      "letter ": 5213,
      "been": 5214,
      "becomes ": 5215,
      "beyond ": 5216,
      "it is the ": 5217,
      "on your ": 5218,
      "fam": 5219,
      "fain ": 5220,
      "fair, ": 5221,
      "have we ": 5222,
      "with him\r\n": 5223,
      "that my ": 5224,
      "ited ": 5225,
      "say\r\n": 5226,
      "'d to ": 5227,
      "ARCH": 5228,
      "of\r\n": 5229,
      "lover": 5230,
      "shame": 5231,
      "there\r\n": 5232,
      "spend ": 5233,
      "real": 5234,
      "suspici": 5235,
      "methinks ": 5236,
      "consent": 5237,
      "cam": 5238,
      "are they ": 5239,
      "rude ": 5240,
      "word: ": 5241,
      "dell": 5242,
      "ded\r\n": 5243,
      "devo": 5244,
      "dagg": 5245,
      "by their ": 5246,
      "ceed ": 5247,
      "old\r\n": 5248,
      "ter\r\n": 5249,
      "mul": 5250,
      "hearted ": 5251,
      "quie": 5252,
      "our\r\n": 5253,
      "painted ": 5254,
      "what news? ": 5255,
      "toa": 5256,
      "here; ": 5257,
      "hereaf": 5258,
      "door": 5259,
      "do? ": 5260,
      "But that ": 5261,
      "fix": 5262,
      "wars ": 5263,
      "all your ": 5264,
      "head": 5265,
      "withal\r\n": 5266,
      "part": 5267,
      "party ": 5268,
      "vell": 5269,
      "ved\r\n": 5270,
      "persua": 5271,
      "perpetu": 5272,
      "if we ": 5273,
      "she was ": 5274,
      "hell ": 5275,
      "he? ": 5276,
      "ck of ": 5277,
      "make thee ": 5278,
      "bas": 5279,
      "dull ": 5280,
      "go: ": 5281,
      "going ": 5282,
      "gold ": 5283,
      "let her ": 5284,
      "hands\r\n": 5285,
      "act ": 5286,
      "action ": 5287,
      "which he ": 5288,
      "my lord: ": 5289,
      "endure ": 5290,
      "how now, ": 5291,
      "ope ": 5292,
      "charged ": 5293,
      "scen": 5294,
      "First Servant: ": 5295,
      "If she ": 5296,
      "May": 5297,
      "Marsha": 5298,
      "HENRY PER": 5299,
      "foe ": 5300,
      "fold ": 5301,
      "advan": 5302,
      "made a ": 5303,
      "Is this ": 5304,
      "men! ": 5305,
      "thou? ": 5306,
      "know'st ": 5307,
      "way to ": 5308,
      "o'clo": 5309,
      "sense ": 5310,
      "senator": 5311,
      "THAS": 5312,
      "cannot be ": 5313,
      "Believe ": 5314,
      "offen": 5315,
      "offence ": 5316,
      "ture, ": 5317,
      "assa": 5318,
      "assur": 5319,
      "God and ": 5320,
      "God for": 5321,
      "Ay, and ": 5322,
      "yours\r\n": 5323,
      "death: ": 5324,
      "drink ": 5325,
      "Second Gentleman: ": 5326,
      "Romeo's ": 5327,
      "beg ": 5328,
      "begin": 5329,
      "Unti": 5330,
      "Under ": 5331,
      "tongue\r\n": 5332,
      "chase ": 5333,
      "chamber": 5334,
      "Let him ": 5335,
      "Let them ": 5336,
      "Richard's ": 5337,
      "to-da": 5338,
      "to-night": 5339,
      "Have you ": 5340,
      "burn ": 5341,
      "woes ": 5342,
      "people\r\n": 5343,
      "double ": 5344,
      "away, ": 5345,
      "dreadful ": 5346,
      "welcom": 5347,
      "Tailor": 5348,
      "piteous ": 5349,
      "hour, ": 5350,
      "long\r\n": 5351,
      "longer ": 5352,
      "sometime ": 5353,
      "voices": 5354,
      "Upon my ": 5355,
      "Upon his ": 5356,
      "devil ": 5357,
      "thoughts, ": 5358,
      "intend ": 5359,
      "when they ": 5360,
      "spirit, ": 5361,
      "Dost thou ": 5362,
      "barr": 5363,
      "I had rather ": 5364,
      "country": 5365,
      "loss ": 5366,
      "Paris ": 5367,
      "Pardon ": 5368,
      "certain": 5369,
      "purpose\r\n": 5370,
      "faults ": 5371,
      "silver ": 5372,
      "creature ": 5373,
      "Bolingbroke, ": 5374,
      "request ": 5375,
      "how the ": 5376,
      "sound": 5377,
      "execution": 5378,
      "cause\r\n": 5379,
      "flowers ": 5380,
      "bosom ": 5381,
      "Tell me, ": 5382,
      "resolu": 5383,
      "shouldst ": 5384,
      "Warwick's ": 5385,
      " there's ": 5386,
      "Tower\r\n": 5387,
      "Lucentio ": 5388,
      "renown": 5389,
      "advise ": 5390,
      "poison": 5391,
      "no more\r\n": 5392,
      "born\r\n": 5393,
      "troth, ": 5394,
      "remain ": 5395,
      "Hereford, ": 5396,
      "BUSHY: ": 5397,
      "Coriolanus ": 5398,
      "summer ": 5399,
      "scorn ": 5400,
      "touch'd ": 5401,
      "BALTHAS": 5402,
      "pair of ": 5403,
      "Northumberland, ": 5404,
      "Prince ": 5405,
      "possible ": 5406,
      " this? ": 5407,
      "behind ": 5408,
      "particu": 5409,
      "continue ": 5410,
      "amaz": 5411,
      "fruit": 5412,
      "Friar ": 5413,
      "knowledge ": 5414,
      "Brother, ": 5415,
      "benefit ": 5416,
      "Leave ": 5417,
      "excuse ": 5418,
      "private ": 5419,
      "occasion ": 5420,
      "Plantagenet, ": 5421,
      "Juliet ": 5422,
      "yonder ": 5423,
      "envious ": 5424,
      "Christian ": 5425,
      "Great ": 5426,
      "durst ": 5427,
      "Officer: ": 5428,
      "wholes": 5429,
      "THOMAS MOWBRAY: ": 5430,
      "Biondell": 5431,
      "MOPSA: ": 5432,
      "HENRY PERC": 5433,
      "BALTHASAR": 5434,
      "!-- ": 5435,
      "'rt ": 5436,
      "; thou ": 5437,
      "Ar": 5438,
      "Cur": 5439,
      "Dor": 5440,
      "Dra": 5441,
      "Fro": 5442,
      "FOL": 5443,
      "Fren": 5444,
      "Hold ": 5445,
      "Is't ": 5446,
      "Sup": 5447,
      "Tar": 5448,
      "Youn": 5449,
      "bru": 5450,
      "cr": 5451,
      "cus": 5452,
      "ction": 5453,
      "cate ": 5454,
      "dying ": 5455,
      "dom, ": 5456,
      "em": 5457,
      "eth ": 5458,
      "eter": 5459,
      "e; And ": 5460,
      "g, ": 5461,
      "k-": 5462,
      "k, and ": 5463,
      "n the ": 5464,
      "none\r\n": 5465,
      "s: I ": 5466,
      "s'd, ": 5467,
      "sings ": 5468,
      "tear ": 5469,
      "ts; ": 5470,
      "um": 5471,
      "vouch": 5472,
      "won ": 5473,
      "wn ": 5474,
      "went ": 5475,
      "ths ": 5476,
      "thrust ": 5477,
      ", a ": 5478,
      "ere\r\n": 5479,
      "inju": 5480,
      "increa": 5481,
      "army ": 5482,
      " though ": 5483,
      " three ": 5484,
      "on; ": 5485,
      "once, ": 5486,
      "on't\r\n": 5487,
      "haz": 5488,
      "have\r\n": 5489,
      "is so ": 5490,
      "is too ": 5491,
      "you, and ": 5492,
      "you think ": 5493,
      "I come ": 5494,
      "I pra": 5495,
      "I heard ": 5496,
      "I know, ": 5497,
      "to that ": 5498,
      "to you, ": 5499,
      "to you\r\n": 5500,
      "to keep ": 5501,
      "and these ": 5502,
      "owe ": 5503,
      "; My ": 5504,
      "sta ": 5505,
      "stol": 5506,
      "st, And ": 5507,
      "stard ": 5508,
      "er and ": 5509,
      "his\r\n": 5510,
      "no\r\n": 5511,
      "my son ": 5512,
      "my brother": 5513,
      "my soul": 5514,
      "my son, ": 5515,
      "my father's ": 5516,
      "forge": 5517,
      "seth ": 5518,
      "he must ": 5519,
      "at our ": 5520,
      "rebe": 5521,
      "repea": 5522,
      "receive ": 5523,
      "revol": 5524,
      "ing and ": 5525,
      "tide ": 5526,
      "tic ": 5527,
      "tiding": 5528,
      "! GLOUCESTER: ": 5529,
      "! Thou ": 5530,
      "rise ": 5531,
      "rious ": 5532,
      "s, to ": 5533,
      "s, the ": 5534,
      "s, that ": 5535,
      "s, Which ": 5536,
      "raise ": 5537,
      "not your ": 5538,
      "not for ": 5539,
      "me to my ": 5540,
      "late, ": 5541,
      "labour": 5542,
      "shing ": 5543,
      "shri": 5544,
      "be my ": 5545,
      "being": 5546,
      "belie": 5547,
      "it in ": 5548,
      "it in the ": 5549,
      "it is, ": 5550,
      "disea": 5551,
      "unless ": 5552,
      "with some ": 5553,
      "with him! ": 5554,
      "Those ": 5555,
      "Three ": 5556,
      "comb": 5557,
      "whor": 5558,
      "taught ": 5559,
      "shadow ": 5560,
      "speech ": 5561,
      "sport ": 5562,
      "sured ": 5563,
      "suspe": 5564,
      "To do ": 5565,
      "words\r\n": 5566,
      "never": 5567,
      "thou didst ": 5568,
      "cke": 5569,
      "up\r\n": 5570,
      "ounds ": 5571,
      "mutin": 5572,
      "we must ": 5573,
      "lord; ": 5574,
      "rest\r\n": 5575,
      "restra": 5576,
      "moon ": 5577,
      "mock'd ": 5578,
      "him in the ": 5579,
      "knif": 5580,
      "vish ": 5581,
      "visit": 5582,
      "blest ": 5583,
      "what they ": 5584,
      " that I ": 5585,
      "civi": 5586,
      "el, ": 5587,
      "else, ": 5588,
      "from th": 5589,
      "bott": 5590,
      "leave\r\n": 5591,
      "My Lord of ": 5592,
      "ve's ": 5593,
      ", and the ": 5594,
      "ders ": 5595,
      "gif": 5596,
      "perfect ": 5597,
      "grace\r\n": 5598,
      "were I ": 5599,
      "out a ": 5600,
      "fright ": 5601,
      "friar ": 5602,
      "canst thou ": 5603,
      "I am too ": 5604,
      "marke": 5605,
      "CAS: ": 5606,
      "honesty ": 5607,
      "accor": 5608,
      "gui": 5609,
      "here I ": 5610,
      "here comes ": 5611,
      "say the ": 5612,
      "cust": 5613,
      "love and ": 5614,
      "First Watchman: ": 5615,
      "whither ": 5616,
      "whiles ": 5617,
      "king and ": 5618,
      "serves ": 5619,
      "Master, ": 5620,
      "when you ": 5621,
      "go to ": 5622,
      "banish ": 5623,
      "add ": 5624,
      "adventure ": 5625,
      "broo": 5626,
      "done: ": 5627,
      "monstr": 5628,
      "Nothing ": 5629,
      "up in ": 5630,
      "By the ": 5631,
      "By this ": 5632,
      "off the ": 5633,
      "fled ": 5634,
      "peace": 5635,
      "For that ": 5636,
      "yours ": 5637,
      "harm ": 5638,
      "fool, ": 5639,
      "speak of ": 5640,
      "curr": 5641,
      "braw": 5642,
      "men of ": 5643,
      "who is ": 5644,
      "who comes ": 5645,
      "power\r\n": 5646,
      "house: ": 5647,
      "arms, ": 5648,
      "repent ": 5649,
      "ness' ": 5650,
      "calls ": 5651,
      "called ": 5652,
      "dread ": 5653,
      "tells ": 5654,
      "tell the ": 5655,
      "tell thee ": 5656,
      "fortune's ": 5657,
      "commit": 5658,
      "ject ": 5659,
      "strai": 5660,
      "; there ": 5661,
      "pray you, ": 5662,
      "virg": 5663,
      "call me ": 5664,
      "daughter's ": 5665,
      "publi": 5666,
      "get you ": 5667,
      "Boatswa": 5668,
      "England ": 5669,
      "appreh": 5670,
      "There is no ": 5671,
      "Do not ": 5672,
      "blame ": 5673,
      "Duke of Norfolk, ": 5674,
      "voice ": 5675,
      "If that ": 5676,
      "once more ": 5677,
      "understand ": 5678,
      "Page: ": 5679,
      "ten times ": 5680,
      "patient ": 5681,
      "heavens! ": 5682,
      "furni": 5683,
      "ROSS: ": 5684,
      "bitter": 5685,
      "fairly ": 5686,
      "about the ": 5687,
      "greet ": 5688,
      "NORFOL": 5689,
      "hope to ": 5690,
      "need": 5691,
      "themselves ": 5692,
      "Luci": 5693,
      "subject": 5694,
      "half": 5695,
      "disper": 5696,
      "kindred ": 5697,
      "loss of ": 5698,
      "prayer": 5699,
      "dinn": 5700,
      "request, ": 5701,
      "back\r\n": 5702,
      "effect ": 5703,
      "traitor, ": 5704,
      "traitors ": 5705,
      "England, ": 5706,
      "I pray you, ": 5707,
      "of this": 5708,
      "life? ": 5709,
      "proper ": 5710,
      "You'll ": 5711,
      "frown": 5712,
      "knee ": 5713,
      "keeps ": 5714,
      "Buckingham ": 5715,
      "mayst ": 5716,
      "drawn ": 5717,
      "Beseech ": 5718,
      "accuse ": 5719,
      "Lancaster ": 5720,
      "glory ": 5721,
      "glorious ": 5722,
      "valour ": 5723,
      "outward ": 5724,
      "manner ": 5725,
      "safety ": 5726,
      " that's ": 5727,
      "blows ": 5728,
      "LORD ROSS: ": 5729,
      "reverend ": 5730,
      "walk ": 5731,
      "dishonour ": 5732,
      "triumph": 5733,
      "received ": 5734,
      "canst not ": 5735,
      "drum": 5736,
      "untimely ": 5737,
      "spake ": 5738,
      "Bohemia ": 5739,
      "behin": 5740,
      "After ": 5741,
      "joyful ": 5742,
      "Bianca, ": 5743,
      "DORCAS: ": 5744,
      "big ": 5745,
      "advers": 5746,
      "judgment ": 5747,
      "seize ": 5748,
      "neighbour": 5749,
      "laugh ": 5750,
      "Volsces ": 5751,
      "constant ": 5752,
      "Two ": 5753,
      "BRAKENBURY: ": 5754,
      "Art thou ": 5755,
      "despite ": 5756,
      "practise ": 5757,
      "spirator": 5758,
      "AEdi": 5759,
      "woful ": 5760,
      "intellig": 5761,
      "Mayor: ": 5762,
      "HENRY PERCY: ": 5763,
      "!--": 5764,
      "? the ": 5765,
      "Ber": 5766,
      "DIN": 5767,
      "Dear ": 5768,
      "Dis": 5769,
      "FER": 5770,
      "GH": 5771,
      "Gho": 5772,
      "Ire": 5773,
      "Pre": 5774,
      "Rat": 5775,
      "Still ": 5776,
      "Tit": 5777,
      "ai": 5778,
      "aid ": 5779,
      "ation\r\n": 5780,
      "aside ": 5781,
      "cou": 5782,
      "clif": 5783,
      "dy\r\n": 5784,
      "dow, ": 5785,
      "ds? ": 5786,
      "dine ": 5787,
      "eve ": 5788,
      "ed; ": 5789,
      "fel": 5790,
      "gn": 5791,
      "ker": 5792,
      "k that ": 5793,
      "l? ": 5794,
      "ly: ": 5795,
      "m! ": 5796,
      "messeng": 5797,
      "nine ": 5798,
      "opp": 5799,
      "ple": 5800,
      "pent ": 5801,
      "ring": 5802,
      "song": 5803,
      "scan": 5804,
      "sence ": 5805,
      "tres": 5806,
      "t; And ": 5807,
      "town ": 5808,
      "ty: ": 5809,
      "ting, ": 5810,
      "ting\r\n": 5811,
      "ty's ": 5812,
      "tly, ": 5813,
      "vous ": 5814,
      "ven, ": 5815,
      "wound ": 5816,
      "yo": 5817,
      "yed ": 5818,
      "y; And ": 5819,
      "yea, ": 5820,
      "zz": 5821,
      "thyself ": 5822,
      "s my ": 5823,
      "s with ": 5824,
      "s of the ": 5825,
      "into a ": 5826,
      "another, ": 5827,
      "ors ": 5828,
      "envy ": 5829,
      "ar, ": 5830,
      "arra": 5831,
      " thie": 5832,
      "on! ": 5833,
      "on that ": 5834,
      "hat": 5835,
      "hair ": 5836,
      "haps ": 5837,
      "haply ": 5838,
      "is as ": 5839,
      "ests ": 5840,
      "I give ": 5841,
      "I prithee, ": 5842,
      "to know ": 5843,
      "to thee, ": 5844,
      "and by ": 5845,
      "witch": 5846,
      "sts, ": 5847,
      "the time ": 5848,
      "hither\r\n": 5849,
      "chea": 5850,
      "ch'd ": 5851,
      "my most ": 5852,
      "my life ": 5853,
      "my master": 5854,
      "my tongue ": 5855,
      "my daughter ": 5856,
      "forth, ": 5857,
      "forswor": 5858,
      "for these ": 5859,
      "of it ": 5860,
      "sembl": 5861,
      "he ha": 5862,
      "? What ": 5863,
      "? JULIET: ": 5864,
      "lish": 5865,
      "limb": 5866,
      "at this ": 5867,
      "reck": 5868,
      "recor": 5869,
      "requi": 5870,
      "rebell": 5871,
      "tial ": 5872,
      "you to the ": 5873,
      "rid ": 5874,
      "ed the ": 5875,
      "s, S": 5876,
      "not to be ": 5877,
      "And that ": 5878,
      "And what ": 5879,
      "And then ": 5880,
      "me no ": 5881,
      "es the ": 5882,
      "his own ": 5883,
      "urg": 5884,
      "be thy ": 5885,
      "be gon": 5886,
      "it will ": 5887,
      "it shall be ": 5888,
      "did, ": 5889,
      "an hour ": 5890,
      "fast, ": 5891,
      "or a ": 5892,
      "their": 5893,
      "itself": 5894,
      "sad": 5895,
      "sake ": 5896,
      "commis": 5897,
      "ate\r\n": 5898,
      "for you ": 5899,
      "tap": 5900,
      "taken ": 5901,
      "taste ": 5902,
      "sper": 5903,
      "spare ": 5904,
      "spent ": 5905,
      "sul": 5906,
      "but this ": 5907,
      "The noble ": 5908,
      "The gods ": 5909,
      "conce": 5910,
      "cause, ": 5911,
      "rupt ": 5912,
      "worth": 5913,
      "de; ": 5914,
      "way\r\n": 5915,
      "dal ": 5916,
      "morous ": 5917,
      "mile ": 5918,
      "so far ": 5919,
      "shall not be ": 5920,
      "resi": 5921,
      "him, And ": 5922,
      "modes": 5923,
      "heart's ": 5924,
      "That you ": 5925,
      "That ever ": 5926,
      "poor": 5927,
      "posi": 5928,
      "kness ": 5929,
      "our, ": 5930,
      "blin": 5931,
      "blind ": 5932,
      "no other ": 5933,
      "paper ": 5934,
      " this be ": 5935,
      "her; ": 5936,
      "her? ": 5937,
      "boy\r\n": 5938,
      "fif": 5939,
      "fier": 5940,
      "fight\r\n": 5941,
      "warlike ": 5942,
      "all to ": 5943,
      "dead? ": 5944,
      "dead! ": 5945,
      "good my lord, ": 5946,
      "heavi": 5947,
      "head; ": 5948,
      "withal": 5949,
      "ful\r\n": 5950,
      "would you ": 5951,
      "p and ": 5952,
      "all things ": 5953,
      "mind\r\n": 5954,
      "parlia": 5955,
      "Wilt ": 5956,
      "ve-": 5957,
      "ve? ": 5958,
      "ve! ": 5959,
      ", and so ": 5960,
      "profan": 5961,
      "hollow ": 5962,
      "peril ": 5963,
      "truth": 5964,
      "graced ": 5965,
      "she will ": 5966,
      "sons, ": 5967,
      "king, And ": 5968,
      "ged, ": 5969,
      "dust ": 5970,
      "name": 5971,
      "name; ": 5972,
      "You must ": 5973,
      "I have a ": 5974,
      "I have no ": 5975,
      "desir": 5976,
      "marr": 5977,
      "honest": 5978,
      "stamp": 5979,
      "stain'd ": 5980,
      "achi": 5981,
      "acci": 5982,
      "access ": 5983,
      "now to ": 5984,
      "play'd ": 5985,
      "place; ": 5986,
      "self-": 5987,
      "He was ": 5988,
      "here in ": 5989,
      "exa": 5990,
      "again: ": 5991,
      "again; ": 5992,
      "most un": 5993,
      "thinks, ": 5994,
      "love I ": 5995,
      "love to ": 5996,
      "charac": 5997,
      "prize ": 5998,
      "chief": 5999,
      "This is a ": 6000,
      "buil": 6001,
      "buried ": 6002,
      "upon a ": 6003,
      "upon our ": 6004,
      "upon him\r\n": 6005,
      "well! ": 6006,
      "made me ": 6007,
      "brings ": 6008,
      "We will ": 6009,
      "absol": 6010,
      "absence ": 6011,
      "merri": 6012,
      "know\r\n": 6013,
      "'st thou, ": 6014,
      "sends ": 6015,
      "GREEN": 6016,
      "up and ": 6017,
      "up my ": 6018,
      "By heaven, ": 6019,
      "off\r\n": 6020,
      "womb ": 6021,
      "fly\r\n": 6022,
      "For the ": 6023,
      "sort ": 6024,
      "sea-": 6025,
      "seal ": 6026,
      "trial ": 6027,
      "yourself": 6028,
      "yourself\r\n": 6029,
      "death's ": 6030,
      "fear\r\n": 6031,
      "Second Servant: ": 6032,
      "hardly ": 6033,
      "Lord Marsha": 6034,
      "tune, ": 6035,
      " they have ": 6036,
      "Unto the ": 6037,
      "slain, ": 6038,
      "before I ": 6039,
      "discontent": 6040,
      "ided ": 6041,
      "cares ": 6042,
      "corn": 6043,
      "chamb": 6044,
      "day of ": 6045,
      "all the world ": 6046,
      "course, ": 6047,
      "good": 6048,
      "child\r\n": 6049,
      "wrought ": 6050,
      "pass'd ": 6051,
      "horse! ": 6052,
      "grievous ": 6053,
      "fire, ": 6054,
      "firm ": 6055,
      "highness ": 6056,
      "substan": 6057,
      "bearing ": 6058,
      "look on ": 6059,
      "people's ": 6060,
      "Save ": 6061,
      "window": 6062,
      "talk'd ": 6063,
      " thank": 6064,
      "No more ": 6065,
      "I say\r\n": 6066,
      "world's ": 6067,
      "humour ": 6068,
      "command ": 6069,
      "answer\r\n": 6070,
      "King Richard ": 6071,
      "doubt": 6072,
      "puts ": 6073,
      "thee! ": 6074,
      "false": 6075,
      "claim ": 6076,
      "sleep, ": 6077,
      "hold, ": 6078,
      "confer": 6079,
      "sometimes ": 6080,
      "treach": 6081,
      "Upon ": 6082,
      "Of this ": 6083,
      "wrong, ": 6084,
      "thoughts ": 6085,
      "business\r\n": 6086,
      "other's ": 6087,
      "speak: ": 6088,
      "that? ": 6089,
      "villain! ": 6090,
      "Conspirator": 6091,
      "service, ": 6092,
      "follows ": 6093,
      "stuff": 6094,
      "soldier": 6095,
      "fellow\r\n": 6096,
      "Was ever ": 6097,
      "through ": 6098,
      "children, ": 6099,
      "Gentlemen, ": 6100,
      "Harry ": 6101,
      "Hark, ": 6102,
      "Angelo\r\n": 6103,
      "those that ": 6104,
      "prayer ": 6105,
      "farewell ": 6106,
      "prisoner ": 6107,
      "Rome\r\n": 6108,
      "effec": 6109,
      "instruct ": 6110,
      "years, ": 6111,
      "discour": 6112,
      "of that": 6113,
      "write ": 6114,
      "stop ": 6115,
      "Claudio, ": 6116,
      "life; ": 6117,
      "I thank": 6118,
      "God's name, ": 6119,
      "Tell me ": 6120,
      "knees ": 6121,
      "better than ": 6122,
      "sign": 6123,
      "resolve ": 6124,
      "resolved ": 6125,
      "Camillo ": 6126,
      "granted ": 6127,
      "piece ": 6128,
      "Lucentio\r\n": 6129,
      "wife's ": 6130,
      "Thanks, ": 6131,
      "body's ": 6132,
      "afterno": 6133,
      "empty ": 6134,
      "hurt ": 6135,
      "borne ": 6136,
      "Pomfre": 6137,
      "drop": 6138,
      "letters ": 6139,
      "favour ": 6140,
      "enough\r\n": 6141,
      "satisfi": 6142,
      "Stay, ": 6143,
      "brief, ": 6144,
      "respected ": 6145,
      "servant ": 6146,
      "sanctu": 6147,
      "direc": 6148,
      "summer": 6149,
      "supper": 6150,
      "miserable ": 6151,
      "Baptista ": 6152,
      "sudden": 6153,
      "patrician": 6154,
      "Master Fro": 6155,
      "subjects ": 6156,
      "ground, ": 6157,
      "TYRR": 6158,
      "Katharina": 6159,
      "smile ": 6160,
      "Love ": 6161,
      "Worthy ": 6162,
      "ignorant ": 6163,
      "freely ": 6164,
      "hateful ": 6165,
      "violent ": 6166,
      "slaughter'd ": 6167,
      "Rosa": 6168,
      "Thou, ": 6169,
      "conquer": 6170,
      "minister": 6171,
      "innocent ": 6172,
      "numb": 6173,
      " thou, ": 6174,
      "Lady: ": 6175,
      "cunning ": 6176,
      "home\r\n": 6177,
      "Corioli ": 6178,
      "willingly ": 6179,
      "Mistress ": 6180,
      "journe": 6181,
      "Sicili": 6182,
      "Hunts": 6183,
      "I tell thee, ": 6184,
      "GLOUCESTER: I ": 6185,
      "privile": 6186,
      "circumstan": 6187,
      "Believe me, ": 6188,
      "DINAND: ": 6189,
      "FERDINAND: ": 6190,
      "Ratclif": 6191,
      "'n ": 6192,
      "-in": 6193,
      "-sh": 6194,
      "; this ": 6195,
      "Am": 6196,
      "Ano": 6197,
      "Ben": 6198,
      "Bri": 6199,
      "Bra": 6200,
      "Brea": 6201,
      "Bring ": 6202,
      "Der": 6203,
      "Flor": 6204,
      "Four": 6205,
      "Gi": 6206,
      "Hear": 6207,
      "Know": 6208,
      "O that ": 6209,
      "O thou ": 6210,
      "Sof": 6211,
      "Sol": 6212,
      "Some": 6213,
      "Show ": 6214,
      "Shor": 6215,
      "She's ": 6216,
      "Tro": 6217,
      "Till": 6218,
      "Very ": 6219,
      "Wo": 6220,
      "Wal": 6221,
      "Yea": 6222,
      "aw": 6223,
      "ast ": 6224,
      "a's ": 6225,
      "air, ": 6226,
      "bow ": 6227,
      "bare ": 6228,
      "bred ": 6229,
      "c, ": 6230,
      "cy, ": 6231,
      "cts ": 6232,
      "cere": 6233,
      "coff": 6234,
      "dit ": 6235,
      "dle ": 6236,
      "dence ": 6237,
      "dwell ": 6238,
      "dwell": 6239,
      "ef ": 6240,
      "een ": 6241,
      "ft, ": 6242,
      "foul": 6243,
      "kin ": 6244,
      "lter": 6245,
      "lent ": 6246,
      "ly? ": 6247,
      "mn ": 6248,
      "nought ": 6249,
      "pl": 6250,
      "pan": 6251,
      "ple ": 6252,
      "pup": 6253,
      "pure ": 6254,
      "ror": 6255,
      "rre": 6256,
      "ser ": 6257,
      "sly ": 6258,
      "scap": 6259,
      "s; the ": 6260,
      "tle ": 6261,
      "twa": 6262,
      "town": 6263,
      "uten": 6264,
      "vin": 6265,
      "ving, ": 6266,
      "w thy ": 6267,
      "yar": 6268,
      "th-": 6269,
      "thence ": 6270,
      "thither ": 6271,
      "s And ": 6272,
      "er! ": 6273,
      "erci": 6274,
      "in, And ": 6275,
      ": '": 6276,
      "ors, ": 6277,
      "arch": 6278,
      "arm, ": 6279,
      " there, ": 6280,
      " thyself ": 6281,
      "ons, ": 6282,
      "on's ": 6283,
      "on, and ": 6284,
      "hab": 6285,
      "havi": 6286,
      "hath the ": 6287,
      "is but ": 6288,
      "es; and ": 6289,
      "escap": 6290,
      "youth": 6291,
      "you this ": 6292,
      "youth, ": 6293,
      "I but ": 6294,
      "I speak ": 6295,
      "I hope ": 6296,
      "I beseech ": 6297,
      "I doubt ": 6298,
      "I hope, ": 6299,
      "to you ": 6300,
      "to him, ": 6301,
      "to bear ": 6302,
      "eag": 6303,
      "ing that ": 6304,
      "wish'd ": 6305,
      "strea": 6306,
      "stings ": 6307,
      "no; ": 6308,
      "my father": 6309,
      "my true ": 6310,
      "forma": 6311,
      "forbear": 6312,
      "a good ": 6313,
      "a poor ": 6314,
      "a gentleman ": 6315,
      "a baw": 6316,
      "of what ": 6317,
      "sell": 6318,
      "sett": 6319,
      "he doth ": 6320,
      "? PETRUCHIO: ": 6321,
      "? Nurse: ": 6322,
      "light\r\n": 6323,
      "lisbur": 6324,
      "re's ": 6325,
      "recon": 6326,
      "remor": 6327,
      "remo": 6328,
      "rega": 6329,
      "regar": 6330,
      "tir": 6331,
      "tire ": 6332,
      "! But ": 6333,
      "in some ": 6334,
      "in love ": 6335,
      "magi": 6336,
      "make, ": 6337,
      "s, I ": 6338,
      "raised ": 6339,
      "not you ": 6340,
      "not have ": 6341,
      "And the ": 6342,
      "me this ": 6343,
      "m of ": 6344,
      "as this ": 6345,
      "as she ": 6346,
      "as many ": 6347,
      "his son ": 6348,
      "ladies ": 6349,
      "shut ": 6350,
      "shun": 6351,
      "be? ": 6352,
      "been, ": 6353,
      "betra": 6354,
      "beheld ": 6355,
      "your father ": 6356,
      "your majesty ": 6357,
      "it with ": 6358,
      "rob": 6359,
      "room": 6360,
      "rogu": 6361,
      "die? ": 6362,
      "distres": 6363,
      "ere I ": 6364,
      "unto my ": 6365,
      "fast": 6366,
      "have a ": 6367,
      "or to ": 6368,
      "with me\r\n": 6369,
      "with him? ": 6370,
      "that thy ": 6371,
      "that was ": 6372,
      "that hath ": 6373,
      "ity: ": 6374,
      "They": 6375,
      "l and ": 6376,
      "saw": 6377,
      "sake": 6378,
      "saint, ": 6379,
      "compla": 6380,
      "our general ": 6381,
      "atch ": 6382,
      "ately ": 6383,
      "of thine ": 6384,
      "for I ": 6385,
      "for me ": 6386,
      "for an ": 6387,
      "shadow": 6388,
      "ther? ": 6389,
      "spit": 6390,
      "ly and ": 6391,
      "sull": 6392,
      "Who's ": 6393,
      "but by ": 6394,
      "melan": 6395,
      "The very ": 6396,
      "confi": 6397,
      "concea": 6398,
      "came to ": 6399,
      "To save ": 6400,
      "worn ": 6401,
      "words: ": 6402,
      "worthi": 6403,
      "nex": 6404,
      "neck": 6405,
      "neck ": 6406,
      "dep": 6407,
      "dela": 6408,
      "dece": 6409,
      "degre": 6410,
      "thou wert ": 6411,
      "day's ": 6412,
      "daily ": 6413,
      "by that ": 6414,
      "by thy ": 6415,
      "mira": 6416,
      "mistru": 6417,
      "term": 6418,
      "so un": 6419,
      "so long ": 6420,
      "ckle ": 6421,
      "up thy ": 6422,
      "upon, ": 6423,
      "muster ": 6424,
      "we do ": 6425,
      "ression ": 6426,
      "mock": 6427,
      "motion ": 6428,
      "him a ": 6429,
      "him to the ": 6430,
      "hear the ": 6431,
      "do it ": 6432,
      "do him ": 6433,
      "pointed ": 6434,
      "quench": 6435,
      "vice ": 6436,
      "ourselves ": 6437,
      "teth ": 6438,
      "ted: ": 6439,
      "one thing ": 6440,
      "herself ": 6441,
      "here: ": 6442,
      "here! ": 6443,
      "bodies ": 6444,
      "fight, ": 6445,
      "war\r\n": 6446,
      "ward\r\n": 6447,
      "all of ": 6448,
      "all un": 6449,
      "dead; ": 6450,
      "good to ": 6451,
      "good night": 6452,
      "sire ": 6453,
      "within ": 6454,
      "leads ": 6455,
      "ARDIN": 6456,
      "would I ": 6457,
      "alli": 6458,
      "all these ": 6459,
      "partly ": 6460,
      "tted ": 6461,
      "ttle ": 6462,
      "vex": 6463,
      "ve: ": 6464,
      "given": 6465,
      "giving ": 6466,
      "perish": 6467,
      "perfec": 6468,
      "us' ": 6469,
      "truly ": 6470,
      "true: ": 6471,
      "grave, ": 6472,
      "grave\r\n": 6473,
      "son! ": 6474,
      "king, and ": 6475,
      "out of the ": 6476,
      "hell\r\n": 6477,
      "make you ": 6478,
      "make him ": 6479,
      "Hastings ": 6480,
      "duty, ": 6481,
      "gos": 6482,
      "gods, ": 6483,
      "native ": 6484,
      "tion! ": 6485,
      "You may ": 6486,
      "I have not ": 6487,
      "they shall ": 6488,
      "they were ": 6489,
      " thou shalt ": 6490,
      "stabb": 6491,
      "accept ": 6492,
      "God! ": 6493,
      "eyes\r\n": 6494,
      "which you ": 6495,
      "now in ": 6496,
      "O, the ": 6497,
      "He has ": 6498,
      "ily, ": 6499,
      "how I ": 6500,
      "how it ": 6501,
      "exerci": 6502,
      "gently ": 6503,
      "tion of a ": 6504,
      "take him ": 6505,
      "take her ": 6506,
      "thine\r\n": 6507,
      "give us ": 6508,
      "give thee ": 6509,
      "t: But ": 6510,
      "count ": 6511,
      "counci": 6512,
      "scra": 6513,
      "score ": 6514,
      "First Musician: ": 6515,
      "priest ": 6516,
      "pride ": 6517,
      "praise ": 6518,
      "If not, ": 6519,
      "If it be ": 6520,
      "chide ": 6521,
      "served ": 6522,
      "Makes ": 6523,
      "know you ": 6524,
      "s of my ": 6525,
      "s of your ": 6526,
      "can you ": 6527,
      "greatest ": 6528,
      "'tis no ": 6529,
      "mine honour, ": 6530,
      "advantage ": 6531,
      "made the ": 6532,
      "joi": 6533,
      "joy, ": 6534,
      "pretti": 6535,
      "Is the ": 6536,
      "appeti": 6537,
      "We must ": 6538,
      "abhor": 6539,
      "Of my ": 6540,
      "men; ": 6541,
      "luck": 6542,
      "lusty ": 6543,
      "Why, how now, ": 6544,
      "therein ": 6545,
      "plead ": 6546,
      "pleasing ": 6547,
      "myster": 6548,
      "monu": 6549,
      "No; ": 6550,
      "stand, ": 6551,
      "trun": 6552,
      "newly ": 6553,
      "news\r\n": 6554,
      "anger ": 6555,
      "assure ": 6556,
      "flouri": 6557,
      "Well": 6558,
      "seat ": 6559,
      "ship, ": 6560,
      "death; ": 6561,
      "fear, ": 6562,
      "Romeo? ": 6563,
      "tent, ": 6564,
      "too: ": 6565,
      "gentleman": 6566,
      "Lord Hastings, ": 6567,
      "Lord Mayor: ": 6568,
      "ence' ": 6569,
      "before his ": 6570,
      "corre": 6571,
      "day is ": 6572,
      "all the rest ": 6573,
      "ISABELLA: O, ": 6574,
      "goodness ": 6575,
      "In that ": 6576,
      "wrink": 6577,
      "passage ": 6578,
      "honour'd ": 6579,
      "vain ": 6580,
      "substit": 6581,
      "blood of ": 6582,
      "ts, And ": 6583,
      "Have I ": 6584,
      "contro": 6585,
      "Caes": 6586,
      "bury ": 6587,
      "woe, ": 6588,
      "he is a ": 6589,
      "complex": 6590,
      "Salisbur": 6591,
      "away; ": 6592,
      "put to ": 6593,
      "love! ": 6594,
      "lovely ": 6595,
      "crown? ": 6596,
      "Only ": 6597,
      "water": 6598,
      "humour": 6599,
      "cloth": 6600,
      "Well, well, ": 6601,
      "Why should ": 6602,
      "banished": 6603,
      "appea": 6604,
      "There is a ": 6605,
      "bride ": 6606,
      "then the ": 6607,
      "tread ": 6608,
      "lady! ": 6609,
      "queen: ": 6610,
      "turns ": 6611,
      "Duke of York\r\n": 6612,
      "I think": 6613,
      "I must be ": 6614,
      "since, ": 6615,
      "came from ": 6616,
      "DUCHESS OF YORK: I ": 6617,
      "Of that ": 6618,
      "Reme": 6619,
      "wherein ": 6620,
      "Tyrre": 6621,
      "bite ": 6622,
      "revenged ": 6623,
      "special ": 6624,
      "business, ": 6625,
      "Show": 6626,
      "Gentle ": 6627,
      "other\r\n": 6628,
      "haste, ": 6629,
      "speak? ": 6630,
      "deserve ": 6631,
      "deserves ": 6632,
      "augh": 6633,
      "green ": 6634,
      "chequ": 6635,
      "will not be ": 6636,
      "husband's ": 6637,
      "feeling ": 6638,
      "needful ": 6639,
      "wander": 6640,
      "please you, ": 6641,
      "faith ": 6642,
      "seeming ": 6643,
      "services ": 6644,
      "Commend ": 6645,
      "a thing ": 6646,
      "groom ": 6647,
      "gross ": 6648,
      "general": 6649,
      "displea": 6650,
      "grows ": 6651,
      "Tybalt's ": 6652,
      "Paris": 6653,
      "nurse ": 6654,
      "Hark ": 6655,
      "able to ": 6656,
      "command, ": 6657,
      "commanded ": 6658,
      "Lay ": 6659,
      "colours ": 6660,
      "Signior Baptista": 6661,
      "Post: ": 6662,
      "state and ": 6663,
      "gates ": 6664,
      "o'er-": 6665,
      "birth, ": 6666,
      "large ": 6667,
      "matter, ": 6668,
      "caught ": 6669,
      "proph": 6670,
      "let him be ": 6671,
      "marria": 6672,
      "marriage, ": 6673,
      "God's sake, ": 6674,
      "!' '": 6675,
      "frown ": 6676,
      "better, ": 6677,
      "signi": 6678,
      "ship\r\n": 6679,
      "ever, ": 6680,
      "shoulder": 6681,
      "finds ": 6682,
      "musician": 6683,
      "duke's ": 6684,
      "Norfolk ": 6685,
      "Tower, ": 6686,
      "accusa": 6687,
      "enemies, ": 6688,
      "enemies\r\n": 6689,
      "clouds, ": 6690,
      "root ": 6691,
      "cheeks ": 6692,
      "Gaunt ": 6693,
      "cry '": 6694,
      "drop ": 6695,
      " through ": 6696,
      "knows not ": 6697,
      "satisfie": 6698,
      "Stay ": 6699,
      "brief": 6700,
      "brief ": 6701,
      "changed ": 6702,
      "maids ": 6703,
      "agree": 6704,
      "evil ": 6705,
      "hood, ": 6706,
      "weeds ": 6707,
      "proclaim ": 6708,
      "divin": 6709,
      "divine ": 6710,
      "majesty, ": 6711,
      "majesty\r\n": 6712,
      "occup": 6713,
      "safe ": 6714,
      "'em\r\n": 6715,
      "until ": 6716,
      "alas! ": 6717,
      "plant ": 6718,
      "slander ": 6719,
      "dign": 6720,
      "loyal ": 6721,
      "embrace ": 6722,
      "prosper": 6723,
      "toward the ": 6724,
      "Gloucester's ": 6725,
      "DORSET: ": 6726,
      "knowled": 6727,
      "Catesby, ": 6728,
      "Prithee, ": 6729,
      "abroa": 6730,
      "thyself": 6731,
      "estima": 6732,
      "I fear, ": 6733,
      "profes": 6734,
      "enemy, ": 6735,
      "Aumerle, ": 6736,
      "Isabel, ": 6737,
      "sickness ": 6738,
      "hear me speak\r\n": 6739,
      "Paulin": 6740,
      "faithful ": 6741,
      "Rutlan": 6742,
      "e, fie! ": 6743,
      "as well as ": 6744,
      "Away! ": 6745,
      "courage ": 6746,
      "lamenta": 6747,
      "Once more, ": 6748,
      "Pisa": 6749,
      "Barnardin": 6750,
      "Vien": 6751,
      "twelve ": 6752,
      "pilgri": 6753,
      "wither'd ": 6754,
      "assurance ": 6755,
      "Tailor: ": 6756,
      "Pardon me, ": 6757,
      "wholesome ": 6758,
      "French ": 6759,
      "civil ": 6760,
      "market-": 6761,
      "who comes here? ": 6762,
      "Boatswain: ": 6763,
      "NORFOLK: ": 6764,
      "Ghost of ": 6765,
      "Wilt thou ": 6766,
      "GREEN: ": 6767,
      "TYRREL: ": 6768,
      "Rosalin": 6769,
      "Soldi": 6770,
      "ceremon": 6771,
      "reconci": 6772,
      "'d": 6773,
      "As": 6774,
      "App": 6775,
      "A thousand ": 6776,
      "Bear ": 6777,
      "CLE": 6778,
      "Dar": 6779,
      "Did": 6780,
      "Each ": 6781,
      "Fu": 6782,
      "Get ": 6783,
      "IL": 6784,
      "I; ": 6785,
      "I the ": 6786,
      "I then ": 6787,
      "Jes": 6788,
      "Long ": 6789,
      "Larti": 6790,
      "Min": 6791,
      "Many ": 6792,
      "Now": 6793,
      "OMEN": 6794,
      "Stri": 6795,
      "Tri": 6796,
      "UGH": 6797,
      "Vill": 6798,
      "WIL": 6799,
      "Ye ": 6800,
      "ash": 6801,
      "asi": 6802,
      "cent": 6803,
      "city, ": 6804,
      "croo": 6805,
      "ding, ": 6806,
      "dlar": 6807,
      "eld ": 6808,
      "eter, ": 6809,
      "flo": 6810,
      "flies ": 6811,
      "glo": 6812,
      "hy": 6813,
      "ian ": 6814,
      "ill, ": 6815,
      "ja": 6816,
      "kit": 6817,
      "key": 6818,
      "ks of ": 6819,
      "k'st ": 6820,
      "keeper": 6821,
      "lur": 6822,
      "mes": 6823,
      "pee": 6824,
      "pound ": 6825,
      "pill": 6826,
      "round ": 6827,
      "sy": 6828,
      "som": 6829,
      "swell": 6830,
      "sing, ": 6831,
      "slu": 6832,
      "ses\r\n": 6833,
      "sing\r\n": 6834,
      "smil": 6835,
      "slow ": 6836,
      "test, ": 6837,
      "ught": 6838,
      "wed ": 6839,
      "yea": 6840,
      "yes, ": 6841,
      "y: I ": 6842,
      "this\r\n": 6843,
      "d and ": 6844,
      "out-": 6845,
      "ers of ": 6846,
      "ine": 6847,
      "incen": 6848,
      "inform": 6849,
      "ano": 6850,
      ": if ": 6851,
      "or the ": 6852,
      "order, ": 6853,
      "env": 6854,
      "arch ": 6855,
      "art\r\n": 6856,
      " thy": 6857,
      " thing ": 6858,
      " thri": 6859,
      " this\r\n": 6860,
      "hap": 6861,
      "hath": 6862,
      "hair": 6863,
      "is to ": 6864,
      "is that ": 6865,
      "is there ": 6866,
      "I pro": 6867,
      "I mean ": 6868,
      "I wish ": 6869,
      "to come ": 6870,
      "to save ": 6871,
      "to thee\r\n": 6872,
      "and what ": 6873,
      "easi": 6874,
      "ing th": 6875,
      "the bo": 6876,
      "the more ": 6877,
      "the Duke of ": 6878,
      "the first ": 6879,
      "the people ": 6880,
      "hie ": 6881,
      "nose ": 6882,
      "nobly ": 6883,
      "nothing\r\n": 6884,
      "my lie": 6885,
      "my old ": 6886,
      "my father, ": 6887,
      "my head ": 6888,
      "my soul ": 6889,
      "my mother, ": 6890,
      "for thee ": 6891,
      "forth\r\n": 6892,
      "a great ": 6893,
      "a bra": 6894,
      "of him ": 6895,
      "of him\r\n": 6896,
      "of death ": 6897,
      "of all\r\n": 6898,
      "sees ": 6899,
      "sequ": 6900,
      "seest ": 6901,
      "secu": 6902,
      "sepul": 6903,
      "? O, ": 6904,
      "? ROMEO: ": 6905,
      "red, ": 6906,
      "repair ": 6907,
      "ing his ": 6908,
      "Ann": 6909,
      "ear, ": 6910,
      "earnes": 6911,
      "tis, ": 6912,
      "time": 6913,
      "time; ": 6914,
      "! and ": 6915,
      "you as ": 6916,
      "you all ": 6917,
      "you to your ": 6918,
      "d, That ": 6919,
      "rise, ": 6920,
      "in me ": 6921,
      "in with ": 6922,
      "in what ": 6923,
      "in any ": 6924,
      "in heaven ": 6925,
      "not that ": 6926,
      "t, but ": 6927,
      "t, To ": 6928,
      "me from the ": 6929,
      "es me ": 6930,
      "es that ": 6931,
      "as your ": 6932,
      "as much ": 6933,
      "as these ": 6934,
      "lam": 6935,
      "lasting ": 6936,
      "late\r\n": 6937,
      "le: I ": 6938,
      "urge ": 6939,
      "shy, ": 6940,
      "shrou": 6941,
      "bethink ": 6942,
      "it would ": 6943,
      "it hath ": 6944,
      "it may ": 6945,
      "it so\r\n": 6946,
      "dish ": 6947,
      "didst thou ": 6948,
      "on our ": 6949,
      "uncl": 6950,
      "unto your ": 6951,
      "an e": 6952,
      "k of ": 6953,
      "fall, ": 6954,
      "face? ": 6955,
      "or of ": 6956,
      "or tw": 6957,
      "with you ": 6958,
      "with you, ": 6959,
      "with him, ": 6960,
      "that you have ": 6961,
      "that makes ": 6962,
      "that he hath ": 6963,
      "thecar": 6964,
      "sain": 6965,
      "complain": 6966,
      "our brother ": 6967,
      "'d in the ": 6968,
      "of them": 6969,
      "lodg": 6970,
      "whee": 6971,
      "takes ": 6972,
      "shall\r\n": 6973,
      "sple": 6974,
      "spit ": 6975,
      "super": 6976,
      "ents ": 6977,
      "mel": 6978,
      "met, ": 6979,
      "memor": 6980,
      "me; and ": 6981,
      "methinks, ": 6982,
      "The queen ": 6983,
      "conj": 6984,
      "concer": 6985,
      "capa": 6986,
      "are we ": 6987,
      "are thy ": 6988,
      "ruth": 6989,
      "rule ": 6990,
      "sible ": 6991,
      "sight, ": 6992,
      "To this ": 6993,
      "To hear ": 6994,
      "To whom ": 6995,
      "worship ": 6996,
      "negle": 6997,
      "dew": 6998,
      "de? ": 6999,
      "decl": 7000,
      "depart ": 7001,
      "wept ": 7002,
      "wash": 7003,
      "wail": 7004,
      "wash ": 7005,
      "wash'd ": 7006,
      "dain": 7007,
      "dam\r\n": 7008,
      "by Saint ": 7009,
      "cement ": 7010,
      "manif": 7011,
      "terri": 7012,
      "so I ": 7013,
      "lord! ": 7014,
      "moon, ": 7015,
      "him from ": 7016,
      "hearti": 7017,
      "That I ": 7018,
      "polic": 7019,
      "thy father ": 7020,
      "ours\r\n": 7021,
      "no fur": 7022,
      "no more, ": 7023,
      "path": 7024,
      "pala": 7025,
      "gaol": 7026,
      "est thou, ": 7027,
      "to\r\n": 7028,
      "to't\r\n": 7029,
      "her! ": 7030,
      "doing ": 7031,
      "dog ": 7032,
      "else? ": 7033,
      "boy! ": 7034,
      "fig": 7035,
      "although ": 7036,
      "warm": 7037,
      "warri": 7038,
      "all in ": 7039,
      "all our ": 7040,
      "deal ": 7041,
      "good sir, ": 7042,
      "with their ": 7043,
      "within, ": 7044,
      "within this ": 7045,
      "all: ": 7046,
      "all; ": 7047,
      "all thy ": 7048,
      "mine": 7049,
      "mind, ": 7050,
      "ous and ": 7051,
      "parts ": 7052,
      "parted ": 7053,
      "My heart ": 7054,
      "My lord ": 7055,
      "Within": 7056,
      "Widow": 7057,
      "ved: ": 7058,
      "rang": 7059,
      "profit ": 7060,
      "ders, ": 7061,
      "to the Capitol": 7062,
      "ise, ": 7063,
      "perfor": 7064,
      "perform ": 7065,
      "me, And ": 7066,
      "What says ": 7067,
      "As well ": 7068,
      "she shall ": 7069,
      "she did ": 7070,
      "d; But ": 7071,
      "were not ": 7072,
      "from our ": 7073,
      "For what ": 7074,
      "For I have ": 7075,
      "son's ": 7076,
      "kings ": 7077,
      "kingdom": 7078,
      "soci": 7079,
      "like you, ": 7080,
      "hath he ": 7081,
      "bab": 7082,
      "bade ": 7083,
      "back, ": 7084,
      "you, good ": 7085,
      "tions, ": 7086,
      "should not ": 7087,
      "mb ": 7088,
      "I have been ": 7089,
      "can, ": 7090,
      "; And then ": 7091,
      "lands ": 7092,
      "dest": 7093,
      "hand; ": 7094,
      "had he ": 7095,
      "guess ": 7096,
      "thee to ": 7097,
      "which I ": 7098,
      "ousan": 7099,
      "play": 7100,
      "selfsame ": 7101,
      "my lord! ": 7102,
      "looking ": 7103,
      "ender ": 7104,
      "oppos": 7105,
      "still, ": 7106,
      "still\r\n": 7107,
      "take your ": 7108,
      "man of ": 7109,
      "yet un": 7110,
      "charit": 7111,
      "LOUGH": 7112,
      "prai": 7113,
      "If any ": 7114,
      "If ever ": 7115,
      "know your ": 7116,
      "but": 7117,
      "LIS": 7118,
      "Marian": 7119,
      "ds, And ": 7120,
      "GLOUCESTER: KING EDWARD IV: ": 7121,
      "when it ": 7122,
      "breast ": 7123,
      "breast, ": 7124,
      "How long ": 7125,
      "How far ": 7126,
      "How fares ": 7127,
      "aff": 7128,
      "upon her ": 7129,
      "Thou shalt ": 7130,
      "seeing ": 7131,
      "prevent": 7132,
      "press'd ": 7133,
      "abou": 7134,
      "merci": 7135,
      "judge ": 7136,
      "Why, then, ": 7137,
      "deep": 7138,
      "deed\r\n": 7139,
      "deeds, ": 7140,
      "ked, ": 7141,
      "'Twere ": 7142,
      "pleased ": 7143,
      "pleasant ": 7144,
      "Bet": 7145,
      "Noble ": 7146,
      "stands, ": 7147,
      "up of ": 7148,
      "up his ": 7149,
      "By my ": 7150,
      "offend ": 7151,
      "where I ": 7152,
      "assured ": 7153,
      "peace! ": 7154,
      "doth he ": 7155,
      "if this ": 7156,
      "sore ": 7157,
      "tell you, ": 7158,
      "Ay, but ": 7159,
      "PETRUCHIO: Why, ": 7160,
      "yourselves ": 7161,
      "yourself, ": 7162,
      "drous ": 7163,
      "Second Senator: ": 7164,
      "Second Keeper: ": 7165,
      "too? ": 7166,
      "fair and ": 7167,
      "best\r\n": 7168,
      "ments of ": 7169,
      "curst ": 7170,
      "us, and ": 7171,
      "it is not ": 7172,
      "When you ": 7173,
      "begg": 7174,
      "Uncle, ": 7175,
      "slay ": 7176,
      "disma": 7177,
      "dissol": 7178,
      "dismis": 7179,
      "meant ": 7180,
      "ADRI": 7181,
      "carried ": 7182,
      "tches ": 7183,
      "coron": 7184,
      "chall": 7185,
      "chast": 7186,
      "purse ": 7187,
      "purchase ": 7188,
      "JULIET: I ": 7189,
      "I would have ": 7190,
      "you have been ": 7191,
      "horse\r\n": 7192,
      "What, ho! ": 7193,
      "Nay, but ": 7194,
      "honour's ": 7195,
      "JULIET: O ": 7196,
      "No, my good ": 7197,
      "vaul": 7198,
      "set the ": 7199,
      "to-night ": 7200,
      "to-night\r\n": 7201,
      "soul\r\n": 7202,
      "friendly ": 7203,
      "friends: ": 7204,
      "repu": 7205,
      "burthen ": 7206,
      "wot ": 7207,
      "call thee ": 7208,
      "compli": 7209,
      "winter ": 7210,
      "love; ": 7211,
      "sun, ": 7212,
      "sun\r\n": 7213,
      "Shall we ": 7214,
      "human ": 7215,
      "straight": 7216,
      "me to thy ": 7217,
      "spoken ": 7218,
      "quick ": 7219,
      "King Henry's ": 7220,
      "masters, ": 7221,
      "comfort, ": 7222,
      "craves ": 7223,
      "get a ": 7224,
      "pity, ": 7225,
      "dares ": 7226,
      "poss": 7227,
      "trembling ": 7228,
      "attend": 7229,
      "treasure ": 7230,
      "lady": 7231,
      "wont to ": 7232,
      "wondrous ": 7233,
      "If the ": 7234,
      "patience, ": 7235,
      "patient, ": 7236,
      "patience\r\n": 7237,
      "heavenly ": 7238,
      "fury ": 7239,
      "Provost": 7240,
      "lay the ": 7241,
      "flatter ": 7242,
      "thing that ": 7243,
      "fairest ": 7244,
      "office, ": 7245,
      "devise ": 7246,
      "Come hither, ": 7247,
      "haste\r\n": 7248,
      "head and ": 7249,
      "tears\r\n": 7250,
      "yet\r\n": 7251,
      "cheer ": 7252,
      "hope of ": 7253,
      "none but ": 7254,
      "wants ": 7255,
      "weep\r\n": 7256,
      "service\r\n": 7257,
      "danger ": 7258,
      "follow'd ": 7259,
      "followers ": 7260,
      "power to ": 7261,
      "soldier, ": 7262,
      "soldiers, ": 7263,
      "said '": 7264,
      "through": 7265,
      "country, ": 7266,
      "purpose, ": 7267,
      "Henry the ": 7268,
      "creatu": 7269,
      "command\r\n": 7270,
      "Laur": 7271,
      "prison\r\n": 7272,
      "Roman ": 7273,
      "Montague ": 7274,
      "Disp": 7275,
      "ble: ": 7276,
      "blemi": 7277,
      "gging ": 7278,
      "shortly ": 7279,
      "propor": 7280,
      "FLORIZEL": 7281,
      "cries ": 7282,
      "testi": 7283,
      "hangs ": 7284,
      "sign of ": 7285,
      "company, ": 7286,
      "sleep\r\n": 7287,
      "ever\r\n": 7288,
      "Buckingham": 7289,
      "mouth, ": 7290,
      "would, ": 7291,
      "body, ": 7292,
      "Give me thy ": 7293,
      "e'er I ": 7294,
      "Marry, sir, ": 7295,
      "breathed ": 7296,
      "born to ": 7297,
      "Perdi": 7298,
      "single ": 7299,
      "Petruchio ": 7300,
      "Tull": 7301,
      "enough, ": 7302,
      "steal ": 7303,
      "liberty ": 7304,
      "days, ": 7305,
      "knave ": 7306,
      "deliver'd ": 7307,
      "fresh": 7308,
      "To make a ": 7309,
      "respect ": 7310,
      "Margaret ": 7311,
      "LORD WIL": 7312,
      "small": 7313,
      "direct ": 7314,
      "supposed ": 7315,
      "proclama": 7316,
      "till the ": 7317,
      "govern'd ": 7318,
      "drunk": 7319,
      "to-morrow\r\n": 7320,
      "Exeter, ": 7321,
      "image ": 7322,
      "chance to ": 7323,
      "counterfeit ": 7324,
      "flesh": 7325,
      "triumphan": 7326,
      "cease ": 7327,
      "here's a ": 7328,
      "True, ": 7329,
      "malice ": 7330,
      "point\r\n": 7331,
      "shepherd's ": 7332,
      "Northumberlan": 7333,
      "commonweal": 7334,
      "apparel ": 7335,
      "Willi": 7336,
      "continu": 7337,
      "Pompey, ": 7338,
      "condemn'd ": 7339,
      "embrace": 7340,
      "mistake ": 7341,
      "minister ": 7342,
      "To-morrow ": 7343,
      "Turn ": 7344,
      "awhile, ": 7345,
      "maiden": 7346,
      "your highness ": 7347,
      "question ": 7348,
      "prepared ": 7349,
      "John ": 7350,
      "Death ": 7351,
      "tomb": 7352,
      "arrived ": 7353,
      "worse than ": 7354,
      "deputy ": 7355,
      "view": 7356,
      "account ": 7357,
      "Paulina": 7358,
      "Lancaster\r\n": 7359,
      "selves; ": 7360,
      "powerful ": 7361,
      "Lady Bon": 7362,
      "Fie, ": 7363,
      "wedding-": 7364,
      "countenance ": 7365,
      "afford ": 7366,
      "Help, ": 7367,
      "Somerset, ": 7368,
      "conduct ": 7369,
      "protector": 7370,
      "household ": 7371,
      "Katharina ": 7372,
      "Katharina, ": 7373,
      "your lordship ": 7374,
      "Volsce: ": 7375,
      "equal ": 7376,
      "sceptr": 7377,
      "Thursday ": 7378,
      "tedious ": 7379,
      "express ": 7380,
      "Rivers, ": 7381,
      "money ": 7382,
      "excellent ": 7383,
      "remembrance ": 7384,
      "County ": 7385,
      "famous ": 7386,
      "scene ": 7387,
      "barren ": 7388,
      "resolution ": 7389,
      "renowned ": 7390,
      "BALTHASAR: ": 7391,
      "Young ": 7392,
      "according ": 7393,
      "monstrous ": 7394,
      "committed ": 7395,
      "felt ": 7396,
      "Lord Marshal: ": 7397,
      "-in-": 7398,
      "CLEOMEN": 7399,
      "Villa": 7400,
      "sepulch": 7401,
      "LOUGHBY: ": 7402,
      "LORD WILLOUGHBY: ": 7403,
      "CLEOMENES: ": 7404,
      " S": 7405,
      "! thou ": 7406,
      "'ll": 7407,
      "'fore ": 7408,
      "'pardon": 7409,
      ":-- ": 7410,
      "?--": 7411,
      "BAR": 7412,
      "Cry ": 7413,
      "Coura": 7414,
      "Fal": 7415,
      "FRO": 7416,
      "Gu": 7417,
      "Gree": 7418,
      "He, ": 7419,
      "Hang": 7420,
      "Im": 7421,
      "I that ": 7422,
      "Me ": 7423,
      "NARDIN": 7424,
      "Old ": 7425,
      "RUT": 7426,
      "So": 7427,
      "Sur": 7428,
      "SO: ": 7429,
      "See": 7430,
      "Sun": 7431,
      "Send ": 7432,
      "Vir": 7433,
      "Val": 7434,
      "Vaugh": 7435,
      "ali": 7436,
      "amen": 7437,
      "aim": 7438,
      "ah, ": 7439,
      "amis": 7440,
      "alive ": 7441,
      "by": 7442,
      "bat": 7443,
      "by\r\n": 7444,
      "bish": 7445,
      "cro": 7446,
      "cle ": 7447,
      "cting ": 7448,
      "ction\r\n": 7449,
      "city\r\n": 7450,
      "ds": 7451,
      "den, ": 7452,
      "dge": 7453,
      "ddy ": 7454,
      "dance ": 7455,
      "dly, ": 7456,
      "d,-- ": 7457,
      "edi": 7458,
      "event": 7459,
      "flee": 7460,
      "fits ": 7461,
      "fare you ": 7462,
      "gs ": 7463,
      "gown ": 7464,
      "ggar": 7465,
      "hin": 7466,
      "i' ": 7467,
      "isure": 7468,
      "ker ": 7469,
      "ken, ": 7470,
      "knew": 7471,
      "lt": 7472,
      "ler ": 7473,
      "l! ": 7474,
      "low, ": 7475,
      "ling, ": 7476,
      "lar ": 7477,
      "less\r\n": 7478,
      "mm": 7479,
      "m; ": 7480,
      "mere ": 7481,
      "nup": 7482,
      "nest ": 7483,
      "ning, ": 7484,
      "none; ": 7485,
      "pom": 7486,
      "pear": 7487,
      "roun": 7488,
      "rough": 7489,
      "smo": 7490,
      "sought ": 7491,
      "t'": 7492,
      "ty! ": 7493,
      "tnes": 7494,
      "town, ": 7495,
      "ull": 7496,
      "var": 7497,
      "vea": 7498,
      "win ": 7499,
      "yon ": 7500,
      "thes": 7501,
      "th; ": 7502,
      "thus, ": 7503,
      "s have ": 7504,
      "outra": 7505,
      "ous, and ": 7506,
      "err": 7507,
      "er; ": 7508,
      "ining ": 7509,
      "indu": 7510,
      "into my ": 7511,
      "in't ": 7512,
      "into his ": 7513,
      "anch": 7514,
      "anon ": 7515,
      ": O, ": 7516,
      "orna": 7517,
      "orator": 7518,
      "en: ": 7519,
      "eness ": 7520,
      "enced ": 7521,
      "enforce ": 7522,
      " thought ": 7523,
      "one": 7524,
      "on? ": 7525,
      "is thy ": 7526,
      "is full of ": 7527,
      "ess": 7528,
      "est; ": 7529,
      "you'ld ": 7530,
      "I with ": 7531,
      "I like ": 7532,
      "I told ": 7533,
      "I loved ": 7534,
      "I see, ": 7535,
      "to him ": 7536,
      "to live ": 7537,
      "to me: ": 7538,
      "to London ": 7539,
      "and in ": 7540,
      "and de": 7541,
      "and then ": 7542,
      "ease ": 7543,
      "e, my ": 7544,
      "ing! ": 7545,
      "wide ": 7546,
      "widow, ": 7547,
      "sten": 7548,
      "stur": 7549,
      "strew": 7550,
      "the wor": 7551,
      "the most ": 7552,
      "the great ": 7553,
      "the king's ": 7554,
      "hil": 7555,
      "hid ": 7556,
      "hide": 7557,
      "nobi": 7558,
      "my dear ": 7559,
      "my mother ": 7560,
      "my mind ": 7561,
      "my dear": 7562,
      "my loving ": 7563,
      "my uncle ": 7564,
      "for\r\n": 7565,
      "forty ": 7566,
      "form, ": 7567,
      "forfeit ": 7568,
      "a c": 7569,
      "a par": 7570,
      "a mon": 7571,
      "a foo": 7572,
      "a bar": 7573,
      "a woman ": 7574,
      "of me ": 7575,
      "of king": 7576,
      "sell ": 7577,
      "sets ": 7578,
      "sed; ": 7579,
      "sed: ": 7580,
      "he may ": 7581,
      "? ISABELLA: ": 7582,
      "? BENVOLIO: ": 7583,
      "? Messenger: ": 7584,
      "? ELBOW: ": 7585,
      "lie, ": 7586,
      "lives, ": 7587,
      "liken": 7588,
      "lives\r\n": 7589,
      "at a ": 7590,
      "at home, ": 7591,
      "rewar": 7592,
      "recomp": 7593,
      "reign ": 7594,
      "redres": 7595,
      "ing of the ": 7596,
      "tice ": 7597,
      "tired ": 7598,
      "! ANGELO: ": 7599,
      "you did ": 7600,
      "rip": 7601,
      "rit": 7602,
      "ripe ": 7603,
      "in so ": 7604,
      "match ": 7605,
      "made, ": 7606,
      "made\r\n": 7607,
      "s, but ": 7608,
      "rate ": 7609,
      "rage, ": 7610,
      "rapi": 7611,
      "not of ": 7612,
      "And his ": 7613,
      "And therefore ": 7614,
      "t, a ": 7615,
      "me in my ": 7616,
      "as any ": 7617,
      "his majesty ": 7618,
      "last": 7619,
      "lament ": 7620,
      "lew": 7621,
      "lean ": 7622,
      "leisure": 7623,
      "urged ": 7624,
      "shea": 7625,
      "shine ": 7626,
      "be thou ": 7627,
      "be gone\r\n": 7628,
      "be: ": 7629,
      "behalf ": 7630,
      "beloved ": 7631,
      "behavi": 7632,
      "it and ": 7633,
      "it not\r\n": 7634,
      "rose ": 7635,
      "dia": 7636,
      "on to ": 7637,
      "on her ": 7638,
      "faint ": 7639,
      "fail ": 7640,
      "faction ": 7641,
      "have done ": 7642,
      "or two ": 7643,
      "with such a ": 7644,
      "with me: ": 7645,
      "with her, ": 7646,
      "with all my ": 7647,
      "that your ": 7648,
      "that will ": 7649,
      "that are ": 7650,
      "that we ": 7651,
      "that I am ": 7652,
      "that there ": 7653,
      "that ever ": 7654,
      "it; And ": 7655,
      "Think": 7656,
      "Through ": 7657,
      "sai": 7658,
      "salt ": 7659,
      "sava": 7660,
      "sake\r\n": 7661,
      "sacri": 7662,
      "comest ": 7663,
      "come? ": 7664,
      "ated ": 7665,
      "attemp": 7666,
      "'d his ": 7667,
      "'d With ": 7668,
      "of thin": 7669,
      "of them\r\n": 7670,
      "lovest ": 7671,
      "whe": 7672,
      "who's ": 7673,
      "tas": 7674,
      "tain, ": 7675,
      "shame\r\n": 7676,
      "shame to ": 7677,
      "thern ": 7678,
      "spy ": 7679,
      "sue ": 7680,
      "ently ": 7681,
      "When, ": 7682,
      "Whether ": 7683,
      "The one ": 7684,
      "The time ": 7685,
      "The other ": 7686,
      "The people ": 7687,
      "conver": 7688,
      "confu": 7689,
      "contemp": 7690,
      "cation ": 7691,
      "caiti": 7692,
      "are in ": 7693,
      "sic ": 7694,
      "To take ": 7695,
      "To think ": 7696,
      "To meet ": 7697,
      "To help ": 7698,
      "wep": 7699,
      "weight": 7700,
      "way? ": 7701,
      "thou canst ": 7702,
      "day: ": 7703,
      "by any ": 7704,
      "more: ": 7705,
      "mortal": 7706,
      "cel": 7707,
      "cely ": 7708,
      "manage ": 7709,
      "terror ": 7710,
      "so he ": 7711,
      "so well ": 7712,
      "cks, ": 7713,
      "cket ": 7714,
      "rescu": 7715,
      "restor": 7716,
      "rest; ": 7717,
      "resign ": 7718,
      "moan": 7719,
      "modest ": 7720,
      "him with ": 7721,
      "seldom ": 7722,
      "selves\r\n": 7723,
      "quire ": 7724,
      "known": 7725,
      "vio": 7726,
      "bles ": 7727,
      "te; ": 7728,
      "paid ": 7729,
      "what he ": 7730,
      "what of that": 7731,
      "gage ": 7732,
      "gaze ": 7733,
      " this is ": 7734,
      "to: ": 7735,
      "to't, ": 7736,
      "doom ": 7737,
      "do't ": 7738,
      "doth the ": 7739,
      "dozen ": 7740,
      "But who comes here? ": 7741,
      "boy": 7742,
      "fill ": 7743,
      "fied ": 7744,
      "us Larti": 7745,
      "alone ": 7746,
      "alone; ": 7747,
      "sirra": 7748,
      "sir, and ": 7749,
      "sirrah, ": 7750,
      "was not ": 7751,
      "with these ": 7752,
      "within my ": 7753,
      "with thee": 7754,
      "fetch": 7755,
      "league ": 7756,
      "all-": 7757,
      "alle": 7758,
      "part; ": 7759,
      "parting ": 7760,
      "My father ": 7761,
      "My brother ": 7762,
      "My liege, ": 7763,
      ": I am": 7764,
      "Wilt": 7765,
      "vely ": 7766,
      "ought, ": 7767,
      "I'll tell you ": 7768,
      "proof ": 7769,
      "prove, ": 7770,
      "proceed ": 7771,
      "deri": 7772,
      "hoar": 7773,
      "more than": 7774,
      "perni": 7775,
      "true; ": 7776,
      "true-": 7777,
      "ONSO: ": 7778,
      "What is't ": 7779,
      "if any ": 7780,
      "As much ": 7781,
      "she hath ": 7782,
      "were his ": 7783,
      "from him ": 7784,
      "hell, ": 7785,
      "soever ": 7786,
      "hath not ": 7787,
      "make my ": 7788,
      "make it ": 7789,
      "Hast thou ": 7790,
      "Hadst thou ": 7791,
      "getting ": 7792,
      "'t; ": 7793,
      "god ": 7794,
      "nap": 7795,
      "ghted ": 7796,
      " thou wast ": 7797,
      "of the house of ": 7798,
      "destin": 7799,
      "had a ": 7800,
      "had no ": 7801,
      "had rather ": 7802,
      "I am no ": 7803,
      "I am sor": 7804,
      "mark": 7805,
      "stake ": 7806,
      "accursed ": 7807,
      "eye": 7808,
      "plain, ": 7809,
      "lift ": 7810,
      "look, ": 7811,
      "did you ": 7812,
      "here is ": 7813,
      "say I ": 7814,
      "exchange ": 7815,
      "sir, the ": 7816,
      "O heavens! ": 7817,
      "custom": 7818,
      "think, ": 7819,
      "love thee ": 7820,
      "yet I ": 7821,
      "charity ": 7822,
      "counsell": 7823,
      "scatter": 7824,
      "First Keeper: ": 7825,
      "First Soldi": 7826,
      "prison ": 7827,
      "If I ": 7828,
      "king of ": 7829,
      "voli": 7830,
      "Master": 7831,
      "burie": 7832,
      "s; But ": 7833,
      "Mark ": 7834,
      "can be ": 7835,
      "breath of ": 7836,
      "With a ": 7837,
      "With all the ": 7838,
      "te and ": 7839,
      "How many ": 7840,
      "go along ": 7841,
      "upon you ": 7842,
      "Thou wilt ": 7843,
      "well? ": 7844,
      "well, and ": 7845,
      "foes ": 7846,
      "mine eyes ": 7847,
      "made to ": 7848,
      "joys ": 7849,
      "join'd ": 7850,
      "preci": 7851,
      "prevent ": 7852,
      "brow ": 7853,
      "brook ": 7854,
      "present, ": 7855,
      "absen": 7856,
      "done": 7857,
      "done? ": 7858,
      "Of our ": 7859,
      "merry, ": 7860,
      "y; but ": 7861,
      "s and the ": 7862,
      "deem ": 7863,
      "kele": 7864,
      "farde": 7865,
      "senat": 7866,
      "sensel": 7867,
      "thereof ": 7868,
      "se, and ": 7869,
      "son and ": 7870,
      "son of ": 7871,
      "Better ": 7872,
      "No\r\n": 7873,
      "itious ": 7874,
      "up with ": 7875,
      "where he ": 7876,
      "where they ": 7877,
      "ROMEO: O, ": 7878,
      "trench": 7879,
      "womb": 7880,
      "women": 7881,
      "torment ": 7882,
      "angel": 7883,
      "doth not ": 7884,
      "if that ": 7885,
      "sorted ": 7886,
      "than a ": 7887,
      "shire ": 7888,
      "trick ": 7889,
      "death, and ": 7890,
      "Second Messenger: ": 7891,
      "harsh ": 7892,
      "ten thousand ": 7893,
      "hear me\r\n": 7894,
      "speak a ": 7895,
      "blood: ": 7896,
      "garment": 7897,
      "garden": 7898,
      "cot": 7899,
      "coll": 7900,
      "coat, ": 7901,
      "Lord Angelo ": 7902,
      "ment: ": 7903,
      "ment; ": 7904,
      "ge, And ": 7905,
      "When he ": 7906,
      "being so ": 7907,
      "disgu": 7908,
      "many a ": 7909,
      "corrup": 7910,
      "powers ": 7911,
      "tongues ": 7912,
      "chair ": 7913,
      "chamber ": 7914,
      "I would be ": 7915,
      "courti": 7916,
      "court? ": 7917,
      "passa": 7918,
      "passion ": 7919,
      "princes": 7920,
      "clear": 7921,
      "clear ": 7922,
      "Prove ": 7923,
      "grieve ": 7924,
      "youngest ": 7925,
      "help, ": 7926,
      "No, no, ": 7927,
      "first: ": 7928,
      "highness' ": 7929,
      "set down ": 7930,
      "hope\r\n": 7931,
      "Not a ": 7932,
      "willing ": 7933,
      "to-day ": 7934,
      "to-day, ": 7935,
      "brother: ": 7936,
      "brother\r\n": 7937,
      "armour ": 7938,
      "soul! ": 7939,
      "souls, ": 7940,
      "Cali": 7941,
      "both your ": 7942,
      "woe\r\n": 7943,
      "what": 7944,
      "call the ": 7945,
      "call them ": 7946,
      ",-- SICINIUS: ": 7947,
      "happily ": 7948,
      "happiness ": 7949,
      "Now, by my ": 7950,
      "life and ": 7951,
      "awake ": 7952,
      "thanks ": 7953,
      "friend\r\n": 7954,
      "every one ": 7955,
      "water, ": 7956,
      "From the ": 7957,
      "bid him ": 7958,
      "I said, ": 7959,
      "world: ": 7960,
      "Shall I be ": 7961,
      "might be ": 7962,
      "among ": 7963,
      "till I ": 7964,
      "looked ": 7965,
      "upon their ": 7966,
      "if you be ": 7967,
      "King Henry ": 7968,
      "King Edward's ": 7969,
      "Peter": 7970,
      "They have ": 7971,
      "call you ": 7972,
      "done to ": 7973,
      "thee; ": 7974,
      "young and ": 7975,
      "myself? ": 7976,
      "Nurse: O ": 7977,
      "craf": 7978,
      "thus I ": 7979,
      "Marcius\r\n": 7980,
      "Marcius! ": 7981,
      "banishment, ": 7982,
      "hand of ": 7983,
      "pity\r\n": 7984,
      "chance, ": 7985,
      "heard the ": 7986,
      "then\r\n": 7987,
      "keep your ": 7988,
      "Lici": 7989,
      "treason ": 7990,
      "Justi": 7991,
      "since the ": 7992,
      "that I should ": 7993,
      "Duke of York, ": 7994,
      "dowry ": 7995,
      "oath, ": 7996,
      "voice, ": 7997,
      "voices, ": 7998,
      "If, ": 7999,
      "undertake ": 8000,
      "tempest ": 8001,
      "heaven\r\n": 8002,
      "bring you ": 8003,
      "bring me ": 8004,
      "bring it ": 8005,
      "Off ": 8006,
      "myself a ": 8007,
      "where's ": 8008,
      "credi": 8009,
      "credit ": 8010,
      "revenge": 8011,
      "spect ": 8012,
      "mother; ": 8013,
      "strang": 8014,
      "woman\r\n": 8015,
      "Leon": 8016,
      "cheth ": 8017,
      "word '": 8018,
      "intent": 8019,
      " themselves ": 8020,
      "please to ": 8021,
      "weep, ": 8022,
      "spirits ": 8023,
      "Were he ": 8024,
      "led by ": 8025,
      "mistress\r\n": 8026,
      "mistress' ": 8027,
      "night's ": 8028,
      "beauti": 8029,
      "beauteous ": 8030,
      "gros": 8031,
      "dispatch ": 8032,
      "growing ": 8033,
      "hung": 8034,
      "hunt ": 8035,
      "throne, ": 8036,
      "I should not ": 8037,
      "together": 8038,
      "pluck'd ": 8039,
      "wife is ": 8040,
      "wife and ": 8041,
      "Paris, ": 8042,
      "Pardon, ": 8043,
      "wear the ": 8044,
      "IDAM": 8045,
      "POMPEY: Sir, ": 8046,
      "duke is ": 8047,
      "France\r\n": 8048,
      "silent ": 8049,
      "queen and ": 8050,
      "Fair ": 8051,
      "colour": 8052,
      "sovereign's ": 8053,
      "pardon, ": 8054,
      "pardon\r\n": 8055,
      "give me leave ": 8056,
      "Jove ": 8057,
      "tyrant ": 8058,
      "sorrow\r\n": 8059,
      "sorrow's ": 8060,
      "Romeo is ": 8061,
      "ctor ": 8062,
      "gates of ": 8063,
      "object ": 8064,
      "swallow": 8065,
      "discover": 8066,
      "prince's ": 8067,
      "Like to a ": 8068,
      "writ ": 8069,
      "quali": 8070,
      "bosom, ": 8071,
      "what's the matter": 8072,
      "Gloucester ": 8073,
      "dges ": 8074,
      "this! ": 8075,
      "dream'd ": 8076,
      "keep the ": 8077,
      "seem to ": 8078,
      "mouth ": 8079,
      "mayor ": 8080,
      "dukedom ": 8081,
      "frame ": 8082,
      "accused ": 8083,
      "thine own ": 8084,
      "Lucentio, ": 8085,
      "twenty thousand ": 8086,
      "gone to ": 8087,
      "body\r\n": 8088,
      "enemies ": 8089,
      "Lancaster, ": 8090,
      "emplo": 8091,
      "steel ": 8092,
      "he would have ": 8093,
      "Farewell: ": 8094,
      "lower ": 8095,
      "thither\r\n": 8096,
      "no more; ": 8097,
      "hence! ": 8098,
      "manners ": 8099,
      "Tush, ": 8100,
      "mourn ": 8101,
      "liberty\r\n": 8102,
      "affection": 8103,
      "Hereford ": 8104,
      "Hereford's ": 8105,
      "tribunes ": 8106,
      "look'd for ": 8107,
      "Richmond, ": 8108,
      "London": 8109,
      "London, ": 8110,
      "swear, ": 8111,
      "Margaret, ": 8112,
      "ages ": 8113,
      "foreign ": 8114,
      "scorn": 8115,
      "drunk ": 8116,
      "bound to ": 8117,
      "triumph ": 8118,
      "north, ": 8119,
      "before: ": 8120,
      "petition": 8121,
      "petition ": 8122,
      "plainly ": 8123,
      "kinsman ": 8124,
      "Oxford ": 8125,
      "'em ": 8126,
      "stoop": 8127,
      "church ": 8128,
      "approach": 8129,
      "Prin": 8130,
      "drown": 8131,
      "yields ": 8132,
      "thrive ": 8133,
      "thrice ": 8134,
      "apparent ": 8135,
      "ALONSO: ": 8136,
      "Away with ": 8137,
      "; For, ": 8138,
      "nobles ": 8139,
      "counsel, ": 8140,
      "sister\r\n": 8141,
      "blush ": 8142,
      "Padua ": 8143,
      "About ": 8144,
      "He'll ": 8145,
      "prosperous ": 8146,
      "Grumio, ": 8147,
      "Earl of Wilt": 8148,
      "abroad ": 8149,
      "odds ": 8150,
      "thyself, ": 8151,
      "stretch": 8152,
      "course of ": 8153,
      "Fear not, ": 8154,
      "dness\r\n": 8155,
      "tomor": 8156,
      "threaten": 8157,
      "neighbour ": 8158,
      "view ": 8159,
      "expect ": 8160,
      "butcher": 8161,
      "Mercutio, ": 8162,
      "book of ": 8163,
      "third ": 8164,
      "I am the ": 8165,
      "beholding ": 8166,
      "solemn ": 8167,
      "condition ": 8168,
      "contract ": 8169,
      "pleasure\r\n": 8170,
      "cried '": 8171,
      "contrar": 8172,
      "pierce ": 8173,
      "choice ": 8174,
      "Cousin of ": 8175,
      "Queen ": 8176,
      "jealou": 8177,
      "Apollo ": 8178,
      "avoided ": 8179,
      "titude ": 8180,
      "maintain ": 8181,
      "bridegroom ": 8182,
      "physician": 8183,
      "Thomas Mowbra": 8184,
      "Caius Marcius ": 8185,
      "Menenius, ": 8186,
      "abide ": 8187,
      "refuse ": 8188,
      "ARCHIDAM": 8189,
      "perpetual ": 8190,
      "Let him be ": 8191,
      "intend to ": 8192,
      "particular": 8193,
      "Dorset, ": 8194,
      "bottom ": 8195,
      "current ": 8196,
      "Berkele": 8197,
      "Titus Larti": 8198,
      "hatred ": 8199,
      "treacherous ": 8200,
      "Huntsman: ": 8201,
      "privilege ": 8202,
      "Ratcliff, ": 8203,
      "melancho": 8204,
      "prettiest ": 8205,
      "Remember ": 8206,
      "Signior Baptista, ": 8207,
      "Paulina, ": 8208,
      "Jesu": 8209,
      "anointed ": 8210,
      "conjure ": 8211,
      "ruthless ": 8212,
      "figure ": 8213,
      "Widow: ": 8214,
      "destroy": 8215,
      "afflic": 8216,
      "dismal ": 8217,
      "ADRIAN: ": 8218,
      "challen": 8219,
      "possess ": 8220,
      "triumphant ": 8221,
      "William ": 8222,
      "BARNARDIN": 8223,
      "FROTH": 8224,
      "Surre": 8225,
      "recompen": 8226,
      "sacrifi": 8227,
      "pernicious ": 8228,
      "ARCHIDAMUS: ": 8229,
      " ST": 8230,
      "! thy ": 8231,
      "'dst ": 8232,
      "-like ": 8233,
      "; they ": 8234,
      "Ay": 8235,
      "Abo": 8236,
      "Blun": 8237,
      "Burg": 8238,
      "CRO": 8239,
      "EP": 8240,
      "EOR": 8241,
      "Esca": 8242,
      "Fo": 8243,
      "Five ": 8244,
      "FIT": 8245,
      "GO": 8246,
      "Gar": 8247,
      "GE: ": 8248,
      "GEOR": 8249,
      "Hon": 8250,
      "Hence ": 8251,
      "I: I ": 8252,
      "Keep ": 8253,
      "Men ": 8254,
      "MOR": 8255,
      "Mis": 8256,
      "Mil": 8257,
      "Nat": 8258,
      "None ": 8259,
      "None, ": 8260,
      "O'er": 8261,
      "Pur": 8262,
      "Prep": 8263,
      "Sor": 8264,
      "Set ": 8265,
      "SIR": 8266,
      "Tra": 8267,
      "Tal": 8268,
      "Touch": 8269,
      "Vouch": 8270,
      "Veni": 8271,
      "Wom": 8272,
      "WEST": 8273,
      "WAT": 8274,
      "ZWAT": 8275,
      "a: ": 8276,
      "a; ": 8277,
      "as, ": 8278,
      "abe": 8279,
      "apo": 8280,
      "apa": 8281,
      "ation": 8282,
      "am, ": 8283,
      "aged ": 8284,
      "ation, ": 8285,
      "alive, ": 8286,
      "able, ": 8287,
      "by: ": 8288,
      "by; ": 8289,
      "bill": 8290,
      "bbed ": 8291,
      "chat ": 8292,
      "cta": 8293,
      "ct\r\n": 8294,
      "cop": 8295,
      "d!": 8296,
      "ding\r\n": 8297,
      "dried ": 8298,
      "dged ": 8299,
      "de, And ": 8300,
      "dire ": 8301,
      "ew": 8302,
      "fe, ": 8303,
      "floo": 8304,
      "feet ": 8305,
      "func": 8306,
      "flight, ": 8307,
      "gna": 8308,
      "gree ": 8309,
      "ild ": 8310,
      "ister": 8311,
      "ither, ": 8312,
      "is, and ": 8313,
      "jest, ": 8314,
      "jest\r\n": 8315,
      "ks and ": 8316,
      "l; ": 8317,
      "ls\r\n": 8318,
      "ls and ": 8319,
      "ler, ": 8320,
      "mp ": 8321,
      "ny": 8322,
      "ny ": 8323,
      "p-": 8324,
      "phi": 8325,
      "p the ": 8326,
      "rar": 8327,
      "ran ": 8328,
      "sow": 8329,
      "s-- ": 8330,
      "ses; ": 8331,
      "smother": 8332,
      "slip": 8333,
      "tend ": 8334,
      "tle, ": 8335,
      "ty? ": 8336,
      "t,--": 8337,
      "usu": 8338,
      "vit": 8339,
      "val ": 8340,
      "vul": 8341,
      "vassa": 8342,
      "x, ": 8343,
      "thie": 8344,
      "thunder": 8345,
      "three-": 8346,
      "oud ": 8347,
      "y of ": 8348,
      "ine\r\n": 8349,
      "inte": 8350,
      "insol": 8351,
      "in thee, ": 8352,
      "in those ": 8353,
      "infan": 8354,
      "infect ": 8355,
      "injur": 8356,
      "any, ": 8357,
      ": For ": 8358,
      "orn ": 8359,
      "enm": 8360,
      "endu": 8361,
      "enjoy ": 8362,
      "encounter": 8363,
      "are: ": 8364,
      "on-": 8365,
      "on'd ": 8366,
      "on, And ": 8367,
      "lled ": 8368,
      "ha! ": 8369,
      "hap ": 8370,
      "hatch": 8371,
      "hadst thou ": 8372,
      "is now ": 8373,
      "is grown ": 8374,
      "es; And ": 8375,
      "ested ": 8376,
      "ess; ": 8377,
      "est? ": 8378,
      "you're ": 8379,
      "I find ": 8380,
      "I lay ": 8381,
      "I desire ": 8382,
      "I have": 8383,
      "to us ": 8384,
      "to tell ": 8385,
      "to find ": 8386,
      "to us\r\n": 8387,
      "to lose ": 8388,
      "and '": 8389,
      "and for ": 8390,
      "and all ": 8391,
      "and now ": 8392,
      "and how ": 8393,
      "and give ": 8394,
      "and true ": 8395,
      "eas": 8396,
      "ingra": 8397,
      "wives ": 8398,
      "wise, ": 8399,
      "witch ": 8400,
      "wipe ": 8401,
      "; 'tis ": 8402,
      "stout ": 8403,
      "the good ": 8404,
      "the other ": 8405,
      "the next ": 8406,
      "the queen's ": 8407,
      "his, ": 8408,
      "th Citizen: ": 8409,
      "ve the ": 8410,
      "noi": 8411,
      "noble": 8412,
      "nothing, ": 8413,
      "ch-": 8414,
      "ched ": 8415,
      "my daughter": 8416,
      "my brother, ": 8417,
      "my brother's ": 8418,
      "my lady ": 8419,
      "forwar": 8420,
      "forgo": 8421,
      "for them": 8422,
      "forth the ": 8423,
      "for that": 8424,
      "forsoo": 8425,
      "a whi": 8426,
      "a devi": 8427,
      "a happy ": 8428,
      "a strange ": 8429,
      "of good ": 8430,
      "of you, ": 8431,
      "of any ": 8432,
      "of much ": 8433,
      "of noble ": 8434,
      "of great ": 8435,
      "of heaven ": 8436,
      "seen, ": 8437,
      "sequi": 8438,
      "seen\r\n": 8439,
      "he is": 8440,
      "he cannot ": 8441,
      "? HORTENSIO: ": 8442,
      "? Provost: ": 8443,
      "lie\r\n": 8444,
      "liver": 8445,
      "likes ": 8446,
      "lip, ": 8447,
      "at on": 8448,
      "at that ": 8449,
      "at lea": 8450,
      "at last ": 8451,
      "at home": 8452,
      "at least ": 8453,
      "at Pomfre": 8454,
      "rebu": 8455,
      "remove ": 8456,
      "revel ": 8457,
      "rejoi": 8458,
      "Anton": 8459,
      "ears\r\n": 8460,
      "ears? ": 8461,
      "tied ": 8462,
      "tious ": 8463,
      "time: ": 8464,
      "! And ": 8465,
      "! what ": 8466,
      "! How ": 8467,
      "! MENENIUS: ": 8468,
      "! CORIOLANUS: ": 8469,
      "! KING RICHARD II: ": 8470,
      "you in ": 8471,
      "you so ": 8472,
      "you say ": 8473,
      "you know, ": 8474,
      "d, that ": 8475,
      "rich, ": 8476,
      "in an ": 8477,
      "in him ": 8478,
      "in him\r\n": 8479,
      "in such a ": 8480,
      "in Vien": 8481,
      "mal": 8482,
      "male ": 8483,
      "s, To ": 8484,
      "rash": 8485,
      "raven": 8486,
      "rather, ": 8487,
      "rash ": 8488,
      "rate, ": 8489,
      "not yet ": 8490,
      "not too ": 8491,
      "not so\r\n": 8492,
      "And I'll ": 8493,
      "t, That ": 8494,
      "me for ": 8495,
      "me To ": 8496,
      "me from ": 8497,
      "me wrong": 8498,
      "es I ": 8499,
      "y, That ": 8500,
      "as his ": 8501,
      "as for ": 8502,
      "as good ": 8503,
      "as if ": 8504,
      "as it is ": 8505,
      "as I said, ": 8506,
      "his noble ": 8507,
      "his mother ": 8508,
      "his friends ": 8509,
      "led\r\n": 8510,
      "shes ": 8511,
      "shel": 8512,
      "shrie": 8513,
      "shore ": 8514,
      "shook ": 8515,
      "be in ": 8516,
      "be your ": 8517,
      "be gone, ": 8518,
      "belike ": 8519,
      "belove": 8520,
      "before, ": 8521,
      "belly ": 8522,
      "your father": 8523,
      "your brother ": 8524,
      "it must ": 8525,
      "it be, ": 8526,
      "it is\r\n": 8527,
      "room ": 8528,
      "rock, ": 8529,
      "robb": 8530,
      "did\r\n": 8531,
      "did; ": 8532,
      "dition ": 8533,
      "die: ": 8534,
      "distra": 8535,
      "ere thou ": 8536,
      "on him ": 8537,
      "uni": 8538,
      "unts ": 8539,
      "unju": 8540,
      "undone ": 8541,
      "unhappy ": 8542,
      "unknown ": 8543,
      "have some ": 8544,
      "or no": 8545,
      "or your ": 8546,
      "with an ": 8547,
      "with one ": 8548,
      "with me; ": 8549,
      "with us\r\n": 8550,
      "with her\r\n": 8551,
      "that to ": 8552,
      "that have ": 8553,
      "that this ": 8554,
      "itself\r\n": 8555,
      "Then": 8556,
      "Things ": 8557,
      "Thine ": 8558,
      "sau": 8559,
      "sail": 8560,
      "say: ": 8561,
      "salu": 8562,
      "saying ": 8563,
      "come": 8564,
      "comes\r\n": 8565,
      "come! ": 8566,
      "coming\r\n": 8567,
      "our fo": 8568,
      "ats ": 8569,
      "atel": 8570,
      "attor": 8571,
      "atten": 8572,
      "'d for ": 8573,
      "'d her ": 8574,
      "of thee ": 8575,
      "lo, ": 8576,
      "loso": 8577,
      "whel": 8578,
      "whom, ": 8579,
      "for what ": 8580,
      "for me\r\n": 8581,
      "for you\r\n": 8582,
      "for ever\r\n": 8583,
      "tack": 8584,
      "tasti": 8585,
      "tal, ": 8586,
      "tail ": 8587,
      "shape ": 8588,
      "spite ": 8589,
      "ly the ": 8590,
      "readin": 8591,
      "supre": 8592,
      "entran": 8593,
      "Where, ": 8594,
      "When the ": 8595,
      "but I am ": 8596,
      "me; For ": 8597,
      "member": 8598,
      "meddle ": 8599,
      "The more ": 8600,
      "consta": 8601,
      "concei": 8602,
      "consequ": 8603,
      "cab": 8604,
      "are but ": 8605,
      "are all ": 8606,
      "are you, ": 8607,
      "are you? ": 8608,
      "sive ": 8609,
      "sied ": 8610,
      "simp": 8611,
      "silly ": 8612,
      "worm": 8613,
      "wore ": 8614,
      "word; ": 8615,
      "words? ": 8616,
      "deth ": 8617,
      "dew ": 8618,
      "ded? ": 8619,
      "decre": 8620,
      "degree ": 8621,
      "wag": 8622,
      "way: ": 8623,
      "way; ": 8624,
      "waste ": 8625,
      "by and ": 8626,
      "by our ": 8627,
      "by some ": 8628,
      "vers ": 8629,
      "cell": 8630,
      "mild ": 8631,
      "misc": 8632,
      "so your ": 8633,
      "so shall ": 8634,
      "up: ": 8635,
      "we can ": 8636,
      "lord's ": 8637,
      "rese": 8638,
      "resign": 8639,
      "him; And ": 8640,
      "hear\r\n": 8641,
      "heart: ": 8642,
      "heart; ": 8643,
      "hearts, ": 8644,
      "heart-": 8645,
      "do the ": 8646,
      "That I have ": 8647,
      "That which ": 8648,
      "poli": 8649,
      "pover": 8650,
      "point": 8651,
      "popul": 8652,
      "quit": 8653,
      "thy name? ": 8654,
      "known, ": 8655,
      "knight": 8656,
      "blown ": 8657,
      "ble, and ": 8658,
      "te'er ": 8659,
      "her to ": 8660,
      "her brother": 8661,
      "no doubt, ": 8662,
      "pain ": 8663,
      "pain of ": 8664,
      "palace ": 8665,
      "this un": 8666,
      "this is a ": 8667,
      "what to ": 8668,
      "what then? ": 8669,
      " that the ": 8670,
      " that we ": 8671,
      "one would ": 8672,
      "to? ": 8673,
      "to't ": 8674,
      "do't, ": 8675,
      "But now ": 8676,
      "eldest ": 8677,
      "boy; ": 8678,
      "als ": 8679,
      "es, that ": 8680,
      "all a": 8681,
      "good and ": 8682,
      "good old ": 8683,
      "sirs, ": 8684,
      "was I ": 8685,
      "was my ": 8686,
      "was it ": 8687,
      "within the ": 8688,
      "with them": 8689,
      "feed ": 8690,
      "feit": 8691,
      "feder": 8692,
      "ELY: ": 8693,
      "ARD: I ": 8694,
      "minute ": 8695,
      "part\r\n": 8696,
      "My noble ": 8697,
      "My tongue ": 8698,
      "My mind ": 8699,
      ": I pray ": 8700,
      "veins ": 8701,
      ", and my ": 8702,
      ", and not ": 8703,
      "I'll have ": 8704,
      "proved ": 8705,
      "der\r\n": 8706,
      "giddy ": 8707,
      "more Than ": 8708,
      "perju": 8709,
      "person, ": 8710,
      "me, the ": 8711,
      "ts to ": 8712,
      "ts that ": 8713,
      "true": 8714,
      "true? ": 8715,
      "truly, ": 8716,
      "grace! ": 8717,
      "As if ": 8718,
      "As is the ": 8719,
      "As 'twere ": 8720,
      "swo": 8721,
      "were the ": 8722,
      "were you ": 8723,
      "were it ": 8724,
      " Is ": 8725,
      "from whence ": 8726,
      "son; ": 8727,
      "sons\r\n": 8728,
      "sons and ": 8729,
      "out my ": 8730,
      "heed ": 8731,
      "like to be ": 8732,
      "make her ": 8733,
      "A most ": 8734,
      "A little ": 8735,
      "geous ": 8736,
      "peer": 8737,
      "pedi": 8738,
      "petty ": 8739,
      "'t? ": 8740,
      "'twill ": 8741,
      "duce ": 8742,
      "dulter": 8743,
      "god": 8744,
      "gods! ": 8745,
      "you, sir\r\n": 8746,
      "you, my noble ": 8747,
      "may I ": 8748,
      "may not ": 8749,
      "nation ": 8750,
      "naked ": 8751,
      "let this ": 8752,
      "come the ": 8753,
      "th, And ": 8754,
      "frighted ": 8755,
      "mbi": 8756,
      "cannot, ": 8757,
      "mp, ": 8758,
      "pping ": 8759,
      "they do ": 8760,
      "they say ": 8761,
      "they say, ": 8762,
      " thou didst ": 8763,
      "destru": 8764,
      "descen": 8765,
      "despi": 8766,
      "hand, and ": 8767,
      "had the ": 8768,
      "I am in ": 8769,
      "I am so ": 8770,
      "stay'd ": 8771,
      "guest ": 8772,
      "guess, ": 8773,
      "eye\r\n": 8774,
      "eyes: ": 8775,
      "places ": 8776,
      "O, let me ": 8777,
      "very good ": 8778,
      "ty and ": 8779,
      "ty of ": 8780,
      "here to ": 8781,
      "here and ": 8782,
      "here comes the ": 8783,
      "say you, ": 8784,
      "say you? ": 8785,
      "experi": 8786,
      "take his ": 8787,
      "O God, ": 8788,
      "venspur": 8789,
      "cured ": 8790,
      "love the ": 8791,
      "love of ": 8792,
      "yet not ": 8793,
      "prithee ": 8794,
      "see thee ": 8795,
      "If he ": 8796,
      "whipp": 8797,
      "k, And ": 8798,
      "chief ": 8799,
      "king in ": 8800,
      "Lords, ": 8801,
      "I will go ": 8802,
      " their own ": 8803,
      "know not ": 8804,
      "buzz": 8805,
      "build ": 8806,
      "s; but ": 8807,
      "s; For ": 8808,
      "s of a ": 8809,
      "s of his ": 8810,
      "March ": 8811,
      "when we ": 8812,
      "can do ": 8813,
      "break the ": 8814,
      "HEN S": 8815,
      "any other ": 8816,
      "any thing": 8817,
      "tutor": 8818,
      "afra": 8819,
      "after, ": 8820,
      "go and ": 8821,
      "mine eyes, ": 8822,
      "advanta": 8823,
      "admit": 8824,
      "them and ": 8825,
      "Is she ": 8826,
      "Is there ": 8827,
      "appointed ": 8828,
      "Your brother ": 8829,
      "Your highness ": 8830,
      "presu": 8831,
      "We do ": 8832,
      "We shall be ": 8833,
      "abun": 8834,
      "absent ": 8835,
      "done, And ": 8836,
      "s! What ": 8837,
      "ttering ": 8838,
      "d! O ": 8839,
      "men: ": 8840,
      "use to ": 8841,
      "lust": 8842,
      "It is the ": 8843,
      "It is my ": 8844,
      "Why, sir, ": 8845,
      "Right ": 8846,
      "money": 8847,
      "months ": 8848,
      "Becomes ": 8849,
      "up to ": 8850,
      "offended ": 8851,
      "where you ": 8852,
      "beast": 8853,
      "beast ": 8854,
      "beats ": 8855,
      "fly, ": 8856,
      "MENENIUS: The ": 8857,
      "tell us ": 8858,
      "Wednes": 8859,
      "shield ": 8860,
      "trifl": 8861,
      "Ay, my good ": 8862,
      "ness and ": 8863,
      "Where is my ": 8864,
      "PETRUCHIO: A ": 8865,
      "PETRUCHIO: Nay, ": 8866,
      "droo": 8867,
      "fears ": 8868,
      "fear the ": 8869,
      "fearing ": 8870,
      "Second Watchman: ": 8871,
      "harm\r\n": 8872,
      "Romeo\r\n": 8873,
      "ish'd ": 8874,
      "now: ": 8875,
      "now; ": 8876,
      "fair a ": 8877,
      "ity and ": 8878,
      "BAGO": 8879,
      "cover ": 8880,
      "gentleman\r\n": 8881,
      "Lord Hasting": 8882,
      "Lord Angelo, ": 8883,
      "besides ": 8884,
      "great a ": 8885,
      "Come, sir, ": 8886,
      "men and ": 8887,
      "'t be ": 8888,
      "enemy": 8889,
      "begun": 8890,
      "disse": 8891,
      "disgrace ": 8892,
      "disinher": 8893,
      "swords ": 8894,
      "care, ": 8895,
      "careful ": 8896,
      "corn ": 8897,
      "corrupt ": 8898,
      "power: ": 8899,
      "chasti": 8900,
      "purge ": 8901,
      "purple ": 8902,
      "'Tis a ": 8903,
      "Bushy, ": 8904,
      "immortal ": 8905,
      "impossible ": 8906,
      "leave the ": 8907,
      "little, ": 8908,
      "against my ": 8909,
      "against his ": 8910,
      "against thy ": 8911,
      "What, art thou ": 8912,
      "prince\r\n": 8913,
      "princes ": 8914,
      "princess ": 8915,
      "d, and the ": 8916,
      "Shalt ": 8917,
      "JULIET: What ": 8918,
      "first\r\n": 8919,
      "subdu": 8920,
      "Whiles ": 8921,
      "will? ": 8922,
      "brothers ": 8923,
      "arm'd ": 8924,
      "Have we ": 8925,
      "Have I not ": 8926,
      "soul's ": 8927,
      "souls of ": 8928,
      "friends": 8929,
      "Thy father ": 8930,
      "Came ": 8931,
      "Cambi": 8932,
      "bear\r\n": 8933,
      "burning ": 8934,
      "ness\r\n": 8935,
      "both are ": 8936,
      "LUCIO: ISABELLA: ": 8937,
      "happin": 8938,
      "away: ": 8939,
      "away? ": 8940,
      "wind, ": 8941,
      "Good morrow, ": 8942,
      "born, ": 8943,
      "could never ": 8944,
      "fortune, ": 8945,
      "love: ": 8946,
      "down the ": 8947,
      "waters ": 8948,
      "I say! ": 8949,
      "worldly ": 8950,
      "TRANIO: And ": 8951,
      "among": 8952,
      "amend": 8953,
      "amongst ": 8954,
      "closed ": 8955,
      "looks\r\n": 8956,
      "; though ": 8957,
      "estee": 8958,
      "estate ": 8959,
      "Why dost thou ": 8960,
      "call it ": 8961,
      "Will I ": 8962,
      "Clarence! ": 8963,
      "push ": 8964,
      "comfort\r\n": 8965,
      "comfortable ": 8966,
      "cousin! ": 8967,
      "remedy\r\n": 8968,
      "myself: ": 8969,
      "clamour ": 8970,
      "live in ": 8971,
      "think you ": 8972,
      "think you? ": 8973,
      "banishment ": 8974,
      "banishment\r\n": 8975,
      "Boy: ": 8976,
      "hand and ": 8977,
      "hand that ": 8978,
      "This, ": 8979,
      "pitch ": 8980,
      "ving the ": 8981,
      "confess, ": 8982,
      "hour\r\n": 8983,
      "somewhat ": 8984,
      "queen? ": 8985,
      "tains ": 8986,
      "il and ": 8987,
      "delight ": 8988,
      "If this ": 8989,
      "temples ": 8990,
      "Pau": 8991,
      "Pati": 8992,
      "gone: ": 8993,
      "gone? ": 8994,
      "sin\r\n": 8995,
      "patient\r\n": 8996,
      "as I hear, ": 8997,
      "myself and ": 8998,
      "Return ": 8999,
      "FRIAR PETER: ": 9000,
      "sent for ": 9001,
      "fair\r\n": 9002,
      "officer": 9003,
      "wrong'd ": 9004,
      "virtues ": 9005,
      "though they ": 9006,
      "Even in the ": 9007,
      "bid! ": 9008,
      "hasty ": 9009,
      "you shall find ": 9010,
      "shalt thou ": 9011,
      "speak; ": 9012,
      "desert ": 9013,
      "Third Gentleman: ": 9014,
      "grew ": 9015,
      "tears: ": 9016,
      "yet? ": 9017,
      "then, to ": 9018,
      "damna": 9019,
      "none of ": 9020,
      "them? ": 9021,
      "age and ": 9022,
      "spirit! ": 9023,
      "whom you ": 9024,
      "mistress, ": 9025,
      "beauty, ": 9026,
      "beauty's ": 9027,
      "POMPE": 9028,
      "no more but ": 9029,
      "Comfor": 9030,
      "Comes ": 9031,
      "Tell": 9032,
      "even so ": 9033,
      "each other's ": 9034,
      "forth to ": 9035,
      "Does ": 9036,
      "Much ": 9037,
      "study ": 9038,
      "fellows, ": 9039,
      "together\r\n": 9040,
      "together: ": 9041,
      "country\r\n": 9042,
      "loss, ": 9043,
      "meat ": 9044,
      "wreck": 9045,
      "wretch ": 9046,
      "send the ": 9047,
      "Harry, ": 9048,
      "Alas! ": 9049,
      "fall of ": 9050,
      "fault, ": 9051,
      "silence ": 9052,
      "silence, ": 9053,
      "fit to ": 9054,
      "surely ": 9055,
      "farewell, ": 9056,
      "Bolingbroke\r\n": 9057,
      "bones ": 9058,
      "colour ": 9059,
      "storm ": 9060,
      "she'll ": 9061,
      "mind to ": 9062,
      "back to ": 9063,
      "dearly ": 9064,
      "hence to ": 9065,
      "captain ": 9066,
      "You are a ": 9067,
      "help to ": 9068,
      "traitor's ": 9069,
      "Did you ": 9070,
      "Did not ": 9071,
      "Jove's ": 9072,
      "sound\r\n": 9073,
      "I can tell ": 9074,
      "sorrow, ": 9075,
      "sorrows ": 9076,
      "again to ": 9077,
      "cture ": 9078,
      "obsequi": 9079,
      "discre": 9080,
      "discover ": 9081,
      "obey\r\n": 9082,
[...]
